<unk>	0
<s>	0
</s>	0
।	-2.98943
,	-3.68542
ের	-4.3935
▁এবং	-4.52216
-	-4.60149
র	-4.62016
▁ও	-4.65648
▁হয়	-4.77248
▁	-4.85267
▁করে	-4.95319
▁তিনি	-5.07647
▁(	-5.09642
▁করেন	-5.11339
)	-5.15018
▁এই	-5.16944
▁একটি	-5.18159
▁থেকে	-5.29039
▁"	-5.29087
▁সালে	-5.29665
▁করা	-5.34137
"	-5.40127
ে	-5.4568
▁এর	-5.49963
কে	-5.53431
▁তার	-5.5639
▁জন্য	-5.72021
.	-5.76024
▁বা	-5.92328
▁ছিল	-5.94309
▁হিসেবে	-5.97527
▁মধ্যে	-5.97751
▁এ	-6.00502
ই	-6.0646
▁সালের	-6.0695
ও	-6.10101
▁সাথে	-6.16176
▁প্রথম	-6.17216
▁তাঁর	-6.17523
▁যায়	-6.18469
▁ছিলেন	-6.20435
:	-6.27557
▁হয়ে	-6.29555
▁যে	-6.29795
▁এটি	-6.32347
▁না	-6.38708
▁যা	-6.40673
▁হল	-6.44759
টি	-6.45787
▁পর	-6.45845
▁হন	-6.4628
▁একজন	-6.47728
▁এক	-6.48439
তে	-6.49667
▁রয়েছে	-6.52296
▁হয়েছে	-6.5289
▁করতে	-6.53603
▁বছর	-6.58273
▁থাকে	-6.60866
▁সময়	-6.6502
▁নিয়ে	-6.65841
▁শুরু	-6.68541
▁তাদের	-6.68726
▁নাম	-6.71591
▁পর্যন্ত	-6.73161
য়	-6.7354
▁বিভিন্ন	-6.76982
▁করার	-6.77377
স	-6.77855
দের	-6.7943
'	-6.82313
▁অবস্থিত	-6.82687
▁কিন্তু	-6.83448
▁ভারতের	-6.86665
ন	-6.87159
▁কিছু	-6.8896
▁প্রধান	-6.89513
▁জন	-6.89927
রা	-6.91292
▁করেছেন	-6.9243
▁দিয়ে	-6.92847
এর	-6.94437
▁লাভ	-6.94973
▁বলে	-6.95384
▁কাজ	-6.96106
▁মাধ্যমে	-6.97765
া	-6.98346
▁নামে	-6.98671
▁আছে	-7.00234
▁ব্যবহার	-7.01039
▁প্রায়	-7.01225
▁হতে	-7.01799
▁জাতীয়	-7.01917
▁পারে	-7.02517
▁হয়েছিল	-7.03463
▁কোন	-7.03741
;	-7.04148
▁তারা	-7.04905
▁অংশ	-7.05087
▁দ্বারা	-7.05389
▁জেলার	-7.0616
▁হার	-7.07211
▁চলচ্চিত্র	-7.07503
▁অনেক	-7.08837
▁দক্ষিণ	-7.10156
▁তবে	-7.12257
▁দলের	-7.14509
ি	-7.15267
’	-7.15513
▁আর	-7.16197
▁তা	-7.17081
▁বাংলাদেশের	-7.17481
%	-7.17605
▁উপর	-7.18174
▁তাকে	-7.21448
এ	-7.22438
▁ক্রিকেট	-7.23598
▁দেখা	-7.24116
▁বেশি	-7.24938
▁উত্তর	-7.253
ী	-7.25935
▁পরিচিত	-7.2651
▁সে	-7.27101
▁যার	-7.27553
▁বাংলাদেশ	-7.27748
▁হচ্ছে	-7.28637
▁অন্যান্য	-7.28692
▁-	-7.28857
▁পরে	-7.3021
▁দল	-7.30443
),	-7.30651
▁ইউনিয়ন	-7.30782
▁অভিনয়	-7.31055
▁দিকে	-7.31057
▁দ্বিতীয়	-7.31059
▁করেছিলেন	-7.3222
▁।	-7.32615
▁দুই	-7.33007
▁ফলে	-7.337
▁পুরস্কার	-7.33748
▁১	-7.33922
▁দেন	-7.34378
▁বিশ্ববিদ্যালয়	-7.34711
▁()	-7.35186
▁সঙ্গে	-7.35646
▁'	-7.35826
ক	-7.36129
▁অন্যতম	-7.37347
▁সাল	-7.37972
▁ভারতীয়	-7.39714
▁আন্তর্জাতিক	-7.40755
▁সদস্য	-7.42857
▁পাওয়া	-7.44237
▁বড়	-7.44847
▁পূর্ব	-7.44939
▁এখানে	-7.45033
▁হিসাবে	-7.46021
▁২	-7.4607
▁সেই	-7.46493
▁নতুন	-7.47031
▁বলা	-7.47035
▁হবে	-7.4716
▁তৈরি	-7.47239
▁টি	-7.48352
▁শহরের	-7.48785
▁কারণে	-7.49761
▁শেষ	-7.50453
▁কাছে	-7.50935
▁প্রতি	-7.53736
▁‘	-7.5545
▁সাক্ষরতা	-7.55952
▁বর্তমানে	-7.55991
▁দেয়	-7.56369
▁মার্কিন	-7.57791
▁এছাড়াও	-7.58552
/	-7.5995
▁৩	-7.60683
▁জন্ম	-7.6152
▁শহর	-7.61968
s	-7.62306
▁জেলা	-7.62446
▁বাংলা	-7.63241
▁যেমন	-7.63333
▁ভাষা	-7.63536
▁অর্জন	-7.63763
▁অব	-7.63926
▁কম	-7.64233
▁বিপক্ষে	-7.65298
▁সবচেয়ে	-7.65348
▁করেছে	-7.66133
▁সরকার	-7.66406
▁অনুষ্ঠিত	-7.66745
▁সময়ে	-7.67128
▁মত	-7.67258
▁দায়িত্ব	-7.68087
▁একই	-7.68439
▁কথা	-7.6849
▁প্রদান	-7.68505
▁পালন	-7.68669
▁এরপর	-7.69022
▁বিশেষ	-7.69031
▁৬	-7.69038
▁যান	-7.69191
ল	-7.69503
▁পায়	-7.6956
▁শিক্ষা	-7.69865
▁তখন	-7.70979
▁খেলায়	-7.71278
▁আল	-7.71784
▁মে	-7.7203
▁কলেজ	-7.72341
▁ক্ষেত্রে	-7.72703
▁যেখানে	-7.72717
৫	-7.7287
▁প্রকাশ	-7.7301
▁যখন	-7.73234
▁তাঁকে	-7.73379
▁সাধারণ	-7.73396
▁কারণ	-7.73503
▁বেশ	-7.73758
▁ভারত	-7.75495
▁ঘটে	-7.75541
▁কোনো	-7.75748
▁নদী	-7.76073
ম	-7.76233
ভাবে	-7.76486
▁নয়	-7.76489
▁৪	-7.77199
▁পান	-7.77491
▁ছোট	-7.77782
▁উপজেলার	-7.77848
▁নামক	-7.78391
▁অনুসারে	-7.78555
▁দুটি	-7.79018
▁গ্রহণ	-7.79471
▁রাজ্যের	-7.79934
গুলো	-7.80155
▁নারী	-7.80416
▁রান	-7.80534
▁পূর্বে	-7.80609
্	-7.80746
%।	-7.81044
▁৫	-7.81289
▁১০	-7.81712
▁অনুযায়ী	-7.82095
১	-7.82469
▁সংখ্যা	-7.82628
▁কর্তৃক	-7.83221
▁মূল	-7.83812
▁অবস্থান	-7.84059
▁দ্য	-7.84837
তা	-7.8558
▁ব্যবহৃত	-7.85622
▁স্থান	-7.85903
▁গড়ে	-7.85906
▁তারিখে	-7.86119
▁অন্য	-7.86289
▁মনে	-7.86403
▁ব্রিটিশ	-7.86455
গুলি	-7.87056
২	-7.87706
▁দেওয়া	-7.87865
▁মোট	-7.88683
▁প্রকাশিত	-7.8928
সহ	-7.89473
▁পরবর্তীতে	-7.89758
(	-7.90175
▁পুরুষ	-7.90275
▁কেন্দ্র	-7.90401
▁উচ্চ	-7.90461
▁কে	-7.90855
▁সকল	-7.90911
▁অর্থ	-7.91364
▁যদিও	-7.91571
ার	-7.9184
▁ঢাকা	-7.9198
▁চলে	-7.92067
▁এদের	-7.9223
▁অফ	-7.93454
▁দেশের	-7.93692
▁ইউনিয়নের	-7.93735
▁করতেন	-7.93921
▁বিরুদ্ধে	-7.94003
▁এছাড়া	-7.94029
ো	-7.94043
▁অ	-7.94198
▁হলো	-7.94329
▁গঠিত	-7.94379
▁যিনি	-7.94766
▁ঐ	-7.94966
▁হওয়ার	-7.95203
▁তিন	-7.96141
▁১৫	-7.96216
▁যোগ	-7.96269
▁আগে	-7.96377
▁খান	-7.96396
▁মতো	-7.965
ত	-7.96594
▁মার্চ	-7.97164
▁সব	-7.97614
▁ধরনের	-7.97713
▁হলে	-7.97783
▁নেন	-7.97955
▁দেয়া	-7.98072
▁গুরুত্বপূর্ণ	-7.99062
▁মধ্য	-7.99404
▁আরও	-7.99582
▁সেখানে	-7.99622
▁দিন	-7.9974
▁the	-8.00077
▁পক্ষে	-8.00263
▁ভাষায়	-8.00494
▁বিদ্যালয়	-8.00853
▁চলচ্চিত্রে	-8.01062
▁প্রতিষ্ঠিত	-8.01108
জ	-8.01233
▁ধরে	-8.01366
▁অথবা	-8.02061
▁নির্মাণ	-8.02194
০০০	-8.02879
▁পড়ে	-8.03099
▁নির্বাচিত	-8.03172
▁“	-8.03218
▁বিখ্যাত	-8.03999
▁যুদ্ধ	-8.04253
▁টেস্ট	-8.0433
▁অঞ্চলে	-8.0439
▁নির্মিত	-8.05332
▁২০১১	-8.0558
▁১২	-8.05665
▁ডিসেম্বর	-8.05702
▁সাধারণত	-8.05743
▁তিনটি	-8.05759
টির	-8.06671
ঃ	-8.0668
▁পরিচালনা	-8.06782
▁মিটার	-8.06786
▁জন্মগ্রহণ	-8.06904
না	-8.0698
▁কিলোমিটার	-8.07137
▁মা	-8.07228
▁সহ	-8.07248
▁প্রাচীন	-8.07476
",	-8.07701
▁জুন	-8.07742
▁উল্লেখ	-8.07788
ীয়	-8.07866
▁গান	-8.08112
▁মাত্র	-8.0825
▁রাজা	-8.08721
▁জনসংখ্যা	-8.0889
▁বছরের	-8.09042
▁থাকেন	-8.09061
▁মাসে	-8.09113
▁যুক্ত	-8.09738
▁ঘোষণা	-8.10125
▁এতে	-8.1014
▁এলাকা	-8.10195
▁জনপ্রিয়	-8.10273
▁ইত্যাদি	-8.10423
▁খুব	-8.10458
▁বলেন	-8.10582
বি	-8.10814
▁বর্তমান	-8.10906
▁উপজেলা	-8.1112
▁মূলত	-8.1138
▁হত	-8.11396
▁ক্রিকেটে	-8.12216
▁আসে	-8.12234
▁পরিচালিত	-8.12259
▁তাই	-8.12506
▁পশ্চিম	-8.12541
▁of	-8.12734
▁অংশগ্রহণ	-8.12796
▁আবার	-8.12945
▁জুলাই	-8.13553
▁উল্লেখযোগ্য	-8.13643
▁এপ্রিল	-8.13764
▁অন্তর্ভুক্ত	-8.13777
▁সৃষ্টি	-8.14169
সি	-8.14409
▁ব্যবস্থা	-8.14427
▁অঞ্চল	-8.14466
▁৭	-8.14493
▁সর্বোচ্চ	-8.14613
পুর	-8.14849
▁দলে	-8.14909
▁পাকিস্তান	-8.14954
▁স্কুল	-8.15171
▁করেছিল	-8.15997
▁এমন	-8.16342
▁উইকেট	-8.16449
▁বি	-8.16462
▁৮	-8.1672
▁সম্পর্কে	-8.16874
▁জানুয়ারি	-8.17142
▁স	-8.17235
▁অঞ্চলের	-8.17443
▁১৪	-8.1779
▁২০	-8.1789
▁অক্টোবর	-8.18102
▁হলেন	-8.18379
▁মানুষের	-8.18486
▁২০০১	-8.1882
▁নভেম্বর	-8.18932
▁বিষয়ে	-8.19176
▁এলাকায়	-8.1931
▁খেলার	-8.19356
ব	-8.19405
গুলির	-8.19574
▁সেরা	-8.19603
মা	-8.19812
▁মানুষ	-8.19886
▁পাশাপাশি	-8.19915
▁তৃতীয়	-8.19975
▁আরো	-8.20063
▁১৩	-8.20437
িত	-8.20682
নি	-8.20778
”	-8.20865
▁১৬	-8.21656
▁বয়সে	-8.22053
▁সেপ্টেম্বর	-8.22378
▁মতে	-8.22399
▁২০১৪	-8.22496
▁বিভাগে	-8.23131
▁নি	-8.23203
▁১১	-8.23754
▁আইন	-8.23777
▁রাজ্য	-8.23826
▁রাজনৈতিক	-8.23934
▁সি	-8.24046
▁জয়	-8.24774
▁স্থানীয়	-8.2491
▁নেয়	-8.25169
দ্য	-8.25227
▁২০১২	-8.25287
▁সারা	-8.25364
▁স্বাধীনতা	-8.25398
পা	-8.25609
▁মুসলিম	-8.26397
▁নদীর	-8.26541
▁চরিত্রে	-8.26833
▁রাজধানী	-8.2689
▁জীবন	-8.27067
▁গঠন	-8.2708
৩	-8.27151
▁মৌসুমে	-8.27405
▁কয়েকটি	-8.27612
▁অন্তর্গত	-8.27729
▁বিশ্বের	-8.27849
▁ভূমিকা	-8.27886
▁তথ্য	-8.27955
▁কি	-8.28118
▁প্রতিষ্ঠা	-8.28154
জন্ম	-8.28187
▁হলেও	-8.28349
▁পরবর্তী	-8.28611
▁আগস্ট	-8.28704
বা	-8.29589
▁২০১৩	-8.29735
▁মহিলা	-8.30246
▁খেলা	-8.30361
▁সদর	-8.30449
▁এটা	-8.30526
▁পরিবর্তন	-8.30565
▁৯	-8.30673
▁সম্পর্ক	-8.30869
শ	-8.31053
▁নিজের	-8.3117
▁চার	-8.31478
▁ফিরে	-8.31522
▁পরাজিত	-8.31568
▁ফেব্রুয়ারি	-8.31597
▁২০১০	-8.31655
▁যেতে	-8.32224
▁বিশ্ব	-8.32252
▁দেশ	-8.32571
▁সরকারি	-8.32697
▁মুক্তি	-8.3274
টা	-8.32844
▁শহরে	-8.32851
▁ই	-8.32864
▁স্থানে	-8.3301
▁আধুনিক	-8.33228
▁আসেন	-8.33518
▁চালু	-8.33837
")	-8.34025
ড	-8.34317
▁হিন্দু	-8.3438
▁প্রাথমিক	-8.3476
▁লেখা	-8.35047
িং	-8.35095
▁থেকেই	-8.35265
▁যুদ্ধে	-8.35437
▁মাঝে	-8.35574
▁ফুটবল	-8.35854
▁রচনা	-8.36083
▁২০০৮	-8.36107
▁৩০	-8.36252
কা	-8.36373
▁সরকারের	-8.36475
▁সঙ্গীত	-8.36716
▁যারা	-8.36754
ট	-8.36958
▁সুযোগ	-8.37307
▁মৃত্যু	-8.3766
▁নেই	-8.37778
▁প্রতিষ্ঠান	-8.37949
▁২০১৫	-8.38334
▁নিউ	-8.38378
▁পরিচালক	-8.38517
ং	-8.38545
▁মন্দির	-8.39268
▁ডি	-8.39322
▁শ্রেষ্ঠ	-8.39359
▁অভিষেক	-8.3947
▁সামরিক	-8.40161
▁রাখা	-8.40225
▁ধারণা	-8.40745
িয়া	-8.40768
▁গবেষণা	-8.40773
▁বহু	-8.40899
▁গেছে	-8.41629
▁যদি	-8.42104
▁ভাষার	-8.42129
▁ভাগ	-8.42262
▁বৃদ্ধি	-8.42459
৪	-8.42588
▁জনসংখ্যার	-8.42863
▁২০১৬	-8.43505
▁১৭	-8.43625
▁ধর্ম	-8.43705
▁অধীনে	-8.43721
▁পুত্র	-8.43724
▁তাঁদের	-8.43824
▁২০০৯	-8.43866
▁বিমান	-8.43907
▁এম	-8.4406
িক	-8.44115
▁খ্রিস্টাব্দে	-8.4428
▁ভারতে	-8.44451
▁ব্যক্তি	-8.44672
▁ভাবে	-8.44684
▁একে	-8.44696
▁টেস্টে	-8.44739
▁দু	-8.44867
▁ফুট	-8.45018
▁হাজার	-8.45039
▁যাতে	-8.45056
▁ক্লাব	-8.45394
লি	-8.45711
▁স্থাপন	-8.45921
লা	-8.45991
সা	-8.46061
গুলোর	-8.46217
▁শব্দ	-8.46392
▁কলকাতা	-8.46503
▁এরা	-8.46568
▁ইসলাম	-8.46609
▁আক্রমণ	-8.47104
▁মৃত্যুর	-8.47112
▁প্রভাব	-8.47142
▁আ	-8.47277
▁হাতে	-8.47346
▁তালিকা	-8.47523
▁নামের	-8.47855
▁ভাই	-8.47916
▁অবস্থায়	-8.47935
▁চলচ্চিত্রের	-8.4796
▁বিভাগের	-8.47962
▁১৮	-8.48135
▁২০০৬	-8.4815
▁পরিণত	-8.48402
শ্রেণীর	-8.48626
▁প্রচলিত	-8.48715
মি	-8.4879
▁একটা	-8.49124
▁জানা	-8.49156
▁উন্নয়ন	-8.49177
▁হওয়া	-8.4921
▁চট্টগ্রাম	-8.49448
▁একমাত্র	-8.49815
৷	-8.49955
▁নারীদের	-8.5013
▁মিলিয়ন	-8.50225
▁পিতা	-8.50353
▁অভিনেতা	-8.50695
▁তুলে	-8.50788
▁যুক্তরাষ্ট্রের	-8.5086
▁দিতে	-8.50921
▁বিজ্ঞান	-8.51044
▁তৈরী	-8.51092
▁অভিনেত্রী	-8.51104
▁ওপর	-8.5126
▁শিল্প	-8.51311
▁দেশে	-8.5132
▁পরিবারের	-8.51636
▁বই	-8.51947
▁২০০৭	-8.52544
▁উভয়	-8.52675
▁খেলোয়াড়	-8.52798
▁ছিলো	-8.53186
▁স্ত্রী	-8.53379
▁দিক	-8.54006
▁অধিকাংশ	-8.54179
▁পাকিস্তানের	-8.5429
▁আলী	-8.54353
৬	-8.54649
▁বাস	-8.54812
▁১৯৭১	-8.5524
▁ভিত্তি	-8.55263
▁বিশ্বাস	-8.5534
▁যেটি	-8.55403
▁যুদ্ধের	-8.55494
▁নামকরণ	-8.55578
▁বাবা	-8.55664
▁রচিত	-8.5567
▁গড়	-8.55918
▁গ্রাম	-8.55934
▁সামাজিক	-8.56005
▁ইংল্যান্ড	-8.56304
▁করলে	-8.56698
▁and	-8.56953
রি	-8.56984
▁২৫	-8.56999
▁২০১৮	-8.57546
▁ক্ষমতা	-8.57653
▁বিভাগ	-8.57782
▁মারা	-8.57815
▁ছবি	-8.58322
▁দুইটি	-8.58346
▁পাঁচ	-8.58389
▁২০১৭	-8.58668
▁তৎকালীন	-8.5871
▁পানি	-8.58899
▁বিশিষ্ট	-8.59163
গ	-8.59407
কারী	-8.59461
▁২৪	-8.59673
▁নির্দিষ্ট	-8.60227
▁সক্ষম	-8.6027
▁গ্রামে	-8.60632
▁সংস্থা	-8.6083
তার	-8.60851
▁অধিক	-8.60971
▁কেন্দ্রীয়	-8.61076
▁থাকা	-8.61144
▁রহমান	-8.61287
▁ধর্মীয়	-8.61671
▁বর্ণনা	-8.61903
▁পর্যায়ে	-8.61913
জি	-8.62008
▁র	-8.62313
▁ইংরেজি	-8.62367
▁সম্পন্ন	-8.62708
▁প্রশাসনিক	-8.62949
▁বিষয়	-8.63008
▁এখন	-8.63018
▁অর্থাৎ	-8.6304
▁ছাত্র	-8.63132
▁চেষ্টা	-8.63164
▁লোক	-8.63191
▁বিয়ে	-8.63248
▁তে	-8.63276
▁ওয়েস্ট	-8.63483
▁মাস	-8.63625
▁শক্তি	-8.63654
▁ইতিহাস	-8.63725
দ	-8.64248
▁আরব	-8.64939
▁গিয়ে	-8.6502
▁(;	-8.65065
▁সংসদ	-8.6507
▁[[	-8.65214
▁অধিকার	-8.65682
▁একক	-8.6569
▁পুরুষদের	-8.65766
▁১৯	-8.65784
▁সাহিত্য	-8.65981
য়ে	-8.66125
▁সন্তান	-8.66137
▁মান	-8.66343
▁বলতে	-8.66347
▁বের	-8.66427
▁বসবাস	-8.66451
প	-8.66455
▁স্টেশন	-8.66493
▁এসে	-8.66642
শে	-8.6671
▁ব্যাপক	-8.66801
▁ডিগ্রি	-8.66861
▁সংগ্রহ	-8.66995
▁চারটি	-8.67002
▁ভিন্ন	-8.67034
▁দীর্ঘ	-8.6706
▁পদ্ধতি	-8.67284
▁কার্যক্রম	-8.67678
▁চেয়ে	-8.67682
▁সিদ্ধান্ত	-8.6769
▁দক্ষিণে	-8.6774
▁ইংরেজ	-8.67847
▁হতো	-8.6786
▁উত্তরে	-8.67939
▁বিশ্ববিদ্যালয়ে	-8.67956
▁অস্ট্রেলিয়া	-8.68225
▁প্রবেশ	-8.68236
▁হয়নি	-8.68487
▁দশকে	-8.68558
▁লেখক	-8.68587
▁বাংলাদেশে	-8.6876
▁দখল	-8.68854
তম	-8.68893
▁টেলিভিশন	-8.68895
▁বিবাহ	-8.69076
▁সাহায্য	-8.6909
▁দেখতে	-8.69101
▁২৩	-8.69628
▁জীবনের	-8.69658
▁বাহিনী	-8.7005
▁ঘটনা	-8.70059
]]	-8.70066
▁লাল	-8.70105
▁সময়ের	-8.70557
▁পশ্চিমে	-8.70577
▁রায়	-8.70757
▁বয়সী	-8.70812
▁কাজে	-8.7083
▁নির্বাচনে	-8.71041
▁বন্ধ	-8.7113
▁ঐতিহাসিক	-8.71201
▁রেকর্ড	-8.71251
ডি	-8.71341
সমূহ	-8.71342
▁বৌদ্ধ	-8.71705
▁শাহ	-8.71754
▁হত্যা	-8.72107
▁মাধ্যমিক	-8.72472
▁বৃহত্তম	-8.72589
০	-8.72644
▁শিক্ষক	-8.72677
▁কবি	-8.72729
▁অ্যান্ড	-8.72759
▁বিভক্ত	-8.72784
লে	-8.72943
হ	-8.73086
▁প্রতিযোগিতায়	-8.73393
▁প্রতিটি	-8.73437
▁সাবেক	-8.74052
▁চৌধুরী	-8.74331
–	-8.74364
▁২১	-8.74368
▁পৃথিবীর	-8.74498
▁কয়েক	-8.7451
▁করছে	-8.74534
▁সাদা	-8.7465
৭	-8.74949
%,	-8.75051
▁ইন	-8.75178
▁সম্পূর্ণ	-8.75283
▁২০০৫	-8.7531
▁শুধুমাত্র	-8.75433
▁পরিবার	-8.75481
গণ	-8.75576
▁সম্ভব	-8.75662
▁প্রতিনিধিত্ব	-8.75784
▁জন্যে	-8.75855
▁প্রজাতির	-8.76311
▁কালো	-8.76484
▁শেষে	-8.76896
▁পরিমাণ	-8.76908
▁রাষ্ট্রপতি	-8.76962
▁পরিকল্পনা	-8.77027
বার	-8.77155
▁আই	-8.77261
▁আলাদা	-8.77264
▁২২	-8.77301
▁২৬	-8.77353
আ	-8.77402
▁বার	-8.77465
▁in	-8.77473
৮	-8.77476
▁নিজ	-8.77483
▁তাঁরা	-8.77627
▁বোলিং	-8.77645
▁ক্রিকেটার	-8.77713
▁জেলায়	-8.778
▁মসজিদ	-8.77822
জন	-8.78045
▁রেল	-8.78059
▁ধরা	-8.78079
▁পরবর্তীকালে	-8.78206
▁গোল	-8.7823
▁অধ্যাপক	-8.78315
▁ভর্তি	-8.78323
▁তুলনায়	-8.78342
▁লক্ষ্য	-8.78445
▁কম্পিউটার	-8.7849
▁নং	-8.78574
▁সমগ্র	-8.78606
▁লক্ষ	-8.78648
কি	-8.79279
▁উচ্চতা	-8.79288
▁বাইরে	-8.7939
▁–	-8.79412
▁জি	-8.79432
▁পি	-8.795
▁এস	-8.79644
▁নির্দেশ	-8.797
▁সু	-8.79718
কার	-8.7973
▁ইংল্যান্ডের	-8.80082
য়ের	-8.80138
▁মনোনীত	-8.80165
▁শতাব্দীর	-8.80171
ফ	-8.80197
▁খ্রিষ্টাব্দে	-8.80202
▁২০০৪	-8.80223
▁বল	-8.80262
▁ধরণের	-8.80597
▁এলাকার	-8.80603
▁সমস্ত	-8.80762
▁৫০	-8.80924
▁হয়েছিলেন	-8.80932
▁চলচ্চিত্রটি	-8.80976
▁করত	-8.80982
▁উদ্দেশ্যে	-8.81052
▁প্রয়োজন	-8.81054
▁ইবনে	-8.81261
▁পুনরায়	-8.81465
▁ভবন	-8.81554
▁করবে	-8.81826
"-	-8.81874
▁৫৯	-8.82022
▁পা	-8.82093
▁সংযুক্ত	-8.8216
▁মুহাম্মদ	-8.82208
▁প্রদেশ	-8.82308
াল	-8.82337
▁জার্মান	-8.8254
▁নিযুক্ত	-8.82668
▁অত্যন্ত	-8.82725
▁প্রদেশের	-8.8277
▁শতকের	-8.82867
▁নির্বাচন	-8.82877
▁দ্রুত	-8.82955
|	-8.82988
▁ওঠে	-8.83121
▁গ্রন্থ	-8.83287
▁নিজস্ব	-8.83364
▁উপন্যাস	-8.83431
▁যোগাযোগ	-8.83468
▁অর্থনৈতিক	-8.83654
▁শব্দটি	-8.83666
▁করছেন	-8.84233
▁বাজার	-8.84453
▁রূপ	-8.84476
ভ	-8.84499
▁২৭	-8.84602
▁লীগ	-8.84631
▁|	-8.84824
َ	-8.85058
▁তারপর	-8.8517
▁আয়তন	-8.85321
▁জীবনে	-8.85328
▁২০০০	-8.85587
▁ছাড়া	-8.85599
▁লা	-8.86175
▁নিকট	-8.86203
▁অভিনয়ের	-8.86634
▁প্রতিযোগিতা	-8.86689
▁বাংলার	-8.86697
▁ছবিতে	-8.86753
▁যৌন	-8.86863
▁সড়ক	-8.87074
▁পারেন	-8.87302
▁যাত্রা	-8.87351
ু	-8.87899
▁কিংবা	-8.87909
▁২৮	-8.87911
▁নানা	-8.87924
দা	-8.88204
ঁ	-8.88363
▁মোহাম্মদ	-8.88605
▁কোম্পানি	-8.88747
▁দেবী	-8.88766
▁আসন	-8.88811
▁বর্গ	-8.88923
▁কাছ	-8.88927
্স	-8.8893
▁পুলিশ	-8.88937
▁কেউ	-8.8899
▁রাষ্ট্র	-8.89017
▁বিমানবন্দর	-8.89084
▁একাধিক	-8.89179
▁পরিষদ	-8.89234
পূর্ব	-8.89249
▁স্বাধীন	-8.89469
▁কলেজে	-8.89791
সে	-8.9012
▁সাম্রাজ্যের	-8.90171
▁আন্দোলন	-8.90259
▁চতুর্থ	-8.90455
▁বিস্তৃত	-8.9077
স্	-8.90779
য়া	-8.90801
▁পদে	-8.90879
▁অস্ট্রেলিয়ার	-8.91047
▁সম্রাট	-8.91075
▁পথ	-8.91249
▁স্নাতক	-8.91264
▁শাখা	-8.91523
▁আমি	-8.91594
▁যোগদান	-8.91743
▁বাহিনীর	-8.91773
▁কোটি	-8.91808
▁ব্যক্তিগত	-8.91946
▁a	-8.91969
কো	-8.92142
▁সহায়তা	-8.92212
▁জুড়ে	-8.92413
▁প্রভৃতি	-8.92637
▁প্রথমে	-8.92744
▁প্রাপ্ত	-8.92976
▁আহমেদ	-8.93005
উ	-8.93139
▁উপ	-8.9314
▁বৈশিষ্ট্য	-8.93308
▁১০০	-8.93308
▁খেলেন	-8.93373
▁শিশু	-8.93437
▁১৯৯০	-8.93472
▁চুক্তি	-8.93482
▁২০০৩	-8.93517
▁গল্প	-8.93595
▁হবার	-8.9362
▁ধীরে	-8.93627
▁খাদ্য	-8.93646
▁চাইতে	-8.93762
▁সোভিয়েত	-8.93796
▁২৯	-8.93876
▁শেখ	-8.9393
ed	-8.94288
▁বিজয়ী	-8.945
▁ছবিটি	-8.94559
▁অংশে	-8.94703
ুল	-8.949
▁প্রস্তাব	-8.94928
▁ম্যাচ	-8.95076
▁পরিচয়	-8.95102
▁সমর্থন	-8.95243
▁জল	-8.95314
▁হাত	-8.95353
▁ইউ	-8.95493
▁প্রমাণ	-8.95807
▁("	-8.95839
▁যাওয়া	-8.95842
▁বিশাল	-8.9585
▁নেতা	-8.95871
দি	-8.9593
এম	-8.95991
পি	-8.96166
্য	-8.96302
▁ফরাসি	-8.96494
▁পদক	-8.96627
▁মাছ	-8.96643
▁কাজের	-8.96666
▁সরাসরি	-8.967
▁ছেলে	-8.97099
▁একাডেমি	-8.97353
▁নেতৃত্বে	-8.9736
▁প্রাকৃতিক	-8.97406
৯	-8.97499
▁চিহ্নিত	-8.97514
▁ছাড়াও	-8.97673
▁মাইল	-8.97812
▁উৎস	-8.97856
অ	-8.979
▁নিজেদের	-8.98087
▁to	-8.9878
▁মডেল	-8.98902
▁স্কুলে	-8.9893
▁উঠে	-8.9903
▁বন্দর	-8.99328
▁নিতে	-8.9938
▁আমেরিকান	-8.9939
▁নিয়ন্ত্রণ	-8.99484
▁দশকের	-8.99685
▁কন্যা	-8.99753
▁বয়স	-8.99754
▁এসেছে	-8.99797
▁ভূমিকায়	-8.99864
▁উৎপাদন	-8.99908
▁সেবা	-8.99984
▁ইতিহাসে	-8.99986
▁১৯৮০	-8.99996
▁কংগ্রেসের	-9.00034
▁শুধু	-9.0008
▁প্র	-9.00292
▁নিজেকে	-9.00567
তি	-9.00588
▁আয়োজন	-9.00636
▁আন্দোলনের	-9.00745
▁ছয়	-9.0077
নো	-9.00793
মান	-9.00811
▁প্রধানমন্ত্রী	-9.00898
▁বিধানসভা	-9.00943
টিকে	-9.01171
▁চা	-9.01309
▁সিটি	-9.01518
▁আফ্রিকা	-9.01731
▁দূরে	-9.02029
▁আবু	-9.02099
বে	-9.02107
▁ব্যাখ্যা	-9.02115
▁পিতার	-9.02247
ভি	-9.02468
▁বিদ্যমান	-9.0249
▁চরিত্র	-9.02497
▁স্বীকৃতি	-9.02599
▁দাবি	-9.02765
▁বাংলাদেশী	-9.02857
▁পরিচিতি	-9.0293
▁পরীক্ষা	-9.02931
▁কাউন্টি	-9.02992
▁বাড়ি	-9.03079
▁আদমশুমারি	-9.03192
▁সফরে	-9.03217
▁জেনারেল	-9.03266
▁হাই	-9.03355
▁একদিনের	-9.0342
▁পণ্য	-9.03433
▁ক	-9.03481
▁১৯৭০	-9.03514
▁জন্মগ্রহণকারী	-9.03537
▁অবসর	-9.0357
▁শাসন	-9.0383
▁২০০২	-9.03842
▁ড	-9.03912
▁তত্ত্ব	-9.0393
▁সম্পাদক	-9.03939
▁অনুষ্ঠান	-9.03967
▁পশ্চিমবঙ্গ	-9.04095
চ	-9.04191
▁সমস্যা	-9.04359
▁যাওয়ার	-9.04437
▁দৈর্ঘ্য	-9.04482
ভিত্তিক	-9.04655
▁মাসের	-9.04703
▁থাকতে	-9.04738
▁ইনিংসে	-9.0495
▁এন্ড	-9.05035
▁১৯৯৬	-9.05113
▁রেখে	-9.05177
▁থাকার	-9.05257
▁রাখেন	-9.05347
▁পৃথক	-9.05432
▁কখনো	-9.05515
পো	-9.05686
▁কলকাতার	-9.05698
▁খুবই	-9.05801
▁আরেকটি	-9.05826
▁চীনের	-9.05993
▁টাকা	-9.06298
▁গানের	-9.06308
▁ডিগ্রী	-9.0639
▁জড়িত	-9.06528
▁পূর্ণ	-9.06581
▁উপাদান	-9.06649
▁তথা	-9.0666
মূলক	-9.06661
▁সফল	-9.06708
▁দেখে	-9.06768
▁সাংস্কৃতিক	-9.06826
▁সভাপতি	-9.06882
১৭	-9.07205
▁সুবিধা	-9.07285
▁কেবল	-9.07424
রূপে	-9.0748
▁রেলওয়ে	-9.07625
▁রাখে	-9.07668
▁কৃষি	-9.0778
▁কবিতা	-9.07784
▁বাঙালি	-9.07824
জা	-9.07952
▁হোসেন	-9.0798
▁প্রতিষ্ঠাতা	-9.08093
▁ব্যাপারে	-9.081
▁প্রশিক্ষণ	-9.08321
কৃত	-9.08355
▁সম্পর্কিত	-9.08407
▁অবদান	-9.08583
▁পৌরসভা	-9.08602
▁মনোনয়ন	-9.0868
▁ব্যাটসম্যান	-9.08813
▁জে	-9.08959
▁এসব	-9.08971
▁ধারণ	-9.09024
ম্যান	-9.0903
▁শহীদ	-9.0923
▁সর্বাধিক	-9.09253
▁১৯৯১	-9.09267
▁এল	-9.09277
▁নিয়মিত	-9.09283
▁হক	-9.09308
▁সংস্করণ	-9.09475
n	-9.09538
▁ফল	-9.09802
▁মি	-9.09826
▁ফুল	-9.09851
▁গ্রুপ	-9.09968
▁প্রতীক	-9.10143
▁অলিম্পিক	-9.10271
▁প্রচুর	-9.10295
▁ঠিক	-9.10326
▁উদ্দেশ্য	-9.10376
▁ছড়িয়ে	-9.10493
▁নিয়োগ	-9.10546
d	-9.10572
▁এমনকি	-9.10614
ণ	-9.10871
▁উক্ত	-9.11044
▁পদ	-9.11195
▁মুক্ত	-9.11246
▁নিচে	-9.11288
টিতে	-9.11379
▁রে	-9.11408
▁ভাল	-9.11522
▁বিন	-9.11523
▁আমার	-9.11578
▁তালিকায়	-9.11619
▁ডলার	-9.11728
▁পাখি	-9.11834
▁দি	-9.1195
▁মানব	-9.11962
▁যাবে	-9.11977
▁আফ্রিকার	-9.12018
▁আবদুল	-9.12223
▁পাশে	-9.12331
নের	-9.12333
এই	-9.12457
▁ছেড়ে	-9.12497
▁বিবেচনা	-9.12512
▁আলোচনা	-9.12652
▁শিল্পী	-9.12672
▁প্রথমবারের	-9.12782
▁সক্রিয়	-9.13017
▁মর্যাদা	-9.13039
▁বছরে	-9.13056
▁পড়েন	-9.13132
▁চীন	-9.13306
থ	-9.13373
▁অপর	-9.13396
▁দে	-9.13409
▁চূড়ান্ত	-9.13426
▁সিরিজের	-9.13455
▁প্রদর্শন	-9.13524
▁নাটক	-9.13528
▁৪০	-9.13593
১০	-9.13657
▁শিক্ষার	-9.13669
▁শতাংশ	-9.13682
▁জয়ী	-9.13699
▁১৯৬০	-9.1371
▁যুক্তরাষ্ট্র	-9.13719
▁৩১	-9.13854
▁রক্ষা	-9.13934
▁ইউরোপীয়	-9.14172
▁উপরে	-9.14383
▁সাত	-9.14448
▁কাহিনী	-9.14523
▁সেনাবাহিনীর	-9.14597
▁রাজ	-9.14689
ির	-9.14704
▁জ্ঞান	-9.1478
▁ফেলে	-9.14841
▁অন্যদিকে	-9.14931
▁লম্বা	-9.14957
▁উৎসব	-9.14974
▁:	-9.15001
▁পার্থক্য	-9.1521
▁উপস্থিত	-9.15222
▁গ্রামের	-9.15406
▁নীল	-9.15493
১৮	-9.15853
▁মেয়ে	-9.15898
▁অবস্থা	-9.15916
▁নিহত	-9.15957
▁শক্তিশালী	-9.16009
▁১৯৭২	-9.16106
▁বিশ্বকাপ	-9.16146
▁সেন	-9.16292
▁চিকিৎসা	-9.16317
▁আক্রান্ত	-9.16326
গুলিতে	-9.16576
▁পশ্চিমবঙ্গের	-9.1662
▁বেশিরভাগ	-9.16627
▁সংরক্ষিত	-9.1686
▁বীর	-9.16935
▁এন	-9.1705
▁নামেও	-9.1719
▁প্রজাতি	-9.17196
▁১৯৯৯	-9.17205
▁মৌলিক	-9.17207
▁রানের	-9.17267
▁সিরিজ	-9.17756
লো	-9.17833
▁সামনে	-9.17866
এস	-9.17869
▁জর্জ	-9.17909
গত	-9.18068
▁পুরো	-9.18203
▁সা	-9.18299
▁যাদের	-9.18355
▁ভি	-9.1842
▁রঙের	-9.18451
▁১৯৯৮	-9.18479
▁বিষয়ক	-9.18625
▁জাহাজ	-9.18696
▁ত্যাগ	-9.1887
▁সুলতান	-9.19009
▁রোগ	-9.1901
খ	-9.19031
▁নিরাপত্তা	-9.19129
সমূহের	-9.19245
যুক্ত	-9.19307
▁পথে	-9.19421
▁নেতৃত্ব	-9.19434
নে	-9.19496
▁অবশ্য	-9.19501
ইংরেজি	-9.19534
▁পেয়ে	-9.19628
১৫	-9.19669
▁সংগঠন	-9.19805
▁দান	-9.19927
▁চন্দ্র	-9.19978
▁প্রয়োগ	-9.20205
▁মূলতঃ	-9.20333
▁চিত্র	-9.2047
▁সংস্কৃতি	-9.20691
রে	-9.20701
▁বৈজ্ঞানিক	-9.20749
▁ভালো	-9.20797
▁লি	-9.20841
▁পার্টি	-9.20879
▁খাবার	-9.20941
▁ইউনিভার্সিটি	-9.21169
▁আবিষ্কার	-9.21202
▁কাপ	-9.21286
▁ঢাকার	-9.21312
A	-9.21342
▁বোর্ড	-9.2135
▁ঘরোয়া	-9.21381
গা	-9.21439
▁নকশা	-9.21613
▁এশিয়া	-9.21669
▁লিখেছেন	-9.21695
▁গ্রিক	-9.21731
▁=	-9.21753
▁যুগের	-9.21961
▁হওয়ায়	-9.22031
▁সংসদের	-9.22159
a	-9.22232
▁থানার	-9.2228
▁অল্প	-9.22388
▁কুমার	-9.22549
▁পরের	-9.22588
▁ব্যর্থ	-9.22679
▁অতিক্রম	-9.22816
▁ইসলামী	-9.22864
▁তন্মধ্যে	-9.2294
▁লীগের	-9.23002
▁পুরস্কারের	-9.2305
▁পরিবর্তে	-9.23053
▁জনপ্রিয়তা	-9.23061
▁সাম্রাজ্য	-9.23083
▁পাঁচটি	-9.23189
▁নেয়া	-9.23267
▁রাজশাহী	-9.23338
▁শিকার	-9.23435
▁সেন্ট	-9.23446
▁সরকারী	-9.2351
▁অধিনায়ক	-9.23692
▁হয়েছেন	-9.23692
▁ন্যাশনাল	-9.23813
▁সমাজ	-9.23958
▁অতি	-9.24001
▁কর	-9.24079
▁সর্বশেষ	-9.24204
▁স্থাপিত	-9.24223
▁নিশ্চিত	-9.24248
▁শতাব্দীতে	-9.24251
▁ছবির	-9.24295
িন	-9.2433
▁ধ্বংস	-9.24335
▁কলেজের	-9.2434
▁পাশ	-9.24563
▁১৯৯২	-9.24813
▁প্রধানত	-9.24904
▁মায়ের	-9.24929
▁সাহায্যে	-9.24943
▁ফিফা	-9.25217
▁কা	-9.2543
▁বেড়ে	-9.25457
▁শুরুতে	-9.25467
▁চীনা	-9.25477
▁উন্নত	-9.25519
▁১৯৫০	-9.2556
▁কখনও	-9.25577
▁সিস্টেম	-9.25606
▁নির্ভর	-9.25607
▁বোন	-9.2562
মো	-9.25674
▁সম্ভবত	-9.25799
▁নম্বর	-9.25801
▁শতকে	-9.25848
▁রঙ	-9.25909
▁সম্প্রদায়ের	-9.25922
▁বেশী	-9.25924
▁প্রাণী	-9.2601
▁আসা	-9.26075
▁নগর	-9.26146
▁প্রবাহিত	-9.26197
▁বৃহৎ	-9.26314
▁আমাদের	-9.26352
▁সমান	-9.2636
▁ব	-9.26451
▁ব্যাংক	-9.26599
▁লাইন	-9.26634
▁পরিসংখ্যান	-9.26691
▁গুলি	-9.26727
হা	-9.26771
▁বাধ্য	-9.26947
▁পড়াশোনা	-9.27063
▁দর্শন	-9.27118
▁কাছাকাছি	-9.27209
▁পেশাদার	-9.27216
▁সমতল	-9.2754
▁স্বামী	-9.27679
▁)	-9.27776
▁নেওয়া	-9.27806
ান	-9.27886
▁ধারাবাহিক	-9.27902
▁এখনও	-9.27919
▁পাকিস্তানি	-9.28071
ছে	-9.28169
▁১৯৪৭	-9.28318
▁ব্যবসা	-9.28338
১৬	-9.28394
▁বিরোধী	-9.28646
▁প্রযুক্তি	-9.2881
▁কো	-9.28923
▁জেমস	-9.28961
▁আঘাত	-9.29073
▁দলটি	-9.29245
y	-9.2964
▁অনুবাদ	-9.29803
▁অতিরিক্ত	-9.29837
▁রোমান	-9.30096
▁বাণিজ্যিক	-9.30096
▁যুক্তরাষ্ট্রে	-9.30132
▁রাম	-9.30164
▁ভিত্তিতে	-9.30179
▁ক্রীড়া	-9.3031
১২	-9.3031
▁ন্যায়	-9.3034
▁১টি	-9.3039
▁অধ্যয়ন	-9.30411
▁পরিবহন	-9.30425
▁পঞ্চম	-9.30438
▁অ্যালবাম	-9.30631
▁ব্যবধানে	-9.30632
▁আয়	-9.30737
▁আইসিসি	-9.30792
তো	-9.30912
▁করলেও	-9.30926
▁শিরোপা	-9.31081
▁সংক্রান্ত	-9.31096
▁নীতি	-9.31151
▁স্থায়ী	-9.3116
▁জানান	-9.31279
▁গুরুত্ব	-9.31289
ing	-9.31332
▁ক্লাবের	-9.31473
সু	-9.315
▁ধর্মের	-9.31543
▁টিভি	-9.3157
▁০	-9.31572
▁১৯৯৭	-9.31593
▁সমুদ্র	-9.31611
▁রাজনীতিবিদ	-9.31628
কালীন	-9.31683
▁প্রকার	-9.31849
▁মৃত্যুবরণ	-9.31866
▁আদি	-9.31954
▁শ্রী	-9.3215
▁ইন্ডিয়া	-9.32165
▁আকারে	-9.32199
মে	-9.32247
▁নিম্ন	-9.32263
কাল	-9.32323
▁বর্ষপঞ্জীর	-9.32349
e	-9.32392
▁মো	-9.32416
রো	-9.32511
▁সিলেট	-9.32621
▁দ্বীপ	-9.32687
▁এগুলো	-9.3272
কু	-9.32733
▁দলকে	-9.32811
▁আসছে	-9.32817
▁৬০	-9.33267
▁ফর	-9.33319
▁আমরা	-9.33499
▁সর্বপ্রথম	-9.33502
১৪	-9.33597
▁প্রকল্প	-9.33598
▁মন্দিরের	-9.3363
▁নির্মাণের	-9.33676
▁জমিদার	-9.33687
▁দিয়েছেন	-9.33814
▁বাণিজ্য	-9.33823
▁ভূমি	-9.33831
সের	-9.33878
▁পত্রিকা	-9.33904
▁উদ্ভিদ	-9.33921
▁বে	-9.33951
▁দশ	-9.34002
▁বাড়িতে	-9.34055
▁পার	-9.34074
▁আওতাধীন	-9.341
▁আদর্শ	-9.34112
▁এসময়	-9.34124
▁মুখ	-9.34292
▁এটিকে	-9.34333
▁অ্যা	-9.34489
▁পাতা	-9.3449
▁শুরুর	-9.345
▁মাঠে	-9.34591
▁দিল্লি	-9.34669
গো	-9.34676
▁অবস্থানের	-9.34768
▁গাছ	-9.34787
▁কাল	-9.3488
▁কর্তৃপক্ষ	-9.35033
▁তীরে	-9.35106
▁গেলে	-9.35133
গুলোতে	-9.3516
▁পূজা	-9.35226
▁বোলার	-9.35295
▁কর্মকর্তা	-9.35314
▁সংস্কৃত	-9.35391
▁হিন্দি	-9.35436
▁উইলিয়াম	-9.35629
▁বন্ধু	-9.35772
▁প্রচার	-9.35814
▁সিং	-9.35825
▁এশিয়ার	-9.36109
▁যথেষ্ট	-9.36232
▁পরিবেশ	-9.36345
▁পদার্থ	-9.36407
▁উদাহরণ	-9.36412
▁পরিবারে	-9.36471
১৯	-9.36483
▁শহরটি	-9.3649
▁ম্যাচে	-9.36538
▁বাদ	-9.36541
▁মন্ত্রী	-9.36698
▁অর্থনীতি	-9.36725
▁সেনা	-9.369
▁১৯৮৭	-9.37047
▁কর্মরত	-9.37062
al	-9.37105
▁আছেন	-9.37167
▁বাবার	-9.37188
▁আমেরিকার	-9.3738
▁মাতা	-9.37414
▁সত্য	-9.37427
▁দিয়েছিলেন	-9.37518
▁নোবেল	-9.37576
▁মূর্তি	-9.37672
▁সফলতা	-9.37681
▁এটির	-9.37792
নগর	-9.37816
▁ক্ষুদ্র	-9.37818
▁দেওয়ার	-9.37832
বাদ	-9.37856
▁খেলোয়াড়ী	-9.37897
▁প্রায়ই	-9.38017
▁ব্যবহারের	-9.38031
যা	-9.38039
▁রোড	-9.38064
▁সংঘটিত	-9.38098
▁প্রক্রিয়া	-9.38103
▁রুশ	-9.38109
ভা	-9.38139
▁সঠিক	-9.38327
▁লক্ষ্যে	-9.38366
▁বরং	-9.38424
ছেন	-9.38435
▁থানা	-9.38452
▁উ	-9.38464
▁দিনে	-9.38465
▁শিব	-9.3849
▁শহরটির	-9.38508
▁উৎপত্তি	-9.3851
▁ইউনিয়নে	-9.38557
▁ব্যক্তির	-9.38577
▁রাখার	-9.38586
▁টু	-9.38586
▁মাদ্রাসা	-9.38602
▁ল	-9.38616
▁১৯৮৬	-9.38659
▁প্রত্যেক	-9.38699
▁শব্দের	-9.38747
নং	-9.3878
▁রাখতে	-9.3883
▁কিছুটা	-9.38873
▁যেহেতু	-9.3902
▁১৯৯৫	-9.39226
▁নির্ধারণ	-9.39279
▁কু	-9.39398
▁রি	-9.39404
▁মহা	-9.39591
▁তেল	-9.39719
▁জায়গা	-9.3975
▁প্রভাবিত	-9.39763
▁কিমি	-9.39775
▁আঞ্চলিক	-9.39854
জে	-9.39871
▁দেব	-9.39934
▁বন	-9.39991
▁জায়গায়	-9.40331
▁এগিয়ে	-9.40372
▁বিক্রি	-9.40402
▁চ্যানেল	-9.40573
▁কলকাতায়	-9.40729
▁১৯৮২	-9.40838
▁স্বাস্থ্য	-9.40885
গ্রেগরীয়	-9.40913
▁সূত্র	-9.40935
▁ফলাফল	-9.41086
১১	-9.41268
▁পাস	-9.41337
▁কোনও	-9.4134
▁যুগে	-9.41432
▁কমিটি	-9.41472
▁সেনাবাহিনী	-9.4149
▁আনা	-9.41511
▁সরবরাহ	-9.41604
আই	-9.41721
▁পার্টির	-9.41747
▁অস্ত্র	-9.41925
▁দৈনিক	-9.41932
]	-9.41982
▁১৯৯৪	-9.42008
▁ইস্ট	-9.42051
▁সবুজ	-9.42095
▁কোচ	-9.42133
▁১৯৮৪	-9.42211
▁আবদ্ধ	-9.42214
▁বাকি	-9.42367
▁পানির	-9.42371
৩০	-9.42391
▁সূচনা	-9.42439
▁সর্ব	-9.42479
▁বিল	-9.42552
▁গো	-9.42556
টার	-9.42564
▁এয়ার	-9.42576
▁বোঝায়	-9.42779
১৩	-9.42877
▁হ্রাস	-9.42883
▁ডানার	-9.42919
▁বহন	-9.42998
▁১৯৯৩	-9.43031
▁১৯৩০	-9.43093
▁তাহলে	-9.43108
▁প্রস্তুত	-9.43188
▁প্রতিযোগিতার	-9.43224
▁আট	-9.43244
▁সীমানা	-9.43263
▁সংবাদ	-9.4343
▁বিবেচিত	-9.43468
▁[	-9.43684
▁সময়কালে	-9.43754
▁জমি	-9.43881
▁ম	-9.43936
▁গ্রন্থে	-9.43943
▁সংগীত	-9.44003
▁আকার	-9.44082
▁অভিযোগ	-9.44231
t	-9.44285
▁মধ্যকার	-9.44308
▁আব্দুল	-9.44348
▁গণ্য	-9.44431
▁ওয়ার্ল্ড	-9.4446
-'	-9.44496
ইন	-9.4458
▁জয়লাভ	-9.44581
▁সংখ্যক	-9.44611
মার	-9.44675
▁মালিক	-9.44698
েরা	-9.44715
▁ভ্রমণ	-9.4481
▁পেয়েছে	-9.44822
▁মিল	-9.44861
▁S	-9.44863
▁অভিযান	-9.44945
▁সহকারী	-9.44977
▁তারকা	-9.44985
▁১৯৬৯	-9.45057
▁১৯৭৫	-9.45073
▁ঢাকায়	-9.45126
▁ইনস্টিটিউট	-9.45136
▁অভিহিত	-9.4525
▁অল	-9.45275
▁১৯৬২	-9.45466
েই	-9.45537
▁সিরিজে	-9.45568
২০	-9.45666
▁ব্যাটিং	-9.45951
▁বিপরীতে	-9.45969
▁সফটওয়্যার	-9.46006
▁বিস্তার	-9.4622
▁রূপে	-9.46253
▁বলেছেন	-9.46271
▁মেট্রো	-9.46302
▁বিশ্বযুদ্ধের	-9.46373
▁নামটি	-9.46378
▁বিদ্যালয়ে	-9.46381
▁যন্ত্র	-9.46429
▁১৯৪৮	-9.46503
▁হারিয়ে	-9.46566
▁রাজবংশের	-9.46579
▁১৯৮৩	-9.46581
▁আসার	-9.46741
▁চেয়ারম্যান	-9.4676
▁ভিডিও	-9.46788
▁খেলে	-9.46793
▁প্রাক্তন	-9.46796
▁আওয়ামী	-9.46841
▁জাতি	-9.46853
▁সৈয়দ	-9.46948
▁অধিকারী	-9.4695
শি	-9.46961
▁ভূষিত	-9.47026
▁বস্তু	-9.47028
▁আলি	-9.47262
▁এখানকার	-9.4731
▁অনুমতি	-9.47331
▁তারিখ	-9.47483
▁সংযোগ	-9.4792
▁সাগর	-9.47952
▁আজ	-9.47965
▁প্রদত্ত	-9.48038
▁বিদ্যুৎ	-9.481
▁খুঁজে	-9.4811
▁A	-9.4817
▁অনুসরণ	-9.48175
▁আলো	-9.48209
▁থাকলেও	-9.48238
▁বেগম	-9.4827
▁এরফলে	-9.48368
▁২টি	-9.48421
▁যথাক্রমে	-9.48457
ুর	-9.48459
▁পক্ষ	-9.48464
▁কঠিন	-9.48476
▁গাছের	-9.48536
▁১৯৮৯	-9.48625
▁১৯৭৩	-9.4867
▁formula	-9.48687
▁প্রতিষ্ঠার	-9.48718
'-	-9.488
প্র	-9.4885
▁দিবস	-9.4886
▁শাসক	-9.48918
▁একবার	-9.48944
▁১৯৭৯	-9.48951
▁ঘটনার	-9.49036
হীন	-9.49057
▁১৯৭৭	-9.49063
▁কৃষ্ণ	-9.49213
▁মৌসুম	-9.49342
েও	-9.4941
▁১৯৬৭	-9.49414
▁ম্যান	-9.49419
▁অক্ষাংশ	-9.49451
▁প্রকৃত	-9.49458
▁১৯৮৮	-9.49494
▁ভিত্তিক	-9.49546
▁অস্তিত্ব	-9.49562
▁অনুষ্ঠানে	-9.49667
▁লিখিত	-9.49793
▁সাফল্য	-9.49873
▁যেসব	-9.49925
সন	-9.49966
▁সুর	-9.50083
▁সম্বন্ধে	-9.50093
▁কমিটির	-9.50097
▁আমেরিকা	-9.50118
▁প্রতিষ্ঠানের	-9.50315
▁ডে	-9.50323
▁খাল	-9.50324
▁হিসাব	-9.50383
▁পেয়েছিলেন	-9.50445
▁দেখানো	-9.50529
▁কয়েকজন	-9.50539
▁পাওয়ার	-9.50617
▁সফর	-9.50653
▁জাপানের	-9.50665
▁তম	-9.50666
চি	-9.50798
▁সান	-9.50859
▁৮০	-9.50859
▁সীমান্ত	-9.5086
▁তাদেরকে	-9.50908
▁রাস্তা	-9.5093
▁উৎপন্ন	-9.5097
▁উপজেলায়	-9.51035
▁ইয়র্ক	-9.51086
দার	-9.51093
▁রাসায়নিক	-9.51147
▁বিদ্যালয়ের	-9.51255
▁শীর্ষ	-9.51346
▁তুলেন	-9.514
▁কোম্পানির	-9.51463
▁শান্তি	-9.5147
ওয়া	-9.51588
°	-9.51683
▁আর্থিক	-9.51821
▁ইনিংস	-9.51922
ড়	-9.51951
▁ধারা	-9.52023
▁১৯৮৫	-9.5205
▁বিপ্লবী	-9.52204
▁মহিলাদের	-9.52309
▁বিজয়	-9.52322
বো	-9.52403
▁৭০	-9.52419
▁খরচ	-9.52442
০০	-9.52464
▁পার্ক	-9.5247
▁দূরত্ব	-9.52554
▁বর্ণ	-9.52568
▁৪৮	-9.5257
▁কর্ম	-9.5263
▁নিউজিল্যান্ড	-9.52712
▁আরবি	-9.52769
▁খ্রিস্টাব্দের	-9.5288
▁পর্যবেক্ষণ	-9.52883
▁খানের	-9.52932
▁অগ্রসর	-9.5294
▁নির্বাচনী	-9.52973
▁সৌদি	-9.52995
▁প্রচলন	-9.53013
▁রানে	-9.53124
▁দশক	-9.53175
▁ওয়ার্ড	-9.53199
▁কমে	-9.53296
▁বসু	-9.53315
▁বিশ্বকাপের	-9.53337
▁কংগ্রেস	-9.53382
▁গ্যাস	-9.53415
কালে	-9.53435
▁ব্যক্তিত্ব	-9.53754
▁নিষিদ্ধ	-9.53786
▁পদ্ধতিতে	-9.53793
▁কোড	-9.53816
▁তাপমাত্রা	-9.53874
রাজ	-9.53907
▁কর্মজীবন	-9.53951
▁সংস্কার	-9.53953
▁স্টেট	-9.53965
▁বজায়	-9.53989
▁বেঙ্গল	-9.5399
▁প	-9.54014
▁শেষের	-9.54205
▁মু	-9.54212
▁ইন্ডিয়ান	-9.54249
▁নিয়ম	-9.54346
▁The	-9.54357
▁ব্যান্ড	-9.54498
▁একর	-9.5452
▁সাউথ	-9.54568
▁পছন্দ	-9.54584
▁জাপান	-9.54614
▁অসংখ্য	-9.54641
▁দাবী	-9.54714
▁বসে	-9.54956
▁সংস্থার	-9.55027
▁জটিল	-9.55072
▁জানায়	-9.55134
▁মেডিকেল	-9.55171
▁মন	-9.55253
▁বার্ষিক	-9.55365
▁রকম	-9.55419
▁দেয়ার	-9.55449
▁হাসান	-9.5547
▁ফিল্ম	-9.55541
▁শ্রেণীর	-9.5561
▁খেলেছেন	-9.55612
▁থাকবে	-9.55628
▁অবদানের	-9.55841
▁হে	-9.55932
▁পরীক্ষায়	-9.56046
▁মুখে	-9.56233
▁গভীর	-9.56433
▁ওই	-9.56481
▁মুক্তিপ্রাপ্ত	-9.56548
▁অংশগ্রহণের	-9.5658
েন	-9.56674
▁সত্ত্বেও	-9.5674
▁ইন্ডিজ	-9.5679
▁আসলে	-9.56813
▁১৯৭৪	-9.57011
▁মানসিক	-9.57021
▁ইতিহাসের	-9.57069
▁সমালোচনা	-9.57075
▁টুয়েন্টি২০	-9.57102
রাম	-9.57172
▁গ্রীষ্মকালীন	-9.57229
▁রাষ্ট্রীয়	-9.57248
▁২য়	-9.5728
▁আনুমানিক	-9.57288
▁গুরু	-9.57393
▁১৯৭৬	-9.57467
▁প্রেসিডেন্ট	-9.57602
▁তেমন	-9.5762
▁পঞ্চায়েত	-9.57668
▁ইসলামের	-9.57759
▁কিনা	-9.58044
▁ব্যবস্থার	-9.58062
▁১৯৭৮	-9.58232
▁১৯৫২	-9.58328
▁যুগ	-9.58354
▁ক্ষেত্র	-9.58409
ীর	-9.58416
▁ডেভিড	-9.58437
▁নেটওয়ার্ক	-9.58458
▁হা	-9.58478
▁৫২	-9.58563
▁এভাবে	-9.58701
▁পেয়েছেন	-9.58761
▁পালিয়ে	-9.58772
▁কৌশল	-9.58812
টো	-9.58821
ড়া	-9.59029
▁বাংলায়	-9.59059
▁চালিয়ে	-9.59082
▁প্রয়োজনীয়	-9.59097
য	-9.59099
গুলোকে	-9.59263
▁১৯৬৫	-9.59303
▁আহত	-9.59351
▁জেলাটি	-9.59374
▁বিজ্ঞানী	-9.59374
▁সেতু	-9.59389
▁ভুল	-9.59411
▁সম্ভাবনা	-9.59524
▁সমৃদ্ধ	-9.59639
▁ডাক	-9.59747
পাড়া	-9.59849
▁রেডিও	-9.59853
▁দেহ	-9.59892
▁ঘন	-9.59971
▁নির্ধারিত	-9.60012
▁দ্রাঘিমাংশ	-9.60034
▁জানতে	-9.60107
▁করলেন	-9.60154
▁৩৫	-9.60191
▁সংরক্ষণ	-9.60247
▁ঐতিহ্যবাহী	-9.6026
▁পল	-9.60277
▁শো	-9.60277
▁অলিম্পিকে	-9.60305
▁শ্রীলঙ্কা	-9.60308
▁দাস	-9.6037
▁শারীরিক	-9.60545
ময়	-9.6064
▁মিলে	-9.60641
▁আফ্রিকান	-9.60648
▁১৯৮১	-9.60675
য়ার	-9.60725
▁প্রতিরক্ষা	-9.60771
সার	-9.60782
▁অফিস	-9.60789
▁স্বাভাবিক	-9.60824
▁খোলা	-9.60918
▁প্রিমিয়ার	-9.60978
▁আফগানিস্তানের	-9.61039
▁হলুদ	-9.61089
▁সাংবাদিক	-9.61185
মু	-9.61237
▁পবিত্র	-9.61262
▁৷	-9.613
▁ইউরোপের	-9.61342
▁ছয়টি	-9.61381
▁অবশেষে	-9.61402
পশ্চিম	-9.61437
▁উঠেছে	-9.61476
করণ	-9.61538
▁সম্মান	-9.61568
▁মাথা	-9.61573
▁দেবতা	-9.61601
▁ক্যালিফোর্নিয়া	-9.61638
▁সুন্দর	-9.6167
▁রং	-9.61696
▁দার্শনিক	-9.61701
▁মাধ্যম	-9.61726
▁দিনের	-9.61788
▁দায়িত্বে	-9.61789
▁কমিউনিস্ট	-9.61853
▁চ্যাম্পিয়ন	-9.61868
er	-9.61874
▁আকর্ষণ	-9.61994
▁পরিবর্তিত	-9.62028
▁মাইকেল	-9.62066
▁বিশ্বকাপে	-9.62235
আর	-9.62254
ly	-9.62352
▁ফ্রান্স	-9.62516
▁গৃহীত	-9.62529
কেই	-9.62552
▁মধ্যবর্তী	-9.62569
▁ইন্টারন্যাশনাল	-9.62794
▁রবার্ট	-9.62825
িয়ান	-9.63023
▁মিলিত	-9.63134
▁প্রশংসা	-9.63145
▁গণ	-9.63153
▁স্বাধীনতার	-9.63155
▁আন্দোলনে	-9.63161
▁আকারের	-9.63191
▁সামান্য	-9.63217
▁ইউরোপ	-9.63297
▁পার্শ্ব	-9.63626
c	-9.63703
▁সম	-9.63733
▁লন্ডন	-9.63752
▁উঁচু	-9.63812
▁চাপ	-9.63838
▁বিশ্বব্যাপী	-9.63856
▁আহমদ	-9.63892
▁পারেননি	-9.63895
▁এগুলি	-9.63895
E	-9.6392
▁অভিনীত	-9.6404
▁কার্যকর	-9.64108
▁ঘোষ	-9.64119
▁পাল	-9.64193
নার	-9.64222
▁সম্পদ	-9.64236
▁সদস্যদের	-9.6431
▁অস্ট্রেলীয়	-9.64328
▁গ	-9.64582
▁সমাজের	-9.64672
▁দেশটির	-9.64723
▁অনূর্ধ্ব	-9.64723
▁ব্লক	-9.64811
x	-9.64883
▁রাষ্ট্রের	-9.64884
▁ব্যাপকভাবে	-9.64904
▁পাঠ	-9.64925
▁গভর্নর	-9.64971
▁৫১	-9.64981
▁পুরনো	-9.65065
▁যাকে	-9.65071
জার	-9.65125
m	-9.65237
▁সম্প্রদায়	-9.65274
▁লিঙ্গ	-9.65325
▁হাট	-9.65331
▁আক্রমণের	-9.65346
▁কমিশন	-9.65351
ِ	-9.65403
▁প্রতিনিধি	-9.65435
▁খ্রিস্টপূর্ব	-9.65469
▁নিচের	-9.65579
▁স্যার	-9.65602
▁হ	-9.65604
▁প্রখ্যাত	-9.65611
▁৪৯	-9.65626
▁জো	-9.65646
▁খ্যাতি	-9.65692
▁অনেকে	-9.65713
b	-9.65745
পূর্ণ	-9.65771
▁মেনে	-9.65832
▁ভোট	-9.6586
ভার	-9.65917
২৫	-9.65963
▁ডিম	-9.66022
▁বিদ্রোহ	-9.66057
▁মাঠ	-9.66098
▁পরিষদের	-9.66124
▁কাউন্সিল	-9.66135
▁পরিবেশন	-9.66225
▁ধান	-9.66255
▁এখনো	-9.66263
▁সেঞ্চুরি	-9.66271
▁বৃদ্ধির	-9.66277
▁আউট	-9.66382
▁মাঝামাঝি	-9.66427
▁বিশ্বে	-9.6644
▁আগ্রহ	-9.66461
▁দূর	-9.66461
▁ময়মনসিংহ	-9.66468
▁অর্ধ	-9.66516
▁প্রকৃতি	-9.66636
স্ট	-9.66722
r	-9.66765
▁মার	-9.6696
▁ভাগে	-9.6698
▁তরুণ	-9.6708
▁পেতে	-9.67109
▁গোল্ডেন	-9.67194
▁ঘর	-9.67213
▁এশিয়ান	-9.67387
▁১৯৬৪	-9.67586
▁অন	-9.67587
▁অংশের	-9.6759
▁তো	-9.6764
ায়	-9.67688
▁গোলে	-9.67713
▁রাজ্যে	-9.67749
▁স্টেডিয়াম	-9.67772
▁রক্ত	-9.67816
▁তামিল	-9.67859
▁সনে	-9.67901
▁গতি	-9.67937
▁৪৭	-9.67953
িয়ে	-9.67955
▁মুক্তিযোদ্ধা	-9.67956
i	-9.67962
▁থাকায়	-9.67973
▁মন্তব্য	-9.6812
▁দত্ত	-9.68149
▁চর	-9.68248
▁ঠাকুর	-9.6834
▁খুলনা	-9.68402
▁করবেন	-9.68406
B	-9.68477
যেমন	-9.68514
▁৯০	-9.68534
▁লাভের	-9.68548
▁রয়েছেন	-9.68637
▁স্বীকৃত	-9.6875
▁রা	-9.68756
▁সাহিত্যের	-9.68822
▁আনন্দ	-9.68846
▁তাতে	-9.68955
▁এক্স	-9.69036
▁পাথর	-9.69041
▁শতাব্দী	-9.69072
▁লে	-9.69104
▁বিষয়টি	-9.6911
▁গ্রহণের	-9.69125
▁১৯৫৪	-9.69138
▁পাহাড়	-9.69145
▁নেপাল	-9.6919
▁নিদর্শন	-9.69235
▁মৌসুমের	-9.69277
▁ফলশ্রুতিতে	-9.6933
▁ফ্রান্সের	-9.69396
▁বর্ণিত	-9.69431
▁সেখান	-9.69513
▁সফরকারী	-9.69516
▁অনেকগুলো	-9.6952
▁বৃহত্তর	-9.69536
▁প্রযোজক	-9.69641
▁পরিচালনার	-9.69704
▁স্থানান্তরিত	-9.69708
▁তোলেন	-9.69732
▁শ্রেণী	-9.69764
▁ষষ্ঠ	-9.69775
▁পাবলিক	-9.69793
▁ঐতিহ্য	-9.69829
▁১৯৫৭	-9.69928
▁হাওড়া	-9.69961
পার	-9.70009
▁১৯৫৬	-9.7001
▁আনুষ্ঠানিকভাবে	-9.7008
▁ম্যাক	-9.70213
▁পর্বে	-9.70221
▁বইটি	-9.70278
▁নেমে	-9.70301
▁আগ	-9.70311
▁জাতির	-9.70325
িস	-9.70337
▁দিয়েছে	-9.70452
াম	-9.70471
▁প্রতিরোধ	-9.70771
▁সিনেমা	-9.70777
▁লিমিটেড	-9.70978
▁বিলিয়ন	-9.70991
টন	-9.71001
▁১৯৬১	-9.71009
▁১৯৬৮	-9.71014
চন্দ্র	-9.71015
▁/	-9.71237
▁বদলে	-9.71261
▁ন	-9.71336
▁প্রকৌশল	-9.71357
▁আন্তর্জাতিকে	-9.71406
লু	-9.71496
▁চিন্তা	-9.7152
▁তৈরির	-9.71606
▁পর্যায়ের	-9.71692
▁কুমিল্লা	-9.71696
রী	-9.71725
ৎ	-9.71754
▁চলতে	-9.71803
▁প্রেরণ	-9.71825
▁ট্রেন	-9.71841
▁আইনের	-9.71863
▁মুঘল	-9.71941
গি	-9.72119
▁পর্বত	-9.72183
▁বিচার	-9.72185
▁তড়িৎ	-9.72226
জু	-9.72307
টে	-9.72379
▁১৯৬৩	-9.72463
▁ভূ	-9.72499
▁পে	-9.72522
▁চলাচল	-9.7254
▁খেলতে	-9.72605
▁গবেষণার	-9.72623
▁সহজ	-9.72639
▁শক্তির	-9.72684
▁যেন	-9.72716
▁বিংশ	-9.72722
▁বরাবর	-9.72732
▁হিসেবেও	-9.72751
▁কর্মী	-9.72787
▁সৈন্য	-9.72833
▁গানটি	-9.72904
▁৩টি	-9.72914
▁আদেশ	-9.72957
▁আগের	-9.73055
তেই	-9.73141
খা	-9.7319
▁যোগ্যতা	-9.73199
▁কেবলমাত্র	-9.73276
▁চাকরি	-9.73318
▁নারীর	-9.73416
বৈজ্ঞানিক	-9.73442
▁ঘিরে	-9.73488
▁সাব	-9.73502
▁আশ্রয়	-9.73541
▁ভর	-9.73818
▁পৃথিবী	-9.73835
▁সুপার	-9.73903
▁দিকের	-9.73922
▁নেয়ার	-9.7398
▁খ্রিস্টাব্দ	-9.74
o	-9.74106
▁শিল্পের	-9.74203
▁সম্মাননা	-9.74212
▁সমূদ্র	-9.74233
▁সিংহ	-9.74367
▁পাঠানো	-9.74399
S	-9.74425
▁জ্যাক	-9.74536
▁করতো	-9.74558
▁অপরাজিত	-9.74774
▁২০০	-9.74779
▁উদ্ধার	-9.74853
▁সংস্কৃতির	-9.74867
বাদী	-9.74878
▁সেন্টার	-9.7492
▁বুঝতে	-9.74922
▁আবিষ্কৃত	-9.74986
▁তীব্র	-9.75039
▁B	-9.75063
▁নাটকে	-9.7507
▁নাগরিক	-9.7508
ফা	-9.75197
▁শে	-9.75231
▁সর্বমোট	-9.75291
▁৪৫	-9.75526
বিশিষ্ট	-9.75535
P	-9.75557
▁কিশোর	-9.75567
▁দা	-9.75584
f	-9.75638
▁১৯২০	-9.75674
▁ওজন	-9.7568
ফি	-9.75683
▁১৯৫৮	-9.75701
▁সংক্ষিপ্ত	-9.75721
▁গ্রন্থের	-9.75733
▁গেমসে	-9.75797
▁মুখোমুখি	-9.75823
স্থ	-9.75847
▁উদ্বোধনী	-9.75899
▁এফ	-9.75947
▁ইন্টারনেট	-9.76037
▁স্টার	-9.76106
▁গায়ক	-9.76128
গু	-9.76129
▁মাত্রা	-9.76153
▁স্ব	-9.76176
▁সূর্য	-9.76205
▁সম্পাদনা	-9.76311
▁বিহার	-9.76328
▁সমন্বয়ে	-9.76334
▁ফাইনালে	-9.76425
▁নবাব	-9.76511
রু	-9.76528
▁উন্মুক্ত	-9.76599
▁প্রদানের	-9.76621
▁খবর	-9.76694
▁গিয়েছিল	-9.76813
▁অঙ্গ	-9.76831
লার	-9.76834
▁কাজী	-9.76872
▁ভেঙ্গে	-9.76895
▁মাটির	-9.76926
▁আমলে	-9.76962
▁বসতি	-9.76995
▁হচ্ছেন	-9.7701
▁চায়	-9.77049
▁স্বীকার	-9.77108
▁পাঞ্জাব	-9.77155
▁প্রচারিত	-9.77167
▁মুসলমান	-9.77193
নাথ	-9.77258
▁পোশাক	-9.77261
▁অনুরূপ	-9.77272
▁বিদ্যালয়টি	-9.77276
▁লু	-9.77292
▁হালকা	-9.77292
▁শ	-9.77306
▁জার্মানির	-9.7733
▁রাশিয়ার	-9.77411
▁অভিজ্ঞতা	-9.77489
শা	-9.77516
ইউ	-9.77522
▁বাজারে	-9.77627
▁C	-9.77749
▁এইচ	-9.77814
▁মুদ্রা	-9.77929
▁উন্নীত	-9.77979
▁রংপুর	-9.78028
▁বিশেষত	-9.78059
▁কিছুদিন	-9.78073
▁১ম	-9.7809
▁ফুটবলার	-9.78094
▁কেন	-9.78108
▁ক্রিকেটের	-9.78116
▁১৯৫১	-9.78206
▁অনুমান	-9.78266
এল	-9.7827
▁দক্ষতা	-9.78346
▁১৯৬৬	-9.78406
▁সেমি	-9.78416
p	-9.78616
▁সিপিআই	-9.78625
▁স্বল্প	-9.78633
▁কলা	-9.78681
বু	-9.78711
▁বইয়ের	-9.78794
এন	-9.78827
▁যুক্তি	-9.78841
▁প্রোগ্রাম	-9.78902
▁উপাধি	-9.78942
▁উপস্থাপন	-9.79084
▁নিয়েছিলেন	-9.79085
▁১৯৪৬	-9.79238
▁আচরণ	-9.79253
র্গ্যাল	-9.79272
▁চার্লস	-9.79311
▁কারনে	-9.79366
▁২০১৯	-9.79401
▁ডাকা	-9.79426
▁সহযোগী	-9.79593
▁চাষ	-9.79626
▁সাহিত্যে	-9.79632
?	-9.7975
▁জনগণের	-9.79756
▁সেগুলো	-9.79825
গঞ্জ	-9.79886
▁সপ্তম	-9.79945
▁অনুমোদন	-9.79977
বল	-9.79985
▁কালে	-9.80027
▁রুট	-9.80142
▁পিটার	-9.8015
▁যাচ্ছে	-9.80244
▁৩২	-9.80295
▁সেটি	-9.80414
▁পদ্ধতির	-9.8049
▁ব্যয়	-9.80525
▁বাধা	-9.80573
▁শিক্ষার্থী	-9.80574
▁সদস্যরূপে	-9.80628
▁বিকাশ	-9.80636
▁লিপি	-9.80644
তু	-9.80649
িকা	-9.80665
৫০	-9.80688
▁ভেঙে	-9.80744
▁উদ্যান	-9.80757
চার	-9.80788
▁অবলম্বনে	-9.80826
▁ইউনাইটেড	-9.80881
▁পতাকা	-9.80882
C	-9.80885
▁পরিষেবা	-9.81013
▁এরকম	-9.81035
▁আসতে	-9.8105
▁ব্যবসায়ী	-9.81137
হি	-9.81288
ডো	-9.81345
▁পর্ব	-9.81366
▁১৯৪০	-9.81394
▁ইউরোপে	-9.81496
▁স্মৃতি	-9.81554
▁ঘরে	-9.81585
▁বিপুল	-9.81798
▁রবীন্দ্রনাথ	-9.81799
▁সমষ্টি	-9.81842
▁স্তর	-9.81885
▁মধ্যেই	-9.81919
▁আদম	-9.81939
ক্স	-9.81967
▁রাতে	-9.82014
নী	-9.82076
▁লড়াই	-9.82081
▁অবতীর্ণ	-9.82115
▁ইঞ্চি	-9.82135
▁নজরুল	-9.82146
▁বিশেষভাবে	-9.82148
াস	-9.82162
▁৫৩	-9.82245
▁যেগুলো	-9.82301
▁মোবাইল	-9.8232
▁তোলা	-9.82322
▁ফা	-9.82329
▁ডানহাতে	-9.8236
▁উপযোগী	-9.82375
▁প্রথা	-9.82422
▁পর্যটন	-9.82451
▁হাসপাতালে	-9.82461
য়ান	-9.82482
▁গুণ	-9.82485
▁সাহিত্যিক	-9.82603
▁কী	-9.82638
▁নৃত্য	-9.82679
ত্ব	-9.82746
▁বু	-9.82881
▁প্রযোজনা	-9.82913
▁;	-9.83019
▁রো	-9.83024
▁ইমাম	-9.83071
চা	-9.83081
▁নাট্য	-9.83189
▁স্কুলের	-9.83254
▁দ্যা	-9.83338
▁আয়োজিত	-9.83341
▁উদ্দিন	-9.83378
▁অপরাধ	-9.83381
▁উপস্থিতি	-9.83406
▁প্রেম	-9.83424
▁অসাধারণ	-9.83458
▁করায়	-9.83495
▁কোর্স	-9.83538
▁পুরাতন	-9.83549
▁রাস্তাটি	-9.83576
কর	-9.83645
▁মাটি	-9.837
▁গাড়ি	-9.83728
▁P	-9.83893
▁ফাস্ট	-9.83994
▁১৯৫৯	-9.84007
▁বিচ্ছিন্ন	-9.84026
=	-9.84132
▁আবুল	-9.84291
▁চলচ্চিত্রটির	-9.84314
▁জা	-9.84407
▁আশা	-9.84412
▁এনে	-9.84459
▁১৯৫৫	-9.84459
লাল	-9.84504
▁পড়ার	-9.84516
▁তোলে	-9.84552
▁ড্র	-9.8456
▁পৃথিবীতে	-9.84574
▁তরল	-9.8461
▁হয়েছিলো	-9.8462
▁উসমানীয়	-9.84644
▁প্রমুখ	-9.84649
▁বিলুপ্ত	-9.84657
▁খ	-9.84677
▁মিত্র	-9.84687
▁পত্রিকায়	-9.84738
▁স্নাতকোত্তর	-9.84752
▁ডানহাতি	-9.84832
▁শত	-9.84872
▁for	-9.84939
গ্রাম	-9.84966
▁উদাহরণস্বরূপ	-9.84996
▁১৯৪৯	-9.85012
▁বোলিংয়ে	-9.85015
▁তিব্বতের	-9.85055
▁পত্রিকার	-9.85111
▁অভ্যন্তরীণ	-9.85178
▁is	-9.85183
▁প্রার্থী	-9.85184
▁আকৃতির	-9.8519
▁নির্বাহী	-9.85367
▁ব্যবস্থাপনা	-9.85443
▁বন্দী	-9.85448
▁গিয়েছে	-9.85513
D	-9.85551
▁সবাই	-9.85556
নাম	-9.85701
▁$	-9.85768
জো	-9.8577
২৩	-9.85829
সেন	-9.85836
▁ওয়েব	-9.85889
▁স্বাক্ষর	-9.8589
▁সমাধান	-9.85919
স্টার	-9.8592
▁বেসরকারি	-9.85956
▁যাত্রী	-9.85983
টু	-9.86021
▁কার	-9.86031
▁প্রাথমিকভাবে	-9.86207
▁স্বতন্ত্র	-9.86223
▁গোয়েন্দা	-9.86397
▁রোগের	-9.86405
▁যৌথ	-9.86453
▁গমন	-9.86541
▁গঠনের	-9.8656
পে	-9.86701
▁যায়নি	-9.86746
গড়	-9.86758
▁সৃষ্ট	-9.86837
রূপ	-9.86849
▁ভিক্টোরিয়া	-9.86876
▁দৃশ্য	-9.86886
▁বোঝা	-9.86921
▁উচিত	-9.86942
▁তিব্বতী	-9.86952
▁হ্রদ	-9.86974
▁মন্দিরটি	-9.86988
▁হু	-9.87029
▁উন্নতি	-9.87142
▁সম্প্রচার	-9.87196
▁বাতিল	-9.87213
▁স্থাপত্য	-9.87239
▁৪টি	-9.87241
▁দৃষ্টি	-9.87319
▁তুর্কি	-9.87337
▁কেন্দ্রটি	-9.87363
শন	-9.87461
▁সপ্তাহ	-9.87534
▁পেছনে	-9.87542
▁কলেজটি	-9.87578
▁পরিমাণে	-9.87614
▁১৯৪৫	-9.87627
▁বীজ	-9.87645
▁নিজে	-9.87652
▁থিয়েটার	-9.87677
গুলিকে	-9.87789
▁সাতটি	-9.87795
▁নিয়োজিত	-9.87796
▁চিহ্ন	-9.87873
▁সার	-9.87889
▁বিশ্লেষণ	-9.87895
▁জিন	-9.88004
▁চ্যাম্পিয়নশীপ	-9.88019
হার	-9.88053
▁পোস্ট	-9.88074
▁মন্ত্রণালয়	-9.8811
▁মানে	-9.88214
▁আনুষ্ঠানিক	-9.88257
যোগ্য	-9.88272
▁আগেই	-9.88351
▁মুখ্য	-9.88351
গে	-9.88427
বর্তমান	-9.88444
▁মঞ্চ	-9.88446
▁সম্মুখীন	-9.88486
▁দুইবার	-9.8849
▁মূল্য	-9.88536
▁লো	-9.88576
▁চালায়	-9.88598
কোন	-9.88613
▁কোষ	-9.88654
▁প্রকল্পের	-9.88676
ল্লা	-9.88719
▁বিয়ের	-9.88746
▁নবী	-9.88833
▁৭৫	-9.88955
ন্ত	-9.88976
▁জগতে	-9.89002
▁পার্বত্য	-9.89018
▁স্বর্ণ	-9.8902
▁সমাজে	-9.89117
▁বো	-9.89155
▁চট্টোপাধ্যায়	-9.89158
▁মেলা	-9.89172
ْ	-9.8918
▁জড়িয়ে	-9.89269
▁খলিফা	-9.89271
▁c	-9.89391
▁দিনাজপুর	-9.89393
▁বেল	-9.8943
ছিল	-9.89432
▁স্পেনীয়	-9.89457
▁যেকোন	-9.89505
▁দপ্তর	-9.89549
▁কর্পোরেশন	-9.89627
▁জার্মানি	-9.89692
ঙ্গা	-9.89743
ন্ড	-9.8979
ব্জাং	-9.89794
▁আলম	-9.8982
▁বিতর্ক	-9.89874
▁গ্লোব	-9.90007
▁আখ্যায়িত	-9.90055
▁ওয়া	-9.90152
▁পারিবারিক	-9.90152
▁আরেক	-9.90196
▁শি	-9.90207
▁একসময়	-9.90246
▁ডান	-9.90265
▁সং	-9.90315
▁সংশ্লিষ্ট	-9.90336
▁সংগঠিত	-9.90351
এটি	-9.90381
▁ইহুদি	-9.90389
▁দ্বীপের	-9.90453
▁গবেষণায়	-9.90497
▁প্রশ্ন	-9.90517
▁১৯৫৩	-9.90518
▁সাম্প্রতিক	-9.90563
২১	-9.90614
েশ্বর	-9.90629
▁নদীতে	-9.90754
▁শিশুদের	-9.90776
▁বিজ্ঞানের	-9.90857
▁লামা	-9.90861
বাজার	-9.90919
▁ফ্রি	-9.90996
▁গুলো	-9.91
▁গ্রেট	-9.91051
▁বাস্তব	-9.91082
▁জাপানি	-9.91098
▁ব্লকের	-9.91127
▁স্তরের	-9.91156
▁পুরাণ	-9.91164
▁হো	-9.91165
▁ইংল্যান্ডে	-9.91193
g	-9.91267
▁চরিত্রের	-9.91273
▁অফিসার	-9.91288
▁চ্যাম্পিয়নশিপ	-9.91318
▁নিবন্ধ	-9.91345
▁আবেদন	-9.9137
▁হি	-9.91449
▁মসজিদটি	-9.91558
▁পরামর্শ	-9.91559
▁মসজিদের	-9.91576
▁৫৫	-9.9158
েস	-9.91815
▁রাজার	-9.91923
▁বিনিময়ে	-9.91978
▁চাহিদা	-9.92112
▁বায়ু	-9.92179
▁অনুসন্ধান	-9.9218
▁রূপান্তরিত	-9.9221
িয়ার	-9.92223
▁মিনিট	-9.92271
▁প্রসারিত	-9.92292
লিন	-9.92296
▁নামানুসারে	-9.92304
▁আফগানিস্তান	-9.92307
▁কেন্দ্রে	-9.92511
▁অসম	-9.92642
▁টা	-9.92653
▁উন্নয়নের	-9.92683
ডে	-9.927
▁কেন্দ্রের	-9.92707
▁প্রতিক্রিয়া	-9.92715
▁সীমিত	-9.92728
▁নিকটবর্তী	-9.92733
▁নাগাদ	-9.92746
▁কিভাবে	-9.92769
▁লীগে	-9.92796
▁প্রতিষ্ঠানটি	-9.92822
▁গুপ্ত	-9.92836
▁পুরুষের	-9.93008
কেও	-9.93035
▁পাকিস্তানে	-9.93117
▁দক্ষ	-9.93126
গার	-9.93177
▁প্রাণ	-9.93201
২২	-9.9321
জাতীয়	-9.93219
▁খেতাব	-9.93228
▁করি	-9.93253
▁দুর্গ	-9.93256
▁আত্মপ্রকাশ	-9.93274
▁পারবে	-9.93281
▁পরিমাপ	-9.9331
▁যৌথভাবে	-9.93317
▁মন্ত্রণালয়ের	-9.93495
সো	-9.93536
▁শা	-9.93581
▁এশীয়	-9.93608
▁কল	-9.93677
▁একত্রে	-9.93682
▁ইন্ডিজের	-9.93789
▁ওঠেন	-9.93821
▁""	-9.93866
▁এটিই	-9.93951
▁প্রতিবেদন	-9.93981
▁বোমা	-9.93988
▁বাইরের	-9.94009
▁ফি	-9.94149
▁বিরাট	-9.9416
▁বন্দ্যোপাধ্যায়	-9.94183
িস্ট	-9.94199
▁মহকুমা	-9.94204
▁জীব	-9.94232
▁আন	-9.94246
▁একত্রিত	-9.94281
▁সাধারণভাবে	-9.94387
▁অপারেশন	-9.94479
▁লেখার	-9.94524
▁মুক্তিযুদ্ধ	-9.94548
l	-9.9459
▁মুহাম্মাদ	-9.94614
▁গ্রেফতার	-9.94642
▁কক্ষ	-9.94662
▁সমসাময়িক	-9.94667
▁মেজর	-9.94728
▁লোকসভা	-9.94759
!	-9.9477
দে	-9.94792
▁ডা	-9.9481
▁সংকেত	-9.94817
▁নির্বাচনের	-9.94837
▁উদ্বোধন	-9.94847
▁উচ্চারণ	-9.94895
বিদ্যা	-9.94945
G	-9.94947
▁19	-9.94956
▁বিপরীত	-9.95005
▁ক্যা	-9.95034
▁দশম	-9.95133
ডা	-9.95311
▁মানের	-9.95368
▁পড়া	-9.95378
▁একাদশ	-9.9545
▁দাঁড়ায়	-9.95486
▁থাকলে	-9.95489
▁স্থানান্তর	-9.95529
▁শতক	-9.95548
▁প্রিয়	-9.95558
▁প্রদর্শিত	-9.95568
▁রাশিয়া	-9.95604
▁বোঝানো	-9.95612
us	-9.95642
▁কাঠামো	-9.95644
▁হামলা	-9.95723
▁সন্তানের	-9.95736
▁মিউজিক	-9.95764
▁সামনের	-9.95865
উল	-9.95873
েল	-9.95893
▁ইরানের	-9.95909
▁স্	-9.9592
▁উর্দু	-9.95937
▁প্রাচীনতম	-9.95957
▁ইতালীয়	-9.96002
▁প্রতিদিন	-9.96027
▁পয়েন্ট	-9.96042
▁বরিশাল	-9.96091
▁লাখ	-9.96097
▁সন্ধান	-9.96106
▁অবশিষ্ট	-9.96122
দু	-9.96123
▁জানুয়ারী	-9.96159
—	-9.96186
দিন	-9.96227
▁স্বাগতিক	-9.96238
লেন	-9.96248
চে	-9.96277
▁বেঁচে	-9.96313
▁প্রজাতন্ত্র	-9.96326
▁রক	-9.96362
▁শ্রমিক	-9.96372
▁রিচার্ড	-9.9639
পশ্চিমে	-9.96508
▁বিদেশী	-9.96562
▁প্রভাবশালী	-9.96599
৪০	-9.96649
▁মার্ক	-9.96683
▁নিয়েছেন	-9.96708
▁৫টি	-9.96711
▁টন	-9.96743
▁চক্রবর্তী	-9.96745
▁মন্দিরে	-9.96765
তেও	-9.96785
▁অতঃপর	-9.968
▁নৌ	-9.96945
▁শাখার	-9.96968
▁অনেকটা	-9.96979
▁ক্যাপ্টেন	-9.97007
২৭	-9.97046
▁পরিবর্তনের	-9.97134
▁দাগ	-9.97231
+	-9.97362
▁উপহার	-9.97363
in	-9.97364
বান	-9.97395
▁বিরোধিতা	-9.97424
▁শ্রীলঙ্কার	-9.97455
২৮	-9.97459
▁মহান	-9.97466
▁হ্যারি	-9.97485
▁ইঞ্জিনিয়ারিং	-9.97492
▁অবস্থার	-9.97537
▁পু	-9.97552
▁কার্ড	-9.97609
▁গ্রহ	-9.97633
▁জু	-9.97682
▁নিউজিল্যান্ডের	-9.97701
▁ত	-9.9774
▁প্রজনন	-9.97878
▁এক্ষেত্রে	-9.97922
▁চি	-9.97923
▁গা	-9.9802
▁অবস্থানে	-9.98129
▁পতন	-9.98178
জনিত	-9.98239
▁১৯৩২	-9.98288
অ্যা	-9.98308
▁মহাসড়ক	-9.98399
▁লন্ডনের	-9.98404
▁তরঙ্গ	-9.98515
▁অর্থে	-9.98661
▁নাইট	-9.98719
িয়	-9.9876
▁অবধি	-9.98793
২৪	-9.9888
▁স্থাপনা	-9.98929
▁সশস্ত্র	-9.98941
▁বেসামরিক	-9.98969
▁প্রচেষ্টা	-9.98971
▁উপযুক্ত	-9.99094
▁৪৬	-9.99129
▁প্রণয়ন	-9.99247
▁বিকল্প	-9.99265
▁প্রবন্ধ	-9.99284
▁শক্ত	-9.99466
▁কার্যালয়	-9.99473
▁হেনরি	-9.99503
▁ম্যানচেস্টার	-9.99521
u	-9.99576
ঞ্জ	-9.99618
▁বস্তুর	-9.99621
▁ত্রি	-9.9966
ম্	-9.99677
▁প্রবাহ	-9.99728
▁কূটনৈতিক	-9.9974
▁নিয়ন্ত্রিত	-9.99756
▁ইঞ্জিন	-9.99762
▁ডিজিটাল	-9.99785
▁ফাইল	-9.99808
▁অণু	-9.99906
▁জুটি	-9.99921
▁৫৪	-9.99934
▁৫০০	-9.99955
▁সমস্যার	-9.99959
▁রেড	-9.99976
▁যোগাযোগের	-10.0002
▁আম	-10.0007
▁পোর্ট	-10.0012
দ্বাং	-10.0023
▁R	-10.0028
র্	-10.0032
▁শরীরের	-10.0045
▁রিয়াল	-10.0047
▁সরিয়ে	-10.0052
k	-10.0053
▁পাখির	-10.0054
▁জুনিয়র	-10.0056
▁পরেই	-10.0058
▁ব্ল্যাক	-10.006
▁টার্মিনাল	-10.0065
▁সংখ্যার	-10.0065
▁দায়ী	-10.0069
▁বলেছিলেন	-10.0069
▁সম্ভাব্য	-10.0074
বিদ	-10.0085
▁সম্পর্কের	-10.0088
▁চর্চা	-10.0088
কান	-10.0092
▁মিয়া	-10.0105
▁পূর্বের	-10.0107
▁বর্ণের	-10.0108
▁৬৫	-10.0108
ছ	-10.0112
▁বিষয়ের	-10.0114
▁জলবায়ু	-10.0118
▁ভবনের	-10.0118
▁শিক্ষার্থীদের	-10.012
▁একসাথে	-10.0123
▁যুব	-10.0141
▁ছাত্রদের	-10.0142
▁উল্লেখ্য	-10.0149
▁১৯৩৯	-10.0162
▁অব্যাহত	-10.0167
▁ভাব	-10.0169
▁বেতার	-10.0169
▁স্টুডিও	-10.0169
▁বক্স	-10.017
▁যশোর	-10.017
▁তাছাড়া	-10.0171
▁প্রাদেশিক	-10.0172
M	-10.0172
▁খ্রিস্টান	-10.018
▁দেহের	-10.018
▁চোখ	-10.0184
▁মার্টিন	-10.0185
তিনি	-10.0185
ষ্ট	-10.0186
▁ইচ্ছা	-10.0191
▁১৯৩৬	-10.0191
▁রাজবংশ	-10.0192
▁নদীটির	-10.0196
▁অভাব	-10.0203
▁যেত	-10.0207
▁অনুষ্ঠানের	-10.0211
▁হাসপাতাল	-10.0213
▁কাঠ	-10.0214
▁ঘোষিত	-10.0217
▁স্তরে	-10.0219
▁সোসাইটি	-10.0223
▁নির্ণয়	-10.0234
T	-10.0235
▁মুসলিমদের	-10.0237
▁নোয়াখালী	-10.0242
▁ক্ষতি	-10.0243
▁চুক্তির	-10.0244
▁আফগান	-10.0247
▁প্রবর্তন	-10.0249
▁দুর্বল	-10.0249
▁অষ্টম	-10.0266
▁অস্বীকার	-10.0269
▁শব্দটির	-10.027
▁অনন্য	-10.0276
▁যেটা	-10.0278
▁রস	-10.0279
▁লর্ড	-10.0282
▁ইট	-10.0282
ন্স	-10.0288
▁স্ত্রীর	-10.0292
▁পরিচালনায়	-10.0303
▁বাড়ির	-10.0306
▁দুজন	-10.0324
▁প্রকৃতির	-10.0328
▁পিএইচডি	-10.0331
▁উজ্জ্বল	-10.0336
▁কাব্য	-10.0336
▁গোত্রের	-10.0339
▁লাগে	-10.0341
▁টিকে	-10.0345
▁জমির	-10.0348
▁এক্সপ্রেস	-10.035
▁আরম্ভ	-10.0351
▁মাটিতে	-10.0354
▁গোষ্ঠী	-10.0355
▁উপায়	-10.0356
▁জোর	-10.0356
▁করেননি	-10.0361
▁পার্শ্ববর্তী	-10.0369
▁কার্য	-10.0369
▁s	-10.0372
▁শ্রেণীতে	-10.0375
▁সবার	-10.0384
▁পড়তে	-10.0387
▁মানুষকে	-10.039
▁বেশির	-10.0393
▁কার্বন	-10.0395
▁ইসলামি	-10.0407
▁গেমস	-10.0409
▁জোড়া	-10.041
▁পিছনে	-10.0412
▁আবদুল্লাহ	-10.0413
▁গানে	-10.0415
▁বক্তব্য	-10.0419
▁জাদুঘর	-10.0423
▁সেট	-10.0424
ا	-10.0426
▁পণ্ডিত	-10.0429
▁নিজেই	-10.043
▁ডিজাইন	-10.0433
▁প্রকাশের	-10.0435
▁তুলনা	-10.0438
▁লন্ডনে	-10.0449
▁কৃষক	-10.0456
▁শাসনামলে	-10.0457
▁যুক্তরাজ্যের	-10.0462
L	-10.0462
▁দেবীর	-10.0462
▁অবশ্যই	-10.0464
▁রেখা	-10.048
▁বিবরণ	-10.0481
▁১৯৩৭	-10.0481
▁টেস্টের	-10.0484
▁ম্যাগাজিন	-10.0487
▁মিশ্র	-10.0489
▁রাজনীতি	-10.0493
▁পশ্চিমা	-10.0498
▁জ	-10.0502
h	-10.0503
গান	-10.0508
▁শাসনের	-10.0508
▁উদ্ভব	-10.051
▁পারমাণবিক	-10.0514
▁স্থানের	-10.0515
▁বর	-10.0517
▁ঘটেছে	-10.052
▁তত্ত্বের	-10.0521
▁জয়ের	-10.0524
▁ক্যাথলিক	-10.0525
▁বাসা	-10.0527
▁৩৬	-10.0541
▁কারখানা	-10.055
▁সংবিধান	-10.0554
▁কৃত্রিম	-10.056
▁কণ্ঠ	-10.0562
th	-10.0587
▁হোটেল	-10.0589
▁ফেলা	-10.0589
হো	-10.06
▁রাজকীয়	-10.0606
▁শাখায়	-10.0611
▁১৯২৮	-10.0612
▁১৯৪২	-10.0614
▁ক্ষমতার	-10.0614
▁সিন্ধু	-10.0623
▁সহজেই	-10.0634
▁রাত	-10.0642
...	-10.0652
মন	-10.0652
▁প্রকাশনা	-10.0654
▁ঈশ্বর	-10.0656
▁জৈব	-10.0656
▁শরীর	-10.0656
▁কন	-10.0661
২০১১	-10.0662
▁অনু	-10.0665
▁বংশোদ্ভূত	-10.0667
▁নৌকা	-10.0668
▁হযরত	-10.0668
▁একদিন	-10.0669
▁প্রতিদ্বন্দ্বী	-10.067
▁জারি	-10.0672
▁গঙ্গা	-10.0683
▁নির্মাতা	-10.0686
▁জমা	-10.0688
▁পত্র	-10.0691
▁অপারেটিং	-10.0707
▁মাথায়	-10.0709
▁ধারার	-10.0709
▁বিন্দু	-10.0714
▁দুইজন	-10.0718
তন	-10.0726
মেন্ট	-10.073
▁জিতে	-10.0739
▁অতিবাহিত	-10.0739
▁প্রশাসন	-10.0746
▁জনাব	-10.0747
▁গুগল	-10.0752
▁as	-10.0752
▁লস	-10.0764
▁শিক্ষকতা	-10.0768
▁আদালত	-10.0783
▁১৯৩৮	-10.079
আমি	-10.0794
▁১৯২৯	-10.0801
▁গ্রুপের	-10.0804
▁নন	-10.0806
▁যাবার	-10.0811
▁সুপরিচিত	-10.0812
▁মাতার	-10.0812
▁মুক্তির	-10.0814
▁সাই	-10.0816
প্রাপ্ত	-10.0823
▁উয়েফা	-10.0827
▁চান	-10.0828
▁প্রদেশে	-10.0836
▁মাহমুদ	-10.0838
▁টিম	-10.0838
দান	-10.0838
▁পর্যায়	-10.0842
▁প্রাণীর	-10.0858
▁বহুল	-10.0862
▁কমিশনের	-10.0863
▁গণিত	-10.0865
▁আর্ট	-10.0866
▁অপেক্ষাকৃত	-10.0866
st	-10.0868
▁খনন	-10.0885
▁গ্রামীণ	-10.0886
বিহীন	-10.0888
▁চোখে	-10.0891
▁সমালোচক	-10.0892
▁বিশেষজ্ঞ	-10.0898
ইয়া	-10.09
▁গোত্র	-10.0901
▁নব	-10.0905
▁কমলা	-10.0907
▁প্রান্তে	-10.0909
▁সবসময়	-10.0911
▁নো	-10.0912
▁পাই	-10.0912
৭০	-10.0913
▁উৎসবে	-10.0914
দ্গা	-10.0917
▁গান্ধী	-10.0925
২৯	-10.0928
▁পাথরের	-10.093
▁মৃত	-10.0941
▁এত	-10.0943
▁আসাম	-10.0944
▁ইউনিট	-10.095
▁প্রস্থ	-10.095
▁সংজ্ঞা	-10.0951
▁প্রায়শই	-10.0953
▁হোক	-10.0958
▁গড়েন	-10.0962
▁অঞ্চলটি	-10.0964
▁অনুরোধ	-10.0966
▁on	-10.0967
▁বিষ্ণু	-10.0968
▁উইজডেন	-10.0969
▁প্রো	-10.097
▁প্রেস	-10.0975
২৬	-10.0978
▁ছবিটির	-10.0978
▁বর্ষসেরা	-10.0982
▁পানিতে	-10.0983
es	-10.0991
▁পরীক্ষার	-10.0993
ল্দান	-10.0993
▁অপেক্ষা	-10.0993
▁p	-10.0994
▁সঙ্গীতের	-10.0998
▁পূর্ববর্তী	-10.0999
▁সম্প্রসারণ	-10.1003
▁কার্যকরী	-10.1007
▁নে	-10.1009
▁সার্ভিস	-10.101
▁মুসলমানদের	-10.1012
▁গণের	-10.1017
▁দলীয়	-10.1018
▁অভ্যন্তরে	-10.1021
▁উপরের	-10.1022
এইচ	-10.1029
▁বাঁধ	-10.1029
▁ইন্দো	-10.1029
▁৩৪	-10.1034
▁প্রত্নতাত্ত্বিক	-10.1036
▁শুমারি	-10.1036
▁with	-10.1046
▁ফিরিয়ে	-10.1047
▁চলাকালীন	-10.1048
▁স্টেডিয়ামে	-10.1051
েশন	-10.1053
▁বর্ধমান	-10.1053
▁অনলাইন	-10.1054
▁ভয়	-10.1062
বাংলাদেশ	-10.1062
▁একাডেমী	-10.1067
▁কমান্ডার	-10.1073
▁ওডিআই	-10.1073
▁পদক্ষেপ	-10.1074
▁ভৌগোলিক	-10.1076
ধ	-10.1078
▁গ্রেপ্তার	-10.1079
রত	-10.1079
▁লেখেন	-10.108
▁ব্যক্তিদের	-10.1083
O	-10.1083
▁স্থির	-10.1083
▁১৯২১	-10.1088
▁তিনিই	-10.1089
▁প্রথিতযশা	-10.109
▁প্রান্ত	-10.1093
▁দিয়েছিল	-10.1094
▁খেলোয়াড়দের	-10.1096
or	-10.1098
ফার	-10.11
▁ট্রফি	-10.1112
▁ক্রিয়া	-10.1115
▁পুণরা	-10.1122
নিক	-10.1122
হে	-10.1124
▁+	-10.1124
▁উইকিপিডিয়া	-10.1132
▁ওড়িশা	-10.1135
▁ইন্দোনেশিয়া	-10.1139
▁নবম	-10.114
▁গোপন	-10.1141
▁চিকিৎসক	-10.1145
▁আগ্রহী	-10.1152
▁ধর্ষণ	-10.1157
▁৪২	-10.1159
▁আটটি	-10.116
আল	-10.1167
▁চে	-10.1168
এক	-10.1168
▁অজানা	-10.1177
▁চিত্রনাট্য	-10.1193
▁৩০০	-10.1199
▁করছিলেন	-10.12
▁উপনিবেশ	-10.1201
▁ভেতর	-10.1203
▁ব্যবসায়	-10.1208
লী	-10.121
▁লাতিন	-10.1214
▁মেয়েদের	-10.1215
▁একটু	-10.1217
▁উপমহাদেশের	-10.1219
▁ইসলামিক	-10.1219
▁জাতীয়তাবাদী	-10.122
▁কান	-10.1222
▁যথা	-10.1224
একটি	-10.1233
৬০	-10.1243
▁সেন্টিমিটার	-10.1245
▁মিশরের	-10.1245
▁বাম	-10.1248
দেব	-10.1249
▁পরিবেশে	-10.1253
▁কঠোর	-10.126
পূর্বে	-10.1261
বর্তমানে	-10.1264
▁উপদেষ্টা	-10.1265
▁বুদ্ধ	-10.1266
▁সূরা	-10.1272
▁যত	-10.128
▁প্রত্যাখ্যান	-10.1287
▁সেটা	-10.1294
জাত	-10.1296
▁উত্তীর্ণ	-10.1298
▁অনেকেই	-10.1298
▁খারাপ	-10.1301
▁৬টি	-10.1308
▁ফ	-10.131
▁স্পষ্ট	-10.1321
▁ফসল	-10.1321
পু	-10.1321
▁কোরিয়া	-10.1321
▁উদ্যোগ	-10.1328
▁তালিকাভুক্ত	-10.1329
▁চট্টগ্রামের	-10.133
▁দর্শনের	-10.1331
▁ব্রোঞ্জ	-10.1331
▁ওভার	-10.1332
▁I	-10.1333
▁সভ্যতার	-10.1336
▁(),	-10.1349
▁পো	-10.1353
▁সোনা	-10.1356
▁পাকিস্তানী	-10.1359
▁১৯২৪	-10.1361
▁রাজনীতিতে	-10.1364
▁প্রাক	-10.1366
▁পালিত	-10.1373
▁ঘুরে	-10.1374
য়ো	-10.1376
▁লুইস	-10.1384
▁গে	-10.1386
ছোস	-10.1387
▁প্রত্যক্ষ	-10.1387
▁উপন্যাসের	-10.1391
ল্যান্ড	-10.1393
▁সহায়তায়	-10.1396
▁de	-10.1409
ন্	-10.1411
▁প্রদর্শনী	-10.1421
▁দ্বি	-10.1431
▁সমাপ্ত	-10.144
▁মায়া	-10.145
▁ফাইনাল	-10.1451
▁দ্বীপে	-10.1459
▁চাঁদপুর	-10.1461
▁পুলিশের	-10.1461
▁৩য়	-10.1466
▁সামুদ্রিক	-10.1467
▁সদস্যরা	-10.1474
▁বিধান	-10.1475
▁পদত্যাগ	-10.1475
জান	-10.1476
▁গেম	-10.1483
▁৭৪	-10.1486
▁মুখোপাধ্যায়	-10.1487
▁রপ্তানি	-10.1493
▁সদস্যের	-10.1494
▁ওপেন	-10.1495
▁বিশ	-10.1496
▁ওয়ান	-10.1497
▁মিশর	-10.151
▁যুক্তরাজ্য	-10.1511
▁E	-10.1513
▁তবুও	-10.1515
▁জীবিত	-10.1518
▁বলিউড	-10.152
▁অনেকগুলি	-10.1532
ডেন	-10.1536
▁ঘটায়	-10.1547
▁৭২	-10.155
▁শপথ	-10.1556
▁আওতায়	-10.1556
▁ব্যাট	-10.1558
হু	-10.1561
▁গবেষক	-10.1566
▁পারেনি	-10.1567
▁১৯৩৫	-10.1567
▁বাই	-10.1568
▁১০০০	-10.157
▁দর্শক	-10.1576
▁১৯৩৩	-10.1578
▁ঘন্টা	-10.1579
ation	-10.1582
পাল	-10.1587
▁মিস	-10.1588
▁৩৮	-10.1591
▁আলোর	-10.1592
৪৫	-10.1592
▁৩৩	-10.1597
▁আশেপাশে	-10.1601
▁কথিত	-10.1603
▁পুরস্কারে	-10.1614
▁সেনাপতি	-10.1619
▁সরু	-10.1622
▁রীতি	-10.1623
ষ	-10.1625
▁আসল	-10.1628
▁H	-10.1636
▁পাঠান	-10.164
▁অনুশীলন	-10.1644
▁১৯৩৪	-10.1645
স্ত	-10.1648
ৌ	-10.1648
▁ভেতরে	-10.1653
▁সাধন	-10.1654
▁উদ্যোগে	-10.1655
▁১৯৩১	-10.1655
▁be	-10.1659
▁উপলক্ষে	-10.1662
ূ	-10.1663
▁মুম্বাই	-10.1664
▁চালানো	-10.1666
▁ত্রিপুরা	-10.1672
▁সচিব	-10.1687
▁মিডিয়া	-10.1692
▁ফেডারেশন	-10.1695
F	-10.1698
▁রিপোর্ট	-10.1704
▁ফাউন্ডেশন	-10.1707
▁রূপান্তর	-10.1708
▁D	-10.1711
▁was	-10.1716
▁রয়্যাল	-10.1721
▁নেপালের	-10.1729
▁আসনে	-10.1735
▁শিষ্য	-10.1737
▁প্রকৃতপক্ষে	-10.1741
শাসিত	-10.1741
▁G	-10.1746
▁সহযোগিতা	-10.1746
▁রেখেছে	-10.1747
▁১৯৪৪	-10.1749
ুয়া	-10.1754
▁বাগান	-10.1758
▁ক্লাস	-10.176
▁জাতিসংঘের	-10.1763
▁ব্রাহ্মণ	-10.1764
▁আল্লাহ	-10.1767
▁স্তম্ভ	-10.177
▁নদীটি	-10.1777
ঙ	-10.178
▁অর্ধেক	-10.178
▁চুক্তিবদ্ধ	-10.1785
▁পর্বের	-10.1796
▁যাইহোক	-10.1798
▁আপ	-10.1814
স্ক	-10.1819
▁সাহসিকতা	-10.182
▁টেনিস	-10.182
দো	-10.182
▁সমকামী	-10.1822
গাঁও	-10.1823
▁মিনিটে	-10.1831
▁আমির	-10.1832
▁দেখায়	-10.1835
▁আর্থার	-10.1837
▁কমপক্ষে	-10.1844
▁দ্বীপপুঞ্জ	-10.1846
▁তু	-10.1851
▁থাকাকালীন	-10.1859
▁ধর্মসম্প্রদায়	-10.1865
▁ডাব্লিউডাব্লিউই	-10.1867
▁ধাতু	-10.187
ঙ্ক	-10.1872
▁মুক্তিযুদ্ধের	-10.1878
▁বার্তা	-10.1888
▁স্থাপনের	-10.189
▁সভা	-10.1898
▁অধিনায়কের	-10.1898
▁.	-10.1917
বিরোধী	-10.1918
▁পুরষ্কার	-10.1919
▁ইরান	-10.1924
▁শিক্ষালাভ	-10.1928
৫০০	-10.193
▁সফরের	-10.1933
▁কেটে	-10.1935
▁দুটো	-10.1936
▁১৯৪১	-10.1936
▁আরোহণ	-10.1937
▁কাঠের	-10.1943
৭৫	-10.1946
▁তাপ	-10.195
2	-10.1954
▁পেয়েছিল	-10.1955
▁প্রজাতিটি	-10.196
▁আদিবাসী	-10.1963
▁তিনজন	-10.1966
▁ম্যানেজার	-10.1968
▁by	-10.1972
আপ	-10.1973
▁তুলতে	-10.1977
▁লোকের	-10.1978
▁আজাদ	-10.1979
▁কোরিয়ার	-10.1984
▁মাংস	-10.1987
▁স্পেনের	-10.1991
▁ধূসর	-10.1994
▁আত্ম	-10.1997
গন	-10.1999
▁পূর্ণাঙ্গ	-10.2003
▁বিষয়বস্তু	-10.2004
▁চার্চ	-10.2013
▁লেজ	-10.2015
ছিলেন	-10.2023
▁মাল	-10.2028
▁১৯২৬	-10.2031
▁চলমান	-10.2032
▁খালিদ	-10.2033
▁পৌরসভার	-10.2036
▁ডানা	-10.2038
▁অন্তত	-10.204
▁কার্ল	-10.2042
▁গত	-10.2044
▁পৌঁছে	-10.2044
▁রেলপথ	-10.2046
▁বেরিয়ে	-10.2046
▁ফেনী	-10.2047
▁মঙ্গল	-10.2049
▁ইউএস	-10.2054
▁প্রসিদ্ধ	-10.2058
▁বৌদ্ধবিহারের	-10.206
▁ছোটো	-10.2065
▁প্রার্থনা	-10.2073
▁সমিতি	-10.2075
▁১৯৪৩	-10.2075
▁সমূহ	-10.2077
▁১৯১৯	-10.2078
▁রায়ের	-10.2079
▁শীতকালীন	-10.208
▁পরি	-10.2081
▁আবাসিক	-10.2083
▁জলের	-10.2084
▁গায়ে	-10.2084
▁বিশ্বযুদ্ধ	-10.2087
রিন	-10.2088
▁গোলাম	-10.2089
▁নেওয়ার	-10.2089
▁দিলে	-10.2092
▁ক্রয়	-10.2093
▁বৈদ্যুতিক	-10.2094
▁শূন্য	-10.2096
R	-10.2099
শীল	-10.21
▁পাহাড়ের	-10.2104
▁ভা	-10.2105
▁উইকেটে	-10.2106
৩৩	-10.2109
▁জৈন	-10.2113
▁প্রেক্ষিতে	-10.2115
▁দেখান	-10.2117
▁বাঘ	-10.2122
▁আগুন	-10.2123
▁লেক	-10.2124
▁কামাল	-10.213
▁৩৭	-10.2138
ُ	-10.2139
▁নিরসন	-10.214
▁চ্যাপলিন	-10.2142
▁দমন	-10.2147
▁কেজি	-10.2147
le	-10.2151
▁৬৪	-10.2154
▁মহারাষ্ট্র	-10.2156
তলা	-10.2159
▁অধ্যক্ষ	-10.2162
▁অন্তর্ভূক্ত	-10.2162
ব্য	-10.2165
▁বিপ্লবের	-10.2166
▁সকাল	-10.2166
▁চলছে	-10.2167
▁হত্যার	-10.217
▁ভিতরে	-10.2172
▁নির্ভরশীল	-10.218
▁চ	-10.2183
▁that	-10.2187
▁সহায়ক	-10.2188
▁মুক্তিযোদ্ধাদের	-10.2196
▁M	-10.2198
▁ফেব্রুয়ারী	-10.221
৮০	-10.2212
▁কারো	-10.2212
▁ব্যবহারকারী	-10.2212
▁F	-10.2215
▁প্যারিস	-10.2217
▁পদার্থের	-10.2223
▁লিনাক্স	-10.2224
▁খেলতেন	-10.2228
▁বোর্ডের	-10.223
▁ভার	-10.2233
▁কুরআন	-10.2235
▁ক্লাবে	-10.2237
an	-10.2241
▁সম্পত্তি	-10.2244
বীর	-10.2247
▁টাউন	-10.2247
ন্দা	-10.225
▁বালিকা	-10.2251
▁উইন্ডোজ	-10.2256
▁কল্যাণ	-10.2257
▁উপত্যকা	-10.2258
▁ইন্সটিটিউট	-10.2261
্র	-10.2262
▁তিব্বত	-10.2273
▁রামকৃষ্ণ	-10.2277
▁গেল	-10.2277
▁তোলার	-10.2279
৩৫	-10.2279
▁টাঙ্গাইল	-10.2287
▁নাই	-10.2288
▁রাণী	-10.2295
▁ডিসেম্বরে	-10.2303
▁টাওয়ার	-10.2303
▁গু	-10.2304
▁ভাইরাস	-10.2314
▁কিং	-10.2316
ড়ি	-10.2317
▁মামলা	-10.2321
▁উৎপাদিত	-10.2321
▁বিপ্লব	-10.233
▁মতবাদ	-10.2331
ा	-10.2333
▁সংগ্রাম	-10.2334
▁অভিযানের	-10.2341
▁স্বপ্ন	-10.2342
▁ডাই	-10.2342
বর	-10.2344
▁ঔষধ	-10.2348
▁কেননা	-10.2351
▁পাট	-10.2352
▁খাওয়া	-10.2356
▁জাতিসংঘ	-10.2356
▁এখান	-10.2357
▁সঙ্গী	-10.2357
▁ভবনটি	-10.2362
▁উদ্ভাবন	-10.2362
▁সম্মেলনে	-10.2363
▁খণ্ড	-10.237
নু	-10.2373
কন	-10.2373
▁ফ্লাইট	-10.2376
▁পরিষ্কার	-10.2378
▁খেলাটি	-10.2378
▁মিশরীয়	-10.2384
▁সমন্বয়	-10.2389
▁অক্সফোর্ড	-10.2394
▁সাগরের	-10.2398
▁মেলে	-10.2401
৪৭	-10.2403
▁সংগঠনের	-10.2403
▁সরে	-10.2408
▁দো	-10.241
▁হয়৷	-10.242
▁মার্শাল	-10.2422
▁প্রশাসক	-10.2427
এবং	-10.243
▁চাঁদ	-10.2444
▁সায়েন্স	-10.2447
্যাল	-10.2449
ুন	-10.2461
▁ঘনত্ব	-10.2461
▁সক্ষমতা	-10.2463
▁১৫০	-10.2463
▁স্পেন	-10.2468
েড	-10.2469
▁সর্বাপেক্ষা	-10.2469
▁মিষ্টি	-10.2475
▁অর্থনীতির	-10.2476
মেন	-10.2477
.)	-10.2478
▁নারায়ণ	-10.2481
▁ঝুঁকি	-10.2483
▁৪৩	-10.2484
▁৫৬	-10.2488
▁আর্জেন্টিনা	-10.2497
মের	-10.2498
▁সেখানেই	-10.2505
▁টানা	-10.2512
H	-10.2515
▁ইংরেজিতে	-10.2515
▁হাউস	-10.2516
কল	-10.2521
▁কানাডা	-10.2521
▁সেন্ট্রাল	-10.2523
▁চক্র	-10.2528
▁উদ্ভূত	-10.2532
▁ছাড়াই	-10.2533
▁ট	-10.2536
▁সংলগ্ন	-10.2537
▁খাঁ	-10.2537
▁!	-10.2543
▁নেতৃত্বাধীন	-10.2547
▁N	-10.2547
▁রাজত্ব	-10.2549
▁ব্যাটিংয়ে	-10.2549
নিয়া	-10.2551
েট	-10.2555
م	-10.2556
উদ্দিন	-10.2558
▁সূর্যের	-10.2559
▁ফাংশন	-10.2563
▁পশু	-10.2565
▁ক্যারিয়ার	-10.2569
▁L	-10.2571
▁বিমানবন্দরটি	-10.2589
▁চিঠি	-10.2591
প্রতিদ্বন্দ্বিতা	-10.2593
▁কমনওয়েলথ	-10.2596
▁মজুমদার	-10.2596
▁৫৮	-10.2597
▁ডাল	-10.2598
▁রসায়ন	-10.2608
▁মিলিয়ে	-10.261
▁৫ম	-10.261
▁৪০০	-10.261
▁খ্রিষ্টাব্দের	-10.2614
বাড়ি	-10.2615
▁কিনে	-10.2616
▁জন্মের	-10.2617
▁ফোন	-10.2619
▁কৃতিত্ব	-10.2621
▁ব্রাজিল	-10.2623
▁জনগণ	-10.2623
▁সেল	-10.2623
▁কোয়ান্টাম	-10.2623
▁কক্সবাজার	-10.2627
▁খনিজ	-10.2636
▁শেষদিকে	-10.2641
▁প্রতিবছর	-10.265
▁৭৩	-10.2651
▁T	-10.2652
ম্প	-10.2653
▁আধ্যাত্মিক	-10.2655
▁গাণিতিক	-10.2656
▁ওষুধ	-10.266
▁আজিজ	-10.266
▁পরবর্তিতে	-10.2662
▁ম্যাচের	-10.2665
▁মীর	-10.2665
▁জনক	-10.2674
▁প্রোগ্রামিং	-10.2676
▁হোম	-10.2679
▁মিশন	-10.2681
▁ঊনবিংশ	-10.2685
▁লিখে	-10.2688
▁আগমন	-10.2694
▁সাপ	-10.2695
▁আলেকজান্ডার	-10.2697
▁অনুমোদিত	-10.2698
▁উচ্চতায়	-10.2702
▁প্রজাতন্ত্রের	-10.2702
▁লিখেছিলেন	-10.2709
▁দ	-10.2709
▁সো	-10.2709
▁স্টেশনটি	-10.2713
▁এজন্য	-10.2713
▁মৌজা	-10.2714
▁গ্রীক	-10.2715
▁ফার্সি	-10.2715
▁প্রতিষ্ঠানে	-10.2717
▁ভারী	-10.2717
ছি	-10.2717
পত্র	-10.2719
▁মঞ্চে	-10.2722
▁রাজস্ব	-10.2724
▁৪৪	-10.2727
▁উৎপাদনের	-10.2734
▁প্রত্যাহার	-10.2737
▁প্রকৌশলী	-10.2742
▁স্পর্শ	-10.2743
▁অনুপ্রাণিত	-10.2748
▁উই	-10.2748
ওয়ে	-10.2751
▁ধরন	-10.2751
▁এসিড	-10.2751
▁পুরোপুরি	-10.2753
রাই	-10.276
▁আকাশ	-10.2762
▁শুষ্ক	-10.2763
▁গ্রহন	-10.2772
▁১৯২৭	-10.2783
▁ব্যবসায়িক	-10.2783
▁অধীন	-10.2786
▁সম্পৃক্ত	-10.2788
▁মহাবিদ্যালয়	-10.2789
▁হেরে	-10.2792
▁গণেশ	-10.2798
৬৬	-10.2811
▁তৃণমূল	-10.2812
▁নমুনা	-10.2813
▁সম্প্রতি	-10.2813
▁পলি	-10.2814
▁সংজ্ঞায়িত	-10.2814
▁নিম্নলিখিত	-10.2824
৪৯	-10.2824
্ব	-10.2824
▁বেগ	-10.2828
▁ডু	-10.2828
▁গরম	-10.2831
▁সহজে	-10.2835
শী	-10.2846
৩৬	-10.2847
▁সমাধি	-10.2857
▁গ্রন্থাগার	-10.2858
▁জাহাজের	-10.2861
▁সীমাবদ্ধ	-10.2862
▁বিক্রয়	-10.2867
▁বয়ে	-10.2873
▁পাতার	-10.2886
▁ছোপ	-10.2888
▁চালিত	-10.289
▁গণতান্ত্রিক	-10.2894
K	-10.2895
▁মঠ	-10.2898
▁খাতুন	-10.2901
▁সমর্থ	-10.2903
▁সীমা	-10.2907
▁বাদামি	-10.2907
▁মাই	-10.291
▁প্রবল	-10.2913
▁চওড়া	-10.2914
▁ইন্দোনেশিয়ার	-10.2915
▁চীনে	-10.2917
▁আকৃতি	-10.2922
▁অগ্নি	-10.2927
▁বিচারপতি	-10.2928
▁বৃক্ষ	-10.2929
▁বিবেকানন্দ	-10.2929
▁বেলা	-10.2933
ঘ	-10.2939
▁ঈশ্বরের	-10.2942
▁শর্ত	-10.2944
▁আগত	-10.2949
▁১৯২২	-10.2953
র্জে	-10.2956
সেল	-10.2963
▁সৃষ্টির	-10.297
৪৮	-10.2971
িল	-10.2973
▁প্রশান্ত	-10.2973
▁বৌদ্ধধর্মের	-10.2984
▁রাজি	-10.2985
৩১	-10.2988
▁ওয়াশিংটন	-10.2995
▁খা	-10.3001
▁ক্ষেত্রেই	-10.301
्	-10.3019
▁লাইসেন্স	-10.3019
▁কপি	-10.3019
▁ভোগ	-10.3026
▁বানানো	-10.3027
ভে	-10.3028
▁১৯২৩	-10.3029
▁বিস্তারিত	-10.3034
el	-10.3035
▁ক্যাম্প	-10.3037
▁৭৬	-10.3038
▁আমন্ত্রণ	-10.3039
▁ঔপনিবেশিক	-10.305
▁কবির	-10.3051
▁ইউরো	-10.3052
▁মেরি	-10.3052
▁হংকং	-10.3056
▁৫৭	-10.3057
▁গাঢ়	-10.3058
▁ধর্মে	-10.3058
▁ওয়েবসাইট	-10.306
▁এডওয়ার্ড	-10.306
▁সভায়	-10.3065
▁ব্যবস্থায়	-10.3066
৯০	-10.3066
▁সপ্তাহে	-10.3068
▁K	-10.3069
মাস	-10.307
রান	-10.307
▁চালান	-10.3074
প্রতি	-10.3074
▁জীবনী	-10.3079
w	-10.3079
▁খেলোয়াড়ের	-10.3081
▁দুধ	-10.3082
▁দেহাবসান	-10.3084
ওয়ার	-10.3087
▁গৌতম	-10.3088
ল্ড	-10.3089
ছা	-10.3089
▁বেন	-10.3094
পদ	-10.3096
▁বন্যপ্রাণী	-10.3098
▁লেগ	-10.31
▁অফিসে	-10.3101
▁সরল	-10.3107
▁আবির্ভাব	-10.3111
▁কাটা	-10.3121
▁প্রাসাদ	-10.3125
▁প্রি	-10.3127
২০০০	-10.3138
▁গোষ্ঠীর	-10.3139
যে	-10.314
▁সিনিয়র	-10.314
▁ইয়াং	-10.3145
▁হার্ট	-10.3146
▁তি	-10.3146
▁রিসার্চ	-10.3151
▁আল্লাহর	-10.3151
ডু	-10.3152
▁বৈষ্ণব	-10.3154
▁কর্নেল	-10.3155
▁৬৭	-10.3158
▁টাইমস	-10.3159
▁অসমীয়া	-10.3159
িনী	-10.3161
▁আরা	-10.3162
▁কাপড়	-10.3162
▁আস	-10.3165
▁শীর্ষস্থানীয়	-10.3165
ন্ট	-10.3168
▁মালিকানাধীন	-10.3171
প্রথম	-10.3176
▁১৯১২	-10.3178
▁উচ্চতর	-10.3181
▁তন্ত্র	-10.3184
৬৯	-10.3184
▁বগুড়া	-10.3188
▁শিকাগো	-10.3189
▁১৯২৫	-10.319
▁দোকান	-10.3191
▁বাংলাদেশি	-10.3192
▁দৃশ্যমান	-10.3193
▁৬২	-10.3194
▁পরমাণু	-10.3194
▁বিনিয়োগ	-10.3196
▁জাফর	-10.3196
N	-10.3199
▁সংকলন	-10.32
৯৯	-10.32
▁৩৯	-10.321
▁বুক	-10.3215
▁করিম	-10.3217
▁অতীতে	-10.3225
▁নিকটে	-10.3231
▁দম্পতির	-10.3235
▁টাইম	-10.324
▁ভাস্কর্য	-10.3241
▁ক্ষমতায়	-10.3244
৩৯	-10.3246
ক্	-10.3247
▁নাটকের	-10.3249
▁ব্যা	-10.3251
▁1	-10.3251
▁লোকেরা	-10.3255
▁১৯১৪	-10.3259
▁১লা	-10.326
▁মিডিয়াম	-10.3265
বন	-10.327
▁ইরাক	-10.3271
▁বিবর্তন	-10.3276
▁৯টি	-10.3279
▁টেকনোলজি	-10.3279
াবাদ	-10.328
রিয়া	-10.328
▁নির্যাতন	-10.3285
রাও	-10.3287
▁কোথাও	-10.3289
▁নর্থ	-10.3291
▁বিষ	-10.3297
▁পতনের	-10.3298
▁হিট	-10.3305
ন্দ	-10.3306
য়াল	-10.3306
▁অবকাঠামো	-10.3308
▁৭১	-10.331
▁গণনা	-10.3318
▁ঘনিষ্ঠ	-10.3323
▁নিয়েছে	-10.3325
▁দেখিয়েছেন	-10.3327
▁কালী	-10.3329
▁অক্ষর	-10.3333
▁ভ	-10.3336
ধর্ম	-10.3336
▁উপকূলে	-10.3337
▁মিনার	-10.3337
▁কাম	-10.3339
▁চারপাশে	-10.3339
▁একেবারে	-10.334
▁চোখের	-10.334
▁আজও	-10.3347
▁মোঃ	-10.3347
▁বৃত্তি	-10.3349
থি	-10.3357
▁ক্ষতিগ্রস্ত	-10.3366
বিশেষ	-10.3371
▁টম	-10.3379
▁প্রাচীর	-10.3379
▁অধিবাসী	-10.3379
▁শত্রু	-10.3381
▁রু	-10.3387
▁আবহাওয়া	-10.3391
▁মধ্যযুগীয়	-10.3396
ل	-10.3396
▁চাল	-10.3396
জেন	-10.3396
▁৪১	-10.3397
▁মহাকাশ	-10.3399
▁অর	-10.3399
▁পড়াশুনা	-10.3407
▁মানবাধিকার	-10.3407
▁অপরদিকে	-10.3408
▁বেছে	-10.3409
▁বরফ	-10.3416
খালী	-10.3421
হান	-10.3426
▁জনের	-10.3428
▁সমাপ্তি	-10.3435
তর	-10.3435
▁পাশের	-10.3435
▁অক্টোবরে	-10.3437
▁শীতকালে	-10.3441
▁পাবনা	-10.3441
▁ফিল্মফেয়ার	-10.3442
The	-10.3443
▁পাড়ে	-10.3446
▁বিতর্কিত	-10.3448
▁আর্টস	-10.3448
▁চরম	-10.3448
▁অসুস্থ	-10.3454
▁চু	-10.3454
▁যেমনঃ	-10.3456
৩৭	-10.346
▁ঘণ্টা	-10.3465
চলচ্চিত্র	-10.3466
▁১০টি	-10.3474
▁১৯১৮	-10.3477
▁বিজ্ঞাপন	-10.3477
ভেন	-10.3483
চিত্র	-10.3486
▁বৈদেশিক	-10.349
বিল	-10.3496
▁কানাডার	-10.3502
▁ডব্লিউ	-10.3502
▁বাস্তবায়ন	-10.3503
ن	-10.3504
▁দ্বৈত	-10.3514
▁পন্ডিত	-10.3516
▁লিপিবদ্ধ	-10.3517
▁জোসেফ	-10.3517
▁প্রতিবাদ	-10.3527
▁নাচ	-10.3527
▁পরিস্থিতি	-10.3531
▁জোট	-10.3531
▁খুলে	-10.3533
▁সংবাদপত্র	-10.3533
▁গেছেন	-10.3534
▁৮৫	-10.3534
en	-10.3535
▁বিরল	-10.3538
▁বন্ধন	-10.3539
▁ধনী	-10.354
▁হান	-10.3541
▁দূতাবাস	-10.3542
▁ধারণার	-10.3544
▁৬৬	-10.3545
▁ঘটান	-10.3549
▁সংখ্যায়	-10.3551
▁কমেডি	-10.3559
▁অবরোধ	-10.3561
▁শৈশব	-10.3572
▁সমালোচকদের	-10.3573
ধারী	-10.3575
▁নিক্ষেপ	-10.3581
▁গি	-10.3581
▁শাস্তি	-10.3584
▁অ্যাসোসিয়েশন	-10.3587
▁দ্রব্য	-10.3588
▁ঘোড়া	-10.3588
োর	-10.359
▁আফ্রিকায়	-10.359
সংক্রান্ত	-10.3592
▁রাই	-10.3597
সান	-10.3597
▁পৌর	-10.36
▁মাদ্রিদ	-10.36
▁জনগোষ্ঠী	-10.3601
▁সেনারা	-10.3601
▁নামেই	-10.3601
▁আলোক	-10.361
▁শিল্পে	-10.3611
▁আকবর	-10.3624
▁যেকোনো	-10.3624
▁স্বরূপ	-10.3625
▁চলেছে	-10.3628
মুখী	-10.3639
▁প্রভাবে	-10.3639
▁মাস্টার	-10.364
▁তত্ত্বাবধানে	-10.364
▁বঙ্গ	-10.3641
৭৮	-10.3643
▁প্রসঙ্গে	-10.3647
▁১৯১৭	-10.3655
3	-10.3656
▁নিরাপদ	-10.3656
▁মারিয়া	-10.3659
z	-10.3659
▁বিচারক	-10.3664
▁বিদ্যা	-10.3669
▁ল্যাঙ্কাশায়ার	-10.367
▁অ্যাশেজ	-10.367
▁তলা	-10.3675
▁বাহাদুর	-10.3684
▁৬৮	-10.3685
লেট	-10.3686
দল	-10.3687
▁গাওয়া	-10.3689
▁দরিদ্র	-10.369
▁মাথার	-10.3694
▁রহস্য	-10.3696
▁আবির্ভূত	-10.3698
▁সৈনিক	-10.3702
▁সাপ্তাহিক	-10.3705
▁তিনবার	-10.3706
▁মৌল	-10.3708
▁আদায়	-10.3713
on	-10.3714
▁শতাধিক	-10.3719
▁নামেন	-10.3722
▁১৯১১	-10.3724
);	-10.3725
▁স্থলাভিষিক্ত	-10.3726
▁রোগে	-10.3732
▁একুশে	-10.3736
ي	-10.3736
▁মির্জা	-10.3737
▁১৯০০	-10.3737
দেশ	-10.3738
▁নভেম্বরে	-10.3738
▁সেসময়	-10.3741
▁অধিকাংশই	-10.3744
▁দেয়াল	-10.3744
মুক্ত	-10.3746
▁দ্বাদশ	-10.3746
▁নর	-10.3748
কুল	-10.3748
▁b	-10.3751
▁ব্যতীত	-10.3754
▁জ্যোতির্বিজ্ঞান	-10.3754
▁কারা	-10.3755
▁স্ট্রিট	-10.3755
▁সিস্টেমের	-10.3762
দেরকে	-10.3763
ম্ব	-10.3766
▁তুমি	-10.3769
শক্তি	-10.3771
▁আয়ারল্যান্ড	-10.3771
িতে	-10.3772
▁জনগোষ্ঠীর	-10.3772
স্তা	-10.3773
▁আরবের	-10.3778
৩২	-10.3779
▁মানবিক	-10.3782
▁লোকসংখ্যা	-10.3784
▁ডিএনএ	-10.3787
৮৬	-10.379
▁আম্পায়ার	-10.3794
▁মেটাল	-10.3797
৩৪	-10.3804
▁শিবের	-10.3805
▁ঘটেছিল	-10.3808
প্রায়	-10.381
▁ধারাবাহিকে	-10.3813
▁উপকূলীয়	-10.3814
▁বঙ্গবন্ধু	-10.3815
▁অর্থনীতিতে	-10.3817
▁লিখেন	-10.3824
ধর্মী	-10.3824
▁সর্বনিম্ন	-10.3825
▁মহাবিশ্বের	-10.3826
▁ভট্টাচার্য	-10.3827
▁সাড়া	-10.3828
▁সর্ববৃহৎ	-10.3839
▁পানীয়	-10.3843
▁রাশিয়ান	-10.3844
লাম	-10.3845
▁অনুপাত	-10.3846
▁পুনঃ	-10.3846
▁মাছের	-10.3849
▁সংক্ষেপে	-10.3849
I	-10.3853
▁বাদশাহ	-10.3856
▁৭৮	-10.3857
▁বারো	-10.3859
াই	-10.3863
W	-10.3863
য়েল	-10.3867
৫৫	-10.3867
▁জেলে	-10.3868
তারা	-10.3875
▁৬৯	-10.3875
▁লাইব্রেরি	-10.3876
▁জগন্নাথ	-10.3881
▁কাউন্সিলের	-10.3882
▁ক্রম	-10.3882
▁নষ্ট	-10.3883
▁হারে	-10.3888
লের	-10.3891
▁আচার	-10.3893
▁প্রাধান্য	-10.3896
▁জানানো	-10.3904
র্গ্যা	-10.3904
▁এবার	-10.3906
▁পিছনের	-10.3908
োস	-10.3909
▁মধু	-10.3919
▁জনগণনা	-10.392
▁বংশের	-10.3921
▁প্রাপ্তবয়স্ক	-10.3925
উত্তর	-10.3926
*	-10.3932
▁নিকটতম	-10.3933
▁খ্রিস্টীয়	-10.3934
▁ইয়ান	-10.3934
▁সম্মিলিত	-10.3937
▁আব	-10.3939
ঙ্গ	-10.3942
▁আনোয়ার	-10.3942
▁অশোক	-10.3943
▁কবিতার	-10.3943
শান	-10.3952
▁কবর	-10.3953
▁কেপলার	-10.3955
চর	-10.3956
▁উন্নয়নে	-10.3956
৪৬	-10.3956
▁স্মিথ	-10.3958
▁কয়লা	-10.3959
ভুক্ত	-10.3968
দ্ব্যর্থতা	-10.3968
লিয়া	-10.397
▁ইতিবাচক	-10.397
▁হুমকি	-10.3971
▁সংগ্রহের	-10.3972
▁ওয়ার	-10.3974
▁হোয়াইট	-10.3975
▁গ্র্যান্ড	-10.3975
▁f	-10.3976
ফু	-10.3978
▁সৈন্যদের	-10.3979
▁বাদামী	-10.3983
▁সম্মেলন	-10.3986
ায়ন	-10.3987
▁খেয়ে	-10.3988
ঘর	-10.3997
▁বেসরকারী	-10.4001
▁৬ষ্ঠ	-10.4001
▁ক্যামেরা	-10.4003
▁রেখেছেন	-10.4008
▁টাইপ	-10.401
▁আহ্বান	-10.4012
▁কোর্ট	-10.4016
▁৭৭	-10.4017
▁ফ্রাঙ্ক	-10.4017
৬৮	-10.402
▁পত্রিকাটি	-10.4024
▁বিদায়	-10.4024
থা	-10.4025
▁আমেরিকায়	-10.4026
▁আবিষ্কারের	-10.4027
খ্রিস্টপূর্বাব্দ	-10.4028
▁পারস্য	-10.4029
▁উপসাগর	-10.403
▁তীর	-10.4041
▁উৎসবের	-10.4044
▁সিরিয়া	-10.4045
▁গীতিকার	-10.4047
▁পাউন্ড	-10.4051
শো	-10.4052
▁মালয়েশিয়া	-10.4053
▁উপকূল	-10.4056
▁শিশুর	-10.4057
▁সচরাচর	-10.4057
▁জ্যেষ্ঠ	-10.4061
▁রহমানের	-10.4062
▁ভিয়েতনাম	-10.4065
▁চমৎকার	-10.4066
▁ধাপ	-10.4068
▁ফুলের	-10.4069
▁সাফল্যের	-10.407
V	-10.4071
▁ইলেকট্রন	-10.4073
▁সেনাবাহিনীতে	-10.4077
০৭	-10.4077
▁৬৩	-10.4078
▁জাপানে	-10.4078
▁তাল	-10.4078
▁থেকেও	-10.4079
▁হরি	-10.408
বাংলা	-10.4082
▁সাঁতার	-10.4086
▁চেয়েছিলেন	-10.4087
▁প্রক্রিয়ার	-10.4098
▁কর্ণাটক	-10.4098
▁কর্পোরেশনের	-10.4098
▁বাসস্থান	-10.4098
৪৪	-10.4098
▁উত্থান	-10.4099
▁বংশ	-10.41
▁কালচে	-10.4101
▁সম্মানিত	-10.4105
▁কাপে	-10.4105
▁দরকার	-10.4108
▁একদল	-10.4118
▁ধারনা	-10.4126
▁পাবে	-10.4126
▁১৯১০	-10.4128
ম্ত্শান	-10.4128
▁পঞ্জিকা	-10.4132
▁নায়ক	-10.4133
▁রচনার	-10.4133
▁কল্পনা	-10.4134
▁জিম্বাবুয়ে	-10.4134
▁শিয়া	-10.4136
▁কাপুর	-10.4142
▁ভক্ত	-10.4142
ীদের	-10.4143
▁দাখিল	-10.4143
▁হেক্টর	-10.4143
▁ফু	-10.4144
▁আয়াত	-10.4146
▁থাকত	-10.4151
▁হকি	-10.4152
▁ব্রিটিশদের	-10.4153
▁কাগজ	-10.4155
▁অতিথি	-10.4155
▁অবৈধ	-10.4156
৬৪	-10.4161
০৮	-10.4164
▁পতিত	-10.4166
▁রাজনীতির	-10.4168
▁পর্তুগিজ	-10.4169
▁সমিতির	-10.417
▁বিগ	-10.4171
বাই	-10.4174
▁যোগ্য	-10.4177
▁or	-10.4177
▁শিখ	-10.4181
▁শুনে	-10.4182
▁বিনোদন	-10.4183
দ্পাল	-10.4185
▁একাডেমিক	-10.4186
▁গায়িকা	-10.4191
▁বিগত	-10.4201
▁৮টি	-10.4201
▁মার্চে	-10.4202
▁প্রত্যেকটি	-10.4206
▁অংশগ্রহণকারী	-10.4208
০৬	-10.4208
▁উভয়ই	-10.4208
ার্স	-10.4211
▁৭টি	-10.4212
▁বাক্য	-10.4215
▁আইনজীবী	-10.4218
▁ওয়েস্টার্ন	-10.422
▁ডোমেইন	-10.422
▁নু	-10.4223
৫৮	-10.4224
▁কিংবদন্তি	-10.4226
▁সাড়ে	-10.4232
▁ভিতর	-10.4239
▁আর্মি	-10.424
০৯	-10.4241
তত্ত্ব	-10.4244
সিন	-10.4247
▁অধীনস্থ	-10.4247
▁উষ্ণ	-10.4251
▁স্মরণ	-10.4252
▁সারি	-10.4255
▁বিহারের	-10.4255
কম	-10.4257
▁দিতেন	-10.4258
▁মাঝারি	-10.426
▁গ্রে	-10.4262
০৪	-10.4265
▁ধরেন	-10.4265
০১	-10.4265
▁স্পোর্টস	-10.4266
▁কারণেই	-10.4278
▁রান্না	-10.4279
▁মেয়র	-10.4281
▁বন্ধনে	-10.4282
▁রাস্তার	-10.4286
▁প্রক্রিয়ায়	-10.4286
▁অনুভব	-10.4291
▁পরিধান	-10.4291
▁৪র্থ	-10.4294
▁ভুটান	-10.4297
▁সৌর	-10.4299
▁হামলার	-10.4301
▁গৌরব	-10.4306
▁চুক্তিতে	-10.4317
্যা	-10.4319
▁হাইড্রোজেন	-10.4321
লাভ	-10.4321
জের	-10.4321
▁দর্শকদের	-10.4325
▁অধিনায়কত্ব	-10.4325
▁মায়ানমার	-10.4327
▁বর্গকিলোমিটার	-10.4327
▁পাইলট	-10.4329
ন্না	-10.4329
৫৬	-10.4331
▁কণা	-10.4333
▁স্পিন	-10.4336
▁হঠাৎ	-10.4338
▁নূর	-10.4345
▁স্থল	-10.4346
▁করিয়ে	-10.4346
▁ইয়া	-10.4347
বিজ্ঞান	-10.4355
▁সুরকার	-10.4371
৭১	-10.4375
ডার	-10.4375
▁আঁকা	-10.4376
চু	-10.4377
▁শিলা	-10.4384
পুরুষ	-10.4385
▁দীর্ঘদিন	-10.4393
▁ব্যক্তিকে	-10.4399
▁পারি	-10.4403
▁১৯০৫	-10.4407
▁জনসাধারণের	-10.4408
▁হিল	-10.4411
▁মোকাবেলা	-10.4414
দিয়া	-10.4415
▁সেখানকার	-10.4415
▁৭৯	-10.4418
▁লক্ষণ	-10.4419
▁বিনা	-10.4421
▁বৃটিশ	-10.4426
▁স্বামীর	-10.4427
▁গিয়েছিলেন	-10.443
▁ইতালির	-10.4432
▁হারায়	-10.4435
▁মনোযোগ	-10.4436
▁থাইল্যান্ড	-10.444
▁ব্লু	-10.4441
▁অস্থায়ী	-10.4442
▁মুক্তিযুদ্ধে	-10.4446
▁নোট	-10.4451
▁আন্তঃ	-10.4453
▁W	-10.4455
▁সূত্রপাত	-10.4457
▁সিডনি	-10.4458
ফে	-10.4458
▁আধিপত্য	-10.4458
▁প্রকারের	-10.4463
৩৮	-10.4463
▁প্রথমদিকে	-10.4464
▁গুরুতর	-10.4465
▁সেনাদের	-10.4468
▁ব্যাকরণ	-10.447
৭৯	-10.447
▁বার্সেলোনা	-10.447
লাস	-10.447
▁ব্যান্ডের	-10.4471
াদি	-10.4472
▁আত্মা	-10.4476
৮৫	-10.4479
কেন্দ্র	-10.4485
▁টেলিভিশনে	-10.4485
▁মতামত	-10.4487
▁বাসিন্দা	-10.4487
▁অভিযানে	-10.4491
▁৬১	-10.4499
▁প্রমাণিত	-10.4499
৯৮	-10.45
▁বাদে	-10.4501
৬৭	-10.4501
▁স্থপতি	-10.4502
▁পাক	-10.4503
▁দৃঢ়	-10.4504
▁রানী	-10.4504
ভারত	-10.4511
বিষয়শ্রেণী	-10.4511
রাব	-10.4513
▁চিনি	-10.4516
▁অভিযুক্ত	-10.452
৯৫	-10.453
▁অর্ডার	-10.4531
▁শেয়ার	-10.4531
▁পড়েছে	-10.4533
▁আকৃষ্ট	-10.4533
▁সমাজতান্ত্রিক	-10.4533
▁লিপ্ত	-10.4534
▁সুনাম	-10.4538
▁উৎসর্গ	-10.4546
▁রাগ	-10.4549
▁বসবাসকারী	-10.4549
▁সর্বত্র	-10.4549
▁নিম্নরূপ	-10.4549
▁যৌগ	-10.4552
▁মাসিক	-10.4552
ic	-10.4552
▁কোম্পানী	-10.4553
▁রোম	-10.4553
▁উত্তম	-10.4555
বাড়ী	-10.4555
▁বিক্রম	-10.456
▁ওল্ড	-10.4562
▁ইংলিশ	-10.4566
▁up	-10.4573
▁ক্যাম্পাস	-10.4574
পথ	-10.4577
▁শিরোনাম	-10.4577
▁নির্দেশিকা	-10.4583
▁মুর	-10.4585
▁সেপ্টেম্বরে	-10.4587
▁বিবিসি	-10.4589
বেন	-10.4593
িশ	-10.4595
▁সংঘর্ষ	-10.4597
▁পর্যটক	-10.4597
▁ক্যান্সার	-10.4598
▁অংশটি	-10.4601
তায়	-10.4605
▁ইউসুফ	-10.4609
▁প্রফেসর	-10.4609
▁লাইনের	-10.461
▁বিক্রিয়া	-10.4612
▁সভ্যতা	-10.4613
▁দরজা	-10.4613
▁ঋণ	-10.4618
▁ফেলেন	-10.4618
▁সাধারনত	-10.462
5	-10.462
▁ইংরেজী	-10.4623
▁অসমের	-10.4623
▁নজর	-10.4627
▁পৌরাণিক	-10.4628
▁দাম	-10.4631
েজ	-10.4632
▁প্রয়োজনে	-10.4638
ম্ত্শো	-10.464
▁টমাস	-10.4642
▁তহবিল	-10.4643
▁অভিজাত	-10.4643
▁সর্বকালের	-10.4646
▁যমুনা	-10.4648
▁ইতালি	-10.4649
▁করছিল	-10.4657
সিয়া	-10.4658
▁সংস্করণে	-10.4665
৯৬	-10.4671
▁রকমের	-10.4672
▁গোবিন্দ	-10.4675
ওয়ান	-10.4682
▁পেশায়	-10.4684
▁ওঠা	-10.4684
▁পর্বতমালা	-10.4685
▁ব্রাজিলের	-10.4686
▁উনিশ	-10.4693
▁মস্তিষ্ক	-10.4695
▁১৯০৮	-10.4697
▁বন্দরটি	-10.4698
▁স্মারক	-10.4698
দ্	-10.4698
▁প্লে	-10.4698
নেট	-10.4704
▁সিংহাসনে	-10.4706
▁re	-10.4706
▁মুখ্যমন্ত্রী	-10.4712
▁সন্দেহ	-10.4722
▁ডাচ	-10.4726
সম	-10.4728
▁সিরাজ	-10.4729
▁চৌধুরীর	-10.4731
বাস	-10.4735
▁মুক্তিযোদ্ধারা	-10.4735
▁উত্তরাধিকারী	-10.4738
ভাগ	-10.4742
▁ইরাকের	-10.4744
▁পর্দা	-10.4746
দাস	-10.4747
▁বৈশ্বিক	-10.4748
’,	-10.475
যার	-10.4751
▁রবীন্দ্র	-10.4756
▁are	-10.4759
▁ইত্যাদির	-10.4761
▁অস্ট্রেলিয়ায়	-10.4765
এক্স	-10.4766
▁হাইওয়ে	-10.4768
▁শরীরে	-10.477
▁বাকী	-10.4771
▁সুপারিশ	-10.4771
▁স্বর্ণপদক	-10.4772
৯৪	-10.4775
▁পেশা	-10.4779
▁আইনে	-10.478
▁সময়কাল	-10.478
▁প্যা	-10.4782
৯৩	-10.4786
▁অ্যাওয়ার্ড	-10.4787
▁বিশুদ্ধ	-10.4792
▁উপন্যাসটি	-10.4795
▁প্রশংসিত	-10.4796
কুমার	-10.4796
▁গম্বুজ	-10.48
▁লবণ	-10.4801
▁আক্রমণে	-10.4802
াঞ্চলীয়	-10.4807
▁অপরের	-10.4812
▁ব্রিজ	-10.4812
▁প্রিন্স	-10.4818
ভূমি	-10.4823
▁তাত্ত্বিক	-10.4828
▁অস্কার	-10.4829
▁মাওলানা	-10.4831
▁জনতা	-10.4833
▁জরিপ	-10.4836
▁জগতের	-10.4841
▁প্রবণতা	-10.4845
▁সংসদীয়	-10.4847
▁সিঙ্গাপুর	-10.4848
▁বাবু	-10.485
ন্ডা	-10.4851
▁মুজিবুর	-10.4859
▁In	-10.4861
▁ইউনেস্কো	-10.4861
▁পায়ের	-10.4871
▁মাস্টার্স	-10.4877
▁বিদেশে	-10.4878
▁এমি	-10.4878
৪২	-10.4885
▁১৯১৩	-10.4885
শ্রী	-10.4893
▁১২টি	-10.4898
▁আজারবাইজান	-10.4899
▁বক্তৃতা	-10.49
▁ওয়েলস	-10.4903
▁রিং	-10.4905
▁ধারাবাহিকভাবে	-10.4906
টিক	-10.4907
▁মাইক্রোসফট	-10.4908
▁লাইফ	-10.4913
▁পটার	-10.4915
▁সূত্রে	-10.4915
▁মানুষদের	-10.4915
▁ডিভাইস	-10.4917
▁অ্যান	-10.4918
০৫	-10.4923
ভো	-10.4927
▁উপায়ে	-10.4933
ত্ত	-10.4934
লাইন	-10.4934
▁করেনি	-10.4936
▁বংশধর	-10.4937
▁খ্যাত	-10.4939
৯৭	-10.4939
ওয়ালা	-10.4944
▁শোনা	-10.4947
মাল	-10.4951
▁হাউজ	-10.4953
ar	-10.4955
ক্যা	-10.4965
▁১৯০৬	-10.4966
▁বিন্যাস	-10.4973
▁হামিদ	-10.4974
▁অনুষদ	-10.4977
ইল	-10.4978
▁অভিযোগে	-10.4983
▁বিনিময়	-10.4987
▁সমীকরণ	-10.4988
৭৬	-10.499
▁আটক	-10.4991
মোহন	-10.4992
▁অনুভূতি	-10.4997
▁সাহা	-10.4998
ur	-10.5003
▁ফিলিপ	-10.5005
▁মেক্সিকো	-10.5007
৫২	-10.5009
▁মতই	-10.501
▁সামগ্রিক	-10.5011
লস	-10.5011
▁প্রযুক্তির	-10.5014
▁পাকা	-10.5016
▁আত্মহত্যা	-10.5018
▁প্রতিভা	-10.5018
র্দো	-10.5019
সাই	-10.5019
▁স্তন্যপায়ী	-10.5019
▁গীত	-10.5019
▁খ্রিঃ	-10.5021
▁এ্যা	-10.5022
▁নিয়মিতভাবে	-10.5024
২০০১	-10.5024
ারি	-10.5025
এফ	-10.5029
▁এইসব	-10.503
▁সংশোধন	-10.503
▁জন্মগ্রহন	-10.5034
৪৩	-10.5035
▁গ্রন্থটি	-10.5036
▁আলোচিত	-10.5036
▁আইরিশ	-10.504
▁অংশগ্রহন	-10.5042
▁নিউজ	-10.5045
re	-10.5049
▁সেকেন্ড	-10.5053
▁প্রশস্ত	-10.5056
▁বৃষ্টি	-10.5057
▁ফেরত	-10.5057
ঘাট	-10.5059
▁পেরে	-10.5061
▁সামগ্রী	-10.5065
▁অধিদপ্তর	-10.5066
▁তদন্ত	-10.5076
▁ঘরের	-10.5084
▁আংশিক	-10.5085
▁যুক্তরাজ্যে	-10.5087
▁আবদুর	-10.5087
▁বারের	-10.5092
▁ব্রাউন	-10.5093
▁দেখেন	-10.5102
▁তুরস্কের	-10.5104
▁কর্তৃত্ব	-10.5105
কী	-10.5106
রাউন্ডার	-10.5106
▁৮২	-10.5108
▁আমিন	-10.5109
▁ক্যাচ	-10.511
▁নীতির	-10.5113
ঠা	-10.5119
▁গোল্ড	-10.512
▁সমন্বিত	-10.5121
▁করান	-10.5121
▁ধন	-10.5127
৬৫	-10.5132
▁লং	-10.514
ر	-10.5141
▁নিষেধাজ্ঞা	-10.5145
▁জিয়া	-10.5147
▁আব্বাস	-10.5153
৫৪	-10.5157
▁এশিয়ায়	-10.5158
ফিল্ড	-10.5158
▁মূল্যবান	-10.517
▁উপকরণ	-10.5174
▁বালি	-10.5179
▁ঘাস	-10.5184
▁ফে	-10.5186
৫৯	-10.5191
▁নদ	-10.5195
▁বিদ্রোহের	-10.5196
৮৩	-10.5201
▁ধ্রুপদী	-10.5201
▁নির্দেশনা	-10.5204
▁ওয়াই	-10.5204
▁লাইট	-10.5206
4	-10.521
৬৩	-10.521
▁১৯১৫	-10.5211
মত	-10.522
লিং	-10.522
▁সেগুলি	-10.5223
▁ল্যাটিন	-10.5223
টেন	-10.5224
▁সিনেমায়	-10.5227
▁গেলেও	-10.5237
▁দ্বন্দ্ব	-10.5239
▁কাশ্মীর	-10.524
▁একাদশের	-10.5249
▁আদালতে	-10.525
তান	-10.5253
৭২	-10.5254
com	-10.5256
▁ভবনে	-10.5257
▁ওয়েন	-10.5258
▁মেশিন	-10.5258
▁হস্তান্তর	-10.5259
▁অসীম	-10.5261
▁সুখ	-10.5265
▁প্রতিবেশী	-10.5267
▁শস্য	-10.5269
▁পাননি	-10.5271
▁শিক্ষিত	-10.5274
▁ছাদ	-10.5275
▁যাতায়াত	-10.5278
▁অবতরণ	-10.5278
▁দার্জিলিং	-10.5281
▁এগুলির	-10.5282
আউট	-10.5285
▁পূর্বেই	-10.5288
▁উল	-10.5291
ভারতীয়	-10.5292
সব	-10.5293
▁পরিলক্ষিত	-10.5294
▁প্রদর্শনের	-10.5302
▁কোচের	-10.5302
▁প্রাণীদের	-10.5307
▁সাধারণতঃ	-10.5316
▁সীমান্তে	-10.5317
জিন	-10.5322
দক্ষিণ	-10.5322
▁অভিষিক্ত	-10.5327
৫৩	-10.5328
▁স্প্যানিশ	-10.5335
▁গৃহ	-10.5336
▁ছাত্রী	-10.5336
▁গল্পের	-10.5341
▁সিভিল	-10.5346
ia	-10.5347
▁সেসব	-10.5351
িয়াম	-10.5352
▁পরই	-10.5353
রক্ষক	-10.5356
▁প্রচণ্ড	-10.5361
▁উৎসাহ	-10.5363
▁ফিল্ড	-10.5363
▁এসেছিলেন	-10.5364
▁সরঞ্জাম	-10.5365
▁অবসান	-10.5366
▁বৈধ	-10.5367
▁শ্রম	-10.5367
▁বন্যা	-10.5369
▁নৌবাহিনীর	-10.5371
কারীদের	-10.5374
▁দাদা	-10.5375
▁বছরই	-10.5375
▁উদ্ভিদের	-10.5376
দী	-10.5376
▁ধ্বংসাবশেষ	-10.5377
▁পুকুর	-10.5379
▁বিরত	-10.5379
▁করানো	-10.5385
পর	-10.5385
▁সংঘ	-10.5389
▁উইল	-10.5393
▁পুনরুদ্ধার	-10.5394
▁হাস্যরসাত্মক	-10.5394
স্কি	-10.5395
▁প্রস্তুতি	-10.5396
মিন	-10.5396
▁বিদ্রোহী	-10.5403
▁জিনিস	-10.5407
▁ক্রীড়াশৈলী	-10.5413
▁লিগ	-10.5414
▁চ্যাম্পিয়নশীপে	-10.5417
▁৮৪	-10.5419
৭৭	-10.542
▁ডেপুটি	-10.5427
▁সময়ই	-10.5429
▁নিউটন	-10.5431
▁চেক	-10.5435
▁কিছুই	-10.5438
▁কালি	-10.5439
▁ঘাট	-10.5444
te	-10.5445
▁সাজানো	-10.5446
▁ভাইয়ের	-10.5446
▁স্মরণীয়	-10.5447
▁দাঁড়িয়ে	-10.5448
▁হট	-10.5448
▁ইন্টার	-10.5449
▁প্রসার	-10.5455
▁খালি	-10.5455
j	-10.5458
▁পঞ্চ	-10.546
▁কর্মচারী	-10.546
▁উভয়ের	-10.5462
id	-10.5468
শু	-10.5469
▁বৈদিক	-10.547
মূল	-10.5476
ীন	-10.5483
it	-10.5485
▁সিনেমার	-10.5486
▁মহাসাগর	-10.5487
৮৯	-10.549
▁প্রোটিন	-10.5491
৬২	-10.5496
▁দুঃখ	-10.5496
▁প্যারিসে	-10.55
▁O	-10.5502
▁সমুদ্রের	-10.5503
▁১৯শ	-10.5504
▁ال	-10.5504
▁হর	-10.5505
▁স্যাটেলাইট	-10.5513
▁মাজার	-10.5516
▁কয়েকবার	-10.5521
▁সকালে	-10.5523
ফুল	-10.5525
মালা	-10.5526
▁পুন	-10.5534
▁কর্তৃপক্ষের	-10.5535
▁১৯০৯	-10.5539
৯২	-10.554
▁অর্জুন	-10.5543
▁সৈন্যরা	-10.5543
▁সাইট	-10.5544
▁ইঙ্গিত	-10.5546
▁উৎসাহিত	-10.5548
▁বাড়তে	-10.5549
▁ফরাসী	-10.5549
▁দেশীয়	-10.5549
▁্যা	-10.555
০২	-10.5553
ষ্ঠ	-10.5556
▁পরম	-10.5556
▁আরোপ	-10.5557
▁সৌন্দর্য	-10.5558
উড	-10.556
▁অধিষ্ঠিত	-10.5562
▁হাম	-10.5562
▁ব্রহ্ম	-10.5565
▁সজ্জিত	-10.5567
▁সংক্রমণ	-10.5574
▁দাঁত	-10.5576
▁অপসারণ	-10.5579
▁পারস্পরিক	-10.5581
▁রচয়িতা	-10.5585
▁বেইজিং	-10.5588
▁ভে	-10.5591
▁নীচে	-10.5594
▁মাধ্যমেই	-10.5594
▁ভাড়া	-10.5599
is	-10.56
▁সমর্থক	-10.5604
▁জেন	-10.5606
▁বিজয়ের	-10.5607
▁বর্ধিত	-10.5608
▁দেখুন	-10.5609
v	-10.5613
▁৭ম	-10.5613
▁বোঝাতে	-10.5614
থেকে	-10.5621
▁সাহেব	-10.5621
▁রয়েল	-10.5625
াকার	-10.5625
৭৪	-10.5627
▁ডলারের	-10.5629
ত্র	-10.5632
from	-10.5632
▁শিরোনামে	-10.5633
স্থল	-10.5634
▁লাহোর	-10.5635
▁পরপরই	-10.5635
▁গতির	-10.5641
▁ধাপে	-10.5644
▁বিতরণ	-10.5644
▁হাদিস	-10.5645
▁গোপাল	-10.565
▁৮১	-10.5657
▁৮৩	-10.5659
▁টাকার	-10.5664
▁লোকজন	-10.5666
▁হিন্দুদের	-10.5666
ধা	-10.5674
▁অনুসারী	-10.5675
▁ইন্দ্র	-10.5676
▁অবলম্বন	-10.5681
▁জংশন	-10.5682
▁গড়া	-10.5682
▁জানুয়ারিতে	-10.5683
▁ব্যস্ত	-10.5685
▁উঠতে	-10.569
▁মালিকানা	-10.5691
লেস	-10.5693
▁বাঁধা	-10.5694
▁ছ	-10.5699
▁পূর্বদিকে	-10.5699
▁লেফটেন্যান্ট	-10.57
▁তুলেছিলেন	-10.5701
▁দাঙ্গা	-10.5703
▁চাই	-10.5705
ri	-10.5706
▁সবগুলো	-10.5708
▁শাস্ত্রীয়	-10.5714
▁ভোটে	-10.5715
▁পালক	-10.5724
il	-10.5724
▁আনে	-10.5724
▁কালা	-10.5725
গ্	-10.573
’’	-10.573
▁মেডিক্যাল	-10.5733
ানো	-10.5737
▁বৌদ্ধবিহার	-10.5739
▁সকলের	-10.5742
▁দশটি	-10.5744
▁সৎ	-10.5745
▁সনের	-10.5749
▁জগৎ	-10.5749
▁প্রস্তাবিত	-10.575
▁ডাক্তার	-10.5752
▁ঘটানো	-10.5754
বাগ	-10.5754
▁পুরাণে	-10.5754
ারের	-10.5755
সী	-10.576
▁খুন	-10.5761
▁পর্যালোচনা	-10.5761
সুর	-10.5761
▁দেখার	-10.5762
▁চব্বিশ	-10.5767
েশ	-10.5769
▁সারে	-10.5775
▁মাত্রার	-10.5777
▁এলাকাটি	-10.5778
মাই	-10.5778
ন্ডার	-10.5789
▁পরিদর্শন	-10.5796
▁ফার	-10.5796
কিউ	-10.5797
▁ভ্যান	-10.5801
▁রক্ষার	-10.5801
▁ডিভিশন	-10.5808
কিন	-10.5809
তী	-10.581
▁১৯০৭	-10.5811
▁ঘুম	-10.5813
▁এখানেই	-10.5814
ঙ্গাগ	-10.5816
১০০	-10.5821
▁আনতে	-10.5823
▁সাক্ষাৎ	-10.5827
▁পারবেন	-10.583
▁নারীবাদী	-10.5832
সংখ্যা	-10.5833
▁বিতর্কের	-10.5835
▁ক্রমাগত	-10.5836
▁তোমার	-10.5838
নেস	-10.5838
▁ফরিদপুর	-10.5841
৫৭	-10.5842
▁নয়টি	-10.5843
▁বাইজেন্টাইন	-10.5845
▁তখনই	-10.5847
▁কেমব্রিজ	-10.5849
▁পরস্পর	-10.5852
োন	-10.5854
৮৭	-10.5854
▁ক্রস	-10.5854
ব্স্তান	-10.5855
প্রধান	-10.5855
▁মুহম্মদ	-10.5855
▁অক্সিজেন	-10.5857
▁অষ্টাদশ	-10.5857
বেল	-10.5862
▁অঙ্গনে	-10.5863
▁শীতল	-10.5863
0	-10.5864
▁দলটির	-10.5865
▁নেদারল্যান্ডস	-10.5868
▁আর্	-10.587
▁লেন	-10.5871
▁কুস্তি	-10.5872
ল্	-10.5875
▁চুল	-10.5876
▁পরপর	-10.5877
সকল	-10.5878
▁বিমানবন্দরের	-10.5884
▁শুভ	-10.5889
▁মল	-10.5898
▁বন্দরের	-10.5903
▁গ্রহের	-10.5908
বী	-10.5909
▁বইয়ে	-10.591
▁হিসেব	-10.591
▁জীবাশ্ম	-10.5918
৫১	-10.5919
▁এদিকে	-10.5919
▁গাজী	-10.5919
ro	-10.5923
▁সংগৃহীত	-10.5924
▁অসামান্য	-10.5924
▁প্রকাশক	-10.5926
ra	-10.593
ওয়েল	-10.5931
▁মিশ্রণ	-10.5932
▁ক্রমবর্ধমান	-10.5935
বছর	-10.594
▁জেল	-10.5941
▁অগ্রগতি	-10.5942
▁পরিবেশের	-10.5943
▁দিল	-10.5945
▁যন্ত্রপাতি	-10.5948
▁পদ্মা	-10.5948
র্ক	-10.5952
▁টে	-10.5954
।”	-10.5963
▁খাবারের	-10.5964
▁পর্তুগাল	-10.5969
ta	-10.597
শতক	-10.5974
▁গণপ্রজাতন্ত্রী	-10.5977
▁প্রথাগত	-10.5977
▁খামার	-10.5981
▁ধাতব	-10.5983
▁অন্তর	-10.5989
um	-10.5989
▁কমিয়ে	-10.5989
▁ঘটনায়	-10.5989
ion	-10.5989
▁জাল	-10.5994
▁টপ	-10.5996
▁অধ্যায়	-10.5997
▁তুলনামূলকভাবে	-10.5998
▁বাঁকুড়া	-10.5998
▁প্রাতিষ্ঠানিক	-10.5999
▁বাহিনীকে	-10.5999
▁ভাইস	-10.6
▁যানবাহন	-10.6
▁আলোচনার	-10.6001
▁উপাত্ত	-10.6003
জী	-10.6003
▁অবতার	-10.6005
U	-10.6007
▁লক্ষ্মীপুর	-10.6016
▁হুগলি	-10.6017
▁—	-10.6018
লাই	-10.6019
▁আয়ের	-10.6019
▁নাম্বার	-10.602
▁ক্রিস	-10.6021
▁অপ	-10.6021
▁এসআর	-10.6027
ir	-10.6029
▁জ্ঞানের	-10.6029
▁বৃষ্টিপাত	-10.603
▁চারজন	-10.6037
▁খায়	-10.6038
▁শু	-10.6044
▁পুতুল	-10.6051
▁দাবা	-10.6055
▁নগরী	-10.6058
▁কাই	-10.6059
▁সালাম	-10.6061
▁থাকতেন	-10.6062
▁সিরিয়ার	-10.6063
▁ভাষাতে	-10.6063
▁বস্ত্র	-10.6064
▁১৯১৬	-10.6065
▁বাউল	-10.6066
করণের	-10.6067
▁বব	-10.6067
▁বইটির	-10.6069
▁লেডি	-10.6074
৮৮	-10.6074
▁উদযাপন	-10.6077
হাম	-10.6078
▁মেয়ের	-10.6079
▁নিয়ন্ত্রণে	-10.608
▁কাপের	-10.6081
to	-10.6081
▁১৯০১	-10.6082
▁আটলান্টিক	-10.6086
▁সেচ	-10.6087
▁কমিশনার	-10.6088
ভাই	-10.6089
▁গণহত্যা	-10.6092
েন্ট	-10.6093
৭৩	-10.6094
ম্বা	-10.61
▁মুল	-10.61
৪১	-10.6103
▁পেস	-10.6105
ায়িত	-10.6105
▁মৎস্য	-10.6105
▁কুন	-10.6112
▁১৯০৪	-10.6112
বোধ	-10.6118
▁এগুলোর	-10.6119
▁উপলব্ধি	-10.612
▁কাল্পনিক	-10.6122
▁J	-10.6125
▁প্রবেশের	-10.613
▁পর্বতের	-10.6131
য়েন	-10.6136
▁অসম্ভব	-10.6138
▁মিথ্যা	-10.6139
▁বসন্ত	-10.6141
▁পদার্থবিজ্ঞানী	-10.6142
▁জন্যই	-10.6144
▁আধা	-10.6149
▁লিখতে	-10.615
▁পেলে	-10.6151
▁ঠোঁট	-10.6153
▁বোধ	-10.6158
ওয়াল	-10.6161
▁ইলেকট্রনিক	-10.6165
ul	-10.6167
রায়	-10.617
▁শিল্পকলা	-10.6171
▁জাপানী	-10.6175
▁ব্রিটিশরা	-10.6175
▁হাতি	-10.6184
▁তলায়	-10.6188
গুণ	-10.6189
▁রাস্তায়	-10.6191
▁রাষ্ট্রদূত	-10.6191
▁ঋষি	-10.6195
বার্গ	-10.6196
▁মতোই	-10.6197
▁নারীরা	-10.6198
ফোর্ড	-10.6199
টাই	-10.6205
▁উপজাতি	-10.6205
▁স্পেস	-10.6208
▁উপাদানের	-10.6211
▁শিক্ষাবিদ	-10.6211
▁দেল	-10.6212
▁ব্রিটেন	-10.6215
▁শেল	-10.6216
▁প্রজন্মের	-10.6216
▁বিমানের	-10.622
▁সড়কের	-10.6225
▁বাড়িয়ে	-10.6231
▁বুদ্ধের	-10.6232
▁৮৬	-10.6232
▁শরীফ	-10.6239
▁জমিতে	-10.6239
▁রবি	-10.6243
▁বাহিনীতে	-10.6247
▁পরও	-10.6256
ক্কা	-10.6256
শিক্ষা	-10.6257
▁ল্যা	-10.6258
দেবী	-10.6262
বদ্ধ	-10.6263
▁নীচের	-10.6264
মহা	-10.6265
na	-10.6265
▁স্টক	-10.6266
হাই	-10.6267
▁স্থানটি	-10.6269
িজ	-10.6274
▁স্যা	-10.6274
▁ডন	-10.6275
হর	-10.6275
▁উত্তোলন	-10.6281
▁বড়ো	-10.6282
▁কত	-10.6283
▁দেবার	-10.6293
▁প্রতিস্থাপন	-10.6293
▁রশিদ	-10.6294
▁কোল	-10.63
য়ন	-10.6301
▁চট্টগ্রামে	-10.6304
▁আসামের	-10.6306
▁একইভাবে	-10.6308
▁আসর	-10.6316
▁হ্রদের	-10.632
▁টো	-10.6324
ne	-10.6326
▁আবাস	-10.6327
▁দেহে	-10.633
▁an	-10.6334
্ড	-10.6334
▁জাতিগত	-10.6335
";	-10.6337
▁এদেরকে	-10.6342
▁মাঠের	-10.6345
▁হ্যা	-10.6348
▁রয়ে	-10.635
▁১২০	-10.6352
▁ঔপন্যাসিক	-10.6355
▁ঘাঁটি	-10.6355
▁পাত্র	-10.6362
কেন্দ্রিক	-10.6363
▁at	-10.6365
▁ব্যাক	-10.6368
▁রাজস্থান	-10.6372
▁অধিবর্ষ	-10.6384
▁উপগ্রহ	-10.6385
মুখ	-10.6385
▁মোটামুটি	-10.639
▁উল্লিখিত	-10.6391
▁শীঘ্রই	-10.6392
▁পদার্থবিজ্ঞান	-10.6394
▁ধরার	-10.6399
কৃষ্ণ	-10.6401
▁সংস্থাটি	-10.6403
▁পূরণ	-10.6406
▁অত্র	-10.6406
▁আসরে	-10.6407
▁হাল	-10.6409
▁সংলাপ	-10.641
▁সম্পদের	-10.6411
▁ম্যা	-10.6412
▁বললেন	-10.6414
▁১১টি	-10.6416
৯১	-10.6416
ফো	-10.6418
▁বর্ষ	-10.6419
▁চ্যালেঞ্জ	-10.6423
▁ধরতে	-10.6427
রাজা	-10.6428
▁লাগিয়ে	-10.6428
▁সম্পাদিত	-10.6428
▁চুরি	-10.643
নাস	-10.6432
▁পায়ে	-10.6432
▁এপ্রিলে	-10.6433
এসসি	-10.6435
▁স্টেশনের	-10.6441
▁সংসদে	-10.6444
▁নেতিবাচক	-10.6446
▁বয়স্ক	-10.6448
▁মোগল	-10.6449
▁মেরে	-10.6458
▁খনি	-10.6459
▁ইতিহাসবিদ	-10.6462
▁উপত্যকায়	-10.6466
নীয়	-10.6473
▁উমর	-10.6475
হাট	-10.6476
নিউ	-10.6478
▁যন্ত্রের	-10.6479
▁রেজা	-10.6479
▁উঠেছিল	-10.6482
▁বাফটা	-10.6484
▁সত্যজিৎ	-10.6484
▁পাশ্চাত্য	-10.6485
কাম	-10.6486
▁ব্যথা	-10.6488
0%	-10.6488
▁V	-10.6488
▁নির্মাণে	-10.649
▁ঠাকুরের	-10.6493
▁পারদর্শী	-10.6494
▁স্কট	-10.6494
▁চিত্রিত	-10.6497
ৃ	-10.65
▁ব্যাস	-10.6501
▁মোস্তফা	-10.6502
▁পারতেন	-10.6504
▁কাহিনি	-10.6504
িজম	-10.6509
▁ফ্রান্সে	-10.6509
ত্তা	-10.651
িও	-10.6512
▁ব্রায়ান	-10.6513
▁দৃষ্টিভঙ্গি	-10.6516
▁সংস্কৃতিতে	-10.652
▁বিচ্ছেদ	-10.6521
▁ফ্যাশন	-10.6522
▁বয়সের	-10.6523
▁পুস্তক	-10.6523
▁রুপ	-10.6524
▁পপ	-10.6525
ব্যাপী	-10.6527
৬১	-10.6527
▁শ্রেণি	-10.6529
▁গৃহযুদ্ধ	-10.6531
▁পথের	-10.6532
▁স্ক্রিন	-10.6533
▁কম্পিউটারের	-10.6537
▁নিয়ন্ত্রন	-10.654
▁আফগানিস্তানে	-10.6541
▁ঘোষনা	-10.6546
স্থান	-10.6549
▁অমর	-10.655
▁আয়তনের	-10.6551
▁পেশ	-10.6551
▁কমিক	-10.6552
▁মুসা	-10.6553
▁দিলেন	-10.6558
▁আচার্য	-10.6559
▁শরণার্থী	-10.6563
▁সুতরাং	-10.6563
▁সম্পূর্ণরূপে	-10.6566
▁ধারে	-10.6572
মিটার	-10.6574
▁মহানগর	-10.6581
▁চেন্নাই	-10.6584
▁দেশটি	-10.6587
▁সরকারকে	-10.6595
▁কোয়ার্টার	-10.6596
▁প্রভূত	-10.6596
▁খেলছেন	-10.6597
▁জলে	-10.6598
▁রুম	-10.6599
পাত	-10.66
▁নব্য	-10.6604
▁১৯০২	-10.661
▁আনার	-10.6619
1	-10.6621
লান	-10.6621
▁ফেরার	-10.6624
▁ইয়ার	-10.6629
▁রাতের	-10.663
▁জিম	-10.663
▁অ্যাল	-10.6633
বাদের	-10.6635
▁অস্ট্রেলিয়ান	-10.664
▁কারিগরি	-10.6642
▁পাঠদান	-10.6644
▁শাসিত	-10.6648
▁উভয়েই	-10.6648
▁ফ্রান্সিস	-10.6649
▁সিলেটের	-10.6656
্ট	-10.666
িনা	-10.6663
▁৯২	-10.6665
▁ধ্যান	-10.6666
াইল	-10.6666
▁ভাত	-10.6668
▁হিমবাহ	-10.6672
▁পদার্থবিজ্ঞানে	-10.6673
▁বিরোধ	-10.668
▁t	-10.6681
▁পাপ	-10.6683
▁শীর্ষে	-10.6684
জাম	-10.6687
▁মন্ত্র	-10.6688
▁নাগ	-10.6689
▁নেতাদের	-10.6693
খান	-10.6695
▁গির্জা	-10.6695
জন্মঃ	-10.6702
▁টাই	-10.6705
▁গভীরতা	-10.6706
▁মেদিনীপুর	-10.6709
২০১০	-10.6711
▁তুরস্ক	-10.6715
▁মাঝখানে	-10.6718
▁ঘটতে	-10.6719
▁যুবক	-10.6724
▁কুরআনের	-10.6728
▁মিলিমিটার	-10.6728
▁সহযোগিতায়	-10.6728
▁ব্রেক	-10.6729
ন্ন	-10.6729
▁বেস	-10.673
▁সৌদ	-10.6733
▁স্টেশনে	-10.6734
▁শর্মা	-10.6743
▁জার	-10.6744
▁বাচ্চা	-10.6746
▁মোতাবেক	-10.6747
▁নিম্নোক্ত	-10.6747
কায়	-10.6749
বিষয়ক	-10.675
▁জাভা	-10.6755
▁ব্রিটেনের	-10.6756
▁মারি	-10.6758
জীবন	-10.6758
▁ধারায়	-10.6759
াঙ্গ	-10.6767
▁ষোড়শ	-10.6769
▁উড়ান	-10.6769
ৈ	-10.6771
▁খ্রি	-10.6777
▁গৌড়	-10.6778
▁বেঁধে	-10.6785
▁আপনি	-10.6789
▁খাজা	-10.6795
▁আত্মসমর্পণ	-10.6795
▁বিভাগীয়	-10.6796
▁আকর্ষণীয়	-10.6797
▁ওয়েলসের	-10.6798
▁জানিয়ে	-10.6798
▁ব্যাংকের	-10.6801
▁আদালতের	-10.6801
▁থে	-10.6806
▁সংযোজন	-10.6808
▁সোনার	-10.6808
▁শেখর	-10.6814
ানন্দ	-10.6816
▁মেয়াদে	-10.6816
▁মোড়	-10.6818
▁সুনির্দিষ্ট	-10.6819
▁অতীত	-10.682
▁রথ	-10.6824
▁ওডিআইয়ে	-10.6825
▁পুরানো	-10.6826
▁সভার	-10.6829
▁পুরোনো	-10.6829
▁কোপা	-10.6831
▁নির্মান	-10.6834
▁কর্মকাণ্ড	-10.6835
▁আদমশুমারী	-10.6843
▁বর্জন	-10.6847
▁প্রতিবেদনে	-10.6848
ma	-10.6849
▁জীবের	-10.6849
▁বিচারে	-10.685
▁ট্র্যাক	-10.6852
▁নৈতিক	-10.6856
▁বাণিজ্যের	-10.6856
▁জিম্বাবুয়ের	-10.6857
ণ্ড	-10.6859
▁বেশকিছু	-10.6859
▁ধ্বনি	-10.686
▁ইব্রাহিম	-10.6862
▁গেরিলা	-10.6862
▁ডক্টরেট	-10.6862
▁আমাকে	-10.6865
▁বার্লিন	-10.6866
▁ডাটা	-10.6875
▁নির্দেশে	-10.6876
ter	-10.6878
▁খেতে	-10.6878
▁৮৮	-10.6883
হ্	-10.6883
▁মনো	-10.6885
▁বুঝায়	-10.6887
▁সিডি	-10.6887
▁নরম	-10.6888
▁আমিরাত	-10.6892
▁বনে	-10.6893
ট্রি	-10.6894
▁ভালোবাসা	-10.6911
▁প্রথমবার	-10.6915
▁ধ	-10.6919
▁তুলনামূলক	-10.692
▁পৈতৃক	-10.692
সমূহে	-10.692
▁সংস্কারের	-10.6924
▁প্রেমের	-10.6928
▁দলাই	-10.6932
▁মুসলিমরা	-10.6934
▁ধার	-10.6934
▁আবৃত	-10.6936
▁বিমানবন্দরে	-10.6936
▁সমাবেশ	-10.6948
▁বাজারের	-10.6948
▁রোমান্টিক	-10.6951
▁বিকিরণ	-10.6952
▁রোজ	-10.6963
▁নাট্যকার	-10.6963
▁আয়োজনের	-10.6964
▁শ্বেত	-10.6964
▁টনি	-10.6968
▁ভূমিকম্প	-10.6969
▁পাঠক	-10.6971
▁উপস্থাপনা	-10.6972
পতি	-10.6976
▁নিলে	-10.6977
ণা	-10.698
▁Jump	-10.6982
বাসী	-10.6982
▁দৈর্ঘ্যের	-10.6983
▁হাতের	-10.6985
▁এসেছিল	-10.6989
▁সাম	-10.6989
▁তৈরিতে	-10.6991
▁হচ্ছিল	-10.6994
▁হবেন	-10.6995
▁কারাগারে	-10.7005
▁ওয়াল	-10.7006
সিস	-10.7009
▁পাড়ি	-10.7011
গামী	-10.7013
▁উপদেশ	-10.7013
মেদ	-10.7014
▁পরগনা	-10.7015
▁রক্ষণাবেক্ষণ	-10.7017
▁চামড়া	-10.7018
মী	-10.702
▁কমান্ড	-10.702
▁অধিকতর	-10.702
▁উপসর্গ	-10.7021
▁তত	-10.7026
০৩	-10.7028
▁বৎসর	-10.7028
▁হাড়	-10.7032
▁বালক	-10.7032
▁প্রেক্ষাপটে	-10.7033
ঞ্চ	-10.7038
li	-10.704
▁দুর্গা	-10.7041
অন	-10.7049
▁পাহাড়ি	-10.705
▁ফন	-10.705
▁ফোর্স	-10.7054
▁শহুরে	-10.7057
৮৪	-10.7058
▁চৌ	-10.7058
২০০	-10.7059
▁তোমাদের	-10.7059
▁সেলিম	-10.7065
▁রাষ্ট্রপতির	-10.7066
▁কমপ্লেক্স	-10.7069
▁ভবিষ্যৎ	-10.7076
▁ইকবাল	-10.7076
▁বন্ধুত্ব	-10.7079
▁কালের	-10.7081
▁প্রকল্পটি	-10.7081
▁কর্মীদের	-10.7083
▁সংখ্যাগরিষ্ঠ	-10.7088
র্ত	-10.7091
▁এমসিসি	-10.7095
▁আবারও	-10.7096
▁ছায়া	-10.7102
▁অক্ষ	-10.7107
▁হুসাইন	-10.7108
▁ইবন	-10.7109
▁চালানোর	-10.7109
▁ডক্টর	-10.7111
▁আর্জেন্টিনার	-10.7114
টিন	-10.7116
াংশ	-10.7116
▁সময়েই	-10.7118
▁বাছাই	-10.7121
▁স্কোর	-10.7121
▁প্রচারণা	-10.7123
▁মালয়	-10.7127
▁সারির	-10.7131
▁রক্ষিত	-10.7137
▁বিজ্ঞানীরা	-10.7137
সম্পন্ন	-10.714
র্ন	-10.7141
▁অঙ্গরাজ্যের	-10.7141
▁অভাবে	-10.7143
▁সম্পর্কযুক্ত	-10.7147
পরি	-10.7148
▁ইয়র্কশায়ারের	-10.7152
▁প্রতিপক্ষ	-10.7157
▁টুর্নামেন্ট	-10.7157
▁অভিবাসী	-10.7158
ইট	-10.7159
▁2	-10.7165
▁৮ম	-10.7166
▁১৮৯৯	-10.7167
▁সেবার	-10.7169
et	-10.7169
▁প্রেসিডেন্সি	-10.7176
▁ভু	-10.7179
▁আত্মীয়	-10.7185
▁বেদ	-10.7188
▁গেট	-10.7188
▁সংরক্ষণের	-10.7195
▁বিদেশি	-10.7198
▁ভাগ্য	-10.7204
▁হলিউড	-10.7207
▁উঠেন	-10.7207
▁মহাদেশের	-10.7212
▁রাজত্বকালে	-10.7214
▁শ্রদ্ধা	-10.7215
▁বিকশিত	-10.7215
▁চিকিৎসার	-10.722
▁ইসরায়েল	-10.722
ফল	-10.7224
▁ব্যাপার	-10.7226
▁টোকিও	-10.7227
▁শৈলী	-10.7232
▁৯৫	-10.7235
▁পর্যাপ্ত	-10.7235
▁ভ্রমণের	-10.7237
▁সফলভাবে	-10.724
▁বিস্তৃতি	-10.7246
▁আখ	-10.7249
▁দ্বীপটি	-10.7249
▁লিপিতে	-10.7249
▁নামাজ	-10.7249
▁১০ম	-10.7254
▁চার্লি	-10.7254
▁১৮৯০	-10.7255
▁আমদানি	-10.7255
▁সুফি	-10.7255
▁স্বাদ	-10.7257
▁ব্যাটিংয়ের	-10.7259
▁মস্কো	-10.7264
▁বিভাজন	-10.7264
▁৬০০	-10.7266
▁বেতন	-10.7269
▁পারত	-10.7271
▁ঐতিহাসিকভাবে	-10.7275
▁সুভাষ	-10.7279
▁বিট	-10.728
▁পোষাক	-10.728
▁শিক্ষাদান	-10.7281
▁তখনকার	-10.7287
▁সুস্থ	-10.7289
▁ব্লো	-10.729
▁মক্কা	-10.729
▁পিছিয়ে	-10.7296
▁মহাসাগরের	-10.7302
▁পর্বতমালার	-10.7303
▁অভয়ারণ্য	-10.7304
ভাষী	-10.7316
▁কাচ	-10.7317
৮১	-10.7321
ডেল	-10.7322
▁যৌনতা	-10.7323
খ্রি	-10.7329
উই	-10.7332
▁প্রযোজ্য	-10.7336
▁হ্যাট্রিক	-10.7336
▁বিক্ষোভ	-10.7336
▁থমাস	-10.7336
▁বুঝানো	-10.7337
▁মসজিদে	-10.734
▁রাঙ্গামাটি	-10.734
২০০৮	-10.7341
▁জোয়ার	-10.7343
▁থিয়েটারে	-10.7345
▁ফক্স	-10.7345
▁বাণী	-10.7345
▁প্রসাদ	-10.735
▁দক্ষতার	-10.7353
▁ব্যক্ত	-10.7355
▁কর্মজীবনে	-10.7355
▁যিশু	-10.7357
▁স্টোন	-10.7359
▁২৫০	-10.7363
▁সংখ্যালঘু	-10.7365
▁অভ্যুত্থান	-10.7368
▁চেয়েও	-10.737
▁চ্যাম্পিয়নশিপে	-10.7371
▁ডঃ	-10.7374
পুত্র	-10.7375
▁এলিজাবেথ	-10.7376
▁প্রতিশ্রুতি	-10.7376
ry	-10.7383
▁বিনামূল্যে	-10.7383
▁মধ্যভাগে	-10.7383
="	-10.7386
▁ভবিষ্যতে	-10.7386
▁হিমালয়	-10.7394
▁জেট	-10.7395
▁রশ্মি	-10.7395
▁দ্গে	-10.7395
▁বাগ	-10.7396
▁লাইভ	-10.7396
ীত	-10.7409
▁ভয়াবহ	-10.7409
▁প্রতিযোগী	-10.7415
ব্যা	-10.7419
▁অ্যালান	-10.7424
বতী	-10.7425
কর্ম	-10.7426
▁সালমান	-10.7427
দিকে	-10.7427
িতা	-10.7436
ent	-10.7438
▁পদাতিক	-10.744
▁সম্মানে	-10.7441
ড়ে	-10.7441
২০১৩	-10.7444
▁বকর	-10.7445
▁দখলে	-10.7446
▁বাজেট	-10.7448
▁ব্যতিক্রম	-10.7454
▁স্কি	-10.7454
▁সার্ভার	-10.7456
▁অদ্যাবধি	-10.7458
▁ভূগর্ভস্থ	-10.7458
▁ক্রমশ	-10.7458
▁শের	-10.7458
ক্ষ	-10.7459
▁নাটোর	-10.7465
▁এটাই	-10.7467
গ্রন্থ	-10.7467
▁বিবাহিত	-10.747
▁অভি	-10.7473
কারি	-10.7473
▁উত্তরাধিকার	-10.7477
▁সপ্তাহের	-10.7478
▁সর্বকনিষ্ঠ	-10.7478
▁হয়তো	-10.7487
▁তেমনি	-10.7487
▁ডেথ	-10.7491
▁গ্যা	-10.7492
▁রেটিং	-10.7495
▁যেগুলি	-10.7498
▁বৈ	-10.7498
▁লক্ষ্মী	-10.7499
▁ব্রহ্মপুত্র	-10.7504
▁প্রজাপতি	-10.7506
▁মদ	-10.7508
▁শনাক্ত	-10.751
ইস	-10.7516
স্টিক	-10.7517
উস	-10.7518
ment	-10.7524
▁লেখাপড়া	-10.7524
▁চির	-10.7525
▁ক্যাপ	-10.7527
▁আণবিক	-10.7527
▁১৮৯৬	-10.7533
৮২	-10.7536
▁ট্রান্স	-10.754
▁হার্ভার্ড	-10.754
▁পূজার	-10.7541
▁পেরেছিলেন	-10.7541
▁রেখেছিলেন	-10.7543
▁রৌপ্য	-10.7544
▁উল্লেখিত	-10.7544
▁পরাজয়	-10.7546
▁কুষ্টিয়া	-10.7546
▁হতেন	-10.7549
▁১৯০৩	-10.755
▁চলচ্চিত্রটিতে	-10.7551
▁অসুস্থতা	-10.7552
িয়াল	-10.7554
▁বামহাতি	-10.7561
▁সম্পাদন	-10.7562
▁বাধ্যতামূলক	-10.7563
▁ক্ষমা	-10.7563
▁কুল	-10.7565
▁গুলোর	-10.7566
▁সম্মত	-10.7567
২০০৯	-10.7568
▁অনুদান	-10.7575
▁ছা	-10.7575
▁পরিপূর্ণ	-10.7577
▁সমাহিত	-10.7582
সং	-10.7584
▁অপেরা	-10.7584
▁ওলন্দাজ	-10.7587
▁সন	-10.7588
▁নিবাস	-10.759
▁ফাঁসি	-10.7594
▁মাউন্ট	-10.7595
▁প্যান	-10.7598
▁খু	-10.7599
▁লেগে	-10.76
▁মনোনিবেশ	-10.7602
▁উইকেটের	-10.7607
▁সেদিন	-10.7617
▁দৃষ্টিকোণ	-10.7623
▁পুনর্গঠন	-10.7624
▁বাড়িটি	-10.7625
▁গুটি	-10.7627
▁মালা	-10.7634
▁অ্যালবামের	-10.7636
▁কাঁটা	-10.7638
▁বলি	-10.7638
▁স্মরণে	-10.7639
▁সিনা	-10.7639
▁চার্জ	-10.7646
▁ভগবান	-10.765
▁গণিতবিদ	-10.7652
▁একটিমাত্র	-10.7653
▁মেঘনা	-10.7657
ব্রাহ্মণবাড়িয়া	-10.7657
কিং	-10.766
▁ইস্টার্ন	-10.7665
▁রোডের	-10.7666
▁উনি	-10.7667
▁মদিনা	-10.7674
▁নম্বরে	-10.7678
আমার	-10.7679
মধ্য	-10.7679
আরবি	-10.768
বর্ণ	-10.7681
স্বরূপ	-10.7682
▁শিলালিপি	-10.7682
▁জান	-10.7685
▁জিন্নাহ	-10.7686
▁সাদৃশ্য	-10.7686
▁আগষ্ট	-10.7687
উন	-10.7687
▁U	-10.7689
▁দফতর	-10.7689
নাল	-10.7689
▁আজীবন	-10.7692
▁সম্প্রচারিত	-10.7692
▁আইয়ুব	-10.7699
▁জঙ্গল	-10.7703
▁নাগরিকদের	-10.7705
▁সোসাইটির	-10.7706
sh	-10.7706
▁দাতব্য	-10.7707
▁কাজটি	-10.771
▁বান্দরবান	-10.7711
▁বিবর্তনের	-10.7713
▁জন্যও	-10.7714
▁সতর্ক	-10.7715
েন্দ্র	-10.7715
▁ক্ষেত্রেও	-10.7718
▁নিখুঁত	-10.773
▁দলিল	-10.7732
পাকিস্তান	-10.7737
▁পালা	-10.7742
▁জহির	-10.7749
▁ফিলিপাইন	-10.7751
রাস	-10.7751
▁প্রবর্তিত	-10.7751
▁হাঁস	-10.7756
▁স্কুলটি	-10.7757
▁মাসুদ	-10.7759
▁থাই	-10.776
▁কর্ণ	-10.7764
▁হাজির	-10.7767
▁করল	-10.7768
▁বরাদ্দ	-10.7769
▁লুকিয়ে	-10.777
িয়ন	-10.7772
▁খ্রিষ্টাব্দ	-10.7773
▁আলু	-10.7773
▁কারন	-10.7774
▁দূত	-10.7775
▁পররাষ্ট্র	-10.7776
▁ভ্রাতা	-10.7777
▁বাসায়	-10.7779
২০০৭	-10.7779
মিয়া	-10.7792
▁স্বাক্ষরিত	-10.7798
▁হাসিনা	-10.7801
২০১২	-10.7801
▁খ্রিষ্টান	-10.7802
▁দেবতার	-10.7807
র্থ	-10.7807
▁ওয়ে	-10.7809
শেস	-10.781
▁ডিজনি	-10.7813
▁বারবার	-10.7817
▁উপাচার্য	-10.7818
▁লাগানো	-10.782
োপ	-10.7822
▁গোটা	-10.7825
ুস	-10.7826
লিক	-10.783
▁ভারসাম্য	-10.7833
▁নিয়েছিল	-10.7836
▁ক্ষয়	-10.784
▁এটাকে	-10.7842
▁মরিস	-10.7849
িটি	-10.7849
▁সাপেক্ষে	-10.785
▁মহকুমার	-10.785
▁দূরত্বে	-10.7851
▁কিউ	-10.7852
▁পীর	-10.7857
▁কিশোরগঞ্জ	-10.7857
▁ত্রয়োদশ	-10.7858
▁ইন্দিরা	-10.7859
▁আবেগ	-10.786
▁দিল্লিতে	-10.787
▁জাহাজটি	-10.787
▁লুই	-10.7873
ine	-10.7874
তিন	-10.7875
▁পরিত্যক্ত	-10.7876
ত্	-10.7877
▁ধর্মগ্রন্থ	-10.7879
▁মাইক	-10.7883
▁১৪টি	-10.7884
জল	-10.7884
বর্গ	-10.7888
▁এভাবেই	-10.7888
▁সুন্দরী	-10.789
বের	-10.7892
▁হৃদয়	-10.7897
▁স্কটিশ	-10.7898
idae	-10.7899
াতে	-10.79
▁3	-10.7901
▁বনাম	-10.7902
▁বিষ্ণুর	-10.7902
▁প্রাইভেট	-10.7904
▁অলিম্পিকের	-10.7907
ন্ডি	-10.791
ক্ষেত্র	-10.791
▁শাস্ত্র	-10.7912
▁অনার্স	-10.7913
▁মারাত্মক	-10.7915
▁হরমোন	-10.7919
▁রিভিউ	-10.7919
▁ভূমির	-10.7919
▁কমিউনিটি	-10.792
▁প্রচেষ্টায়	-10.7924
▁স্বয়ং	-10.7925
▁ইসমাইল	-10.7927
গেন	-10.7929
▁নৌবাহিনী	-10.7933
▁নিরপেক্ষ	-10.7933
▁নিবন্ধন	-10.7935
▁প্রচারের	-10.7935
▁তখনও	-10.7936
▁বৈশিষ্ট্যের	-10.7941
▁পড়লে	-10.7941
▁ভঙ্গ	-10.7942
▁ভাগের	-10.7942
▁সমূহের	-10.7944
▁সাধারন	-10.795
▁ইহা	-10.7952
পল	-10.7952
▁মেরু	-10.7953
▁শঙ্কর	-10.7953
▁সন্ন্যাসী	-10.7955
▁লিস্ট	-10.7955
▁মাত্রায়	-10.7956
▁মহম্মদ	-10.7957
▁মালয়েশিয়ার	-10.7957
মোর	-10.7963
▁উইকিপিডিয়ায়	-10.7964
▁চরিত্রটি	-10.7965
নোর	-10.7966
▁গোয়া	-10.7966
▁প্রণালী	-10.7967
▁মেঘ	-10.7968
▁যান্ত্রিক	-10.7969
▁ম্যারি	-10.797
as	-10.797
▁অটো	-10.7974
▁ক্রমে	-10.798
▁ওপরে	-10.7981
ীকরণ	-10.7981
▁মারাঠা	-10.7983
▁ম্যাজিস্ট্রেট	-10.7983
▁অর্থের	-10.7984
▁মুক্তিবাহিনীর	-10.7987
▁ওভারে	-10.7988
▁গুন	-10.799
▁ইউরোপিয়ান	-10.7994
▁ড্রাইভ	-10.8
▁X	-10.8007
▁আসন্ন	-10.8007
▁লর্ডসে	-10.801
▁কলাম	-10.8011
▁পেলেও	-10.8011
পুরে	-10.8018
▁মানচিত্র	-10.802
▁পর্যটকদের	-10.8022
▁আলোকচিত্র	-10.8023
▁অঙ্কন	-10.8023
▁সুড়ঙ্গ	-10.8027
▁শিল্পীদের	-10.8032
▁গেমসের	-10.8033
▁গোলাকার	-10.8034
▁উপন্যাসে	-10.8035
▁কৌশলগত	-10.8036
▁বন্দি	-10.8038
▁বলেই	-10.8044
▁ক্লাবটি	-10.8045
▁মুন	-10.8048
▁একাধারে	-10.8048
▁যোদ্ধা	-10.8049
টায়	-10.8049
ca	-10.8051
▁এয়ারলাইন্স	-10.8051
▁সংস্পর্শে	-10.8054
ঙ্গি	-10.8057
ন্দ্র	-10.8059
▁ল্যাব	-10.8065
▁সংবিধানের	-10.8071
দিক	-10.8075
▁...	-10.8078
▁ফুটে	-10.8078
▁রন	-10.808
%)	-10.808
▁জয়ে	-10.8083
▁সমতুল্য	-10.8092
▁পদ্ম	-10.8093
de	-10.8095
▁ফ্যা	-10.8095
▁চিত্রশিল্পী	-10.8102
ভিন	-10.8109
▁ছোটগল্প	-10.8114
▁পরিনত	-10.8115
▁মৃতদেহ	-10.8115
▁কুকুর	-10.8121
ب	-10.8121
সাল	-10.8121
▁বিশ্বযুদ্ধে	-10.8124
▁মিলন	-10.8125
আন	-10.8127
▁সুরক্ষা	-10.8128
▁পশ্চিমবঙ্গে	-10.8131
▁সঠিকভাবে	-10.8134
▁পাল্টা	-10.8136
▁ছড়া	-10.8139
▁বিশ্বাসী	-10.814
▁রচনায়	-10.8142
▁্য	-10.8143
▁পত্নী	-10.8145
▁তালিকার	-10.8153
▁অধুনা	-10.8159
▁দেবে	-10.8161
▁বিএ	-10.8163
▁মিনি	-10.8165
▁পোপ	-10.8167
▁আগস্টে	-10.817
২০০৬	-10.8171
▁এইভাবে	-10.8175
▁পার্কে	-10.8176
▁স্থায়ীভাবে	-10.8177
▁মূল্যায়ন	-10.8182
▁হরিণ	-10.8184
▁১৮৯৮	-10.8194
▁শান্ত	-10.8194
▁দ্বিপাক্ষিক	-10.8201
▁সেলসিয়াস	-10.8202
▁পাঞ্জাবের	-10.8204
▁সোর্স	-10.8211
▁কিম	-10.8217
ol	-10.8219
▁পরিকল্পনার	-10.8219
▁প্রশাসনের	-10.8229
▁খন্ড	-10.8233
▁d	-10.8233
▁মধ্যম	-10.8236
▁বিধি	-10.8238
▁বিশ্বকোষ	-10.8238
্ত	-10.8239
▁উপভোগ	-10.824
ছড়ি	-10.824
▁চিন	-10.824
জ্ঞান	-10.824
▁আনেন	-10.8242
▁কর্মকর্তাদের	-10.8243
গণের	-10.8244
কাস	-10.8245
▁মুদ্রিত	-10.8246
▁সেনগুপ্ত	-10.8246
▁বোর	-10.825
▁সিটির	-10.8252
▁গাজীপুর	-10.8255
▁কীভাবে	-10.8257
▁প্যারা	-10.8265
সাঃ	-10.8267
২০০৪	-10.8268
▁সাঈদ	-10.8268
▁যুবরাজ	-10.827
▁পড়েছিল	-10.8275
▁নল	-10.8275
▁সিদ্ধ	-10.8277
▁পোষণ	-10.8277
▁ত্রিনিদাদ	-10.828
▁বিকাশের	-10.8283
▁দেড়	-10.8284
ক্রমে	-10.8284
ব্লো	-10.8285
▁প্রবাসী	-10.8285
▁ক্ষেত্রের	-10.8285
▁রাইফেল	-10.8287
▁সমাদৃত	-10.829
▁একীভূত	-10.829
▁চলাকালে	-10.8291
▁উইকিপিডিয়ার	-10.8292
▁পক্ষের	-10.8295
▁প্রকল্পে	-10.8298
▁বন্য	-10.8298
▁গোড়ার	-10.83
▁ক্যাডেট	-10.8301
▁লোকদের	-10.8303
▁উড	-10.8307
▁মৃত্যুদণ্ড	-10.8313
▁পাঠিয়ে	-10.8314
ওয়াই	-10.8314
▁উপপ্রজাতি	-10.8319
ডব্লিউ	-10.832
▁ফেব্রুয়ারিতে	-10.8321
▁ছোট্ট	-10.8325
▁মুদ্রণ	-10.8329
শিক্ষাপ্রতিষ্ঠান	-10.8332
ন্দি	-10.8333
▁ডো	-10.8336
▁মাতৃভাষা	-10.8336
▁ভীম	-10.8336
▁এলে	-10.8338
▁টুকরো	-10.8339
▁ক্রান্তীয়	-10.8339
▁সিরিজটি	-10.8342
কোট	-10.8342
▁জার্নাল	-10.8345
▁এসকল	-10.8348
▁বিশ্বাসের	-10.8351
▁শৈশবে	-10.8351
▁নক্ষত্র	-10.8353
াত	-10.8355
▁ওয়ার্ডের	-10.8356
▁অধ্যাপনা	-10.8361
▁মিনিটের	-10.8363
▁জার্মানিতে	-10.8365
▁ষড়যন্ত্র	-10.8369
▁১৮৯৭	-10.837
▁ছাপা	-10.8375
▁সন্তানদের	-10.8375
▁৯৯	-10.8375
িয়াস	-10.8377
▁অ্যাপ্লিকেশন	-10.8379
▁উপাধিধারী	-10.838
▁মাদক	-10.8381
▁যাই	-10.8382
▁কার্তিক	-10.8384
▁বিবি	-10.8388
▁জুনে	-10.8395
ধর	-10.8397
▁দূর্বল	-10.8398
▁আয়ারল্যান্ডের	-10.8399
▁পাত	-10.84
▁জটিলতা	-10.8401
নির	-10.8401
▁অণুযায়ী	-10.8402
▁শুটিং	-10.8403
▁শতকরা	-10.8405
▁১৬টি	-10.8406
▁ধারণাটি	-10.841
▁অ্যাকশন	-10.8413
য়ি	-10.8417
▁৮৭	-10.8418
াব্দে	-10.8419
▁নাটকীয়	-10.8419
▁টেলিভিশনের	-10.8421
▁ভোলা	-10.8424
▁জম্মু	-10.8425
▁আবাসস্থল	-10.8426
▁শ্রেণির	-10.8429
▁অভিনেতার	-10.843
তাই	-10.8432
▁ওভালে	-10.8432
▁জামাল	-10.8434
▁উপভাষা	-10.8434
▁জ্বর	-10.8436
▁গাছে	-10.8439
▁ইভেন্টে	-10.844
▁পিঠে	-10.844
▁যথাযথ	-10.8441
▁পর্দায়	-10.8443
6	-10.8443
▁ভৌত	-10.8445
▁যাচাই	-10.8445
▁প্রধানমন্ত্রীর	-10.8446
▁প্রতিফলিত	-10.8447
▁ভূগোল	-10.8448
▁ব্য	-10.8452
▁রাশি	-10.8453
▁মিন	-10.8456
▁প্রয়োজনীয়তা	-10.8457
▁গোপনে	-10.8458
▁হলোঃ	-10.8459
টের	-10.8459
▁সাহসী	-10.846
▁পঞ্চাশ	-10.8461
▁ক্রা	-10.8464
▁বিস্ফোরণ	-10.8464
২০০৫	-10.8469
▁লেখিকা	-10.847
বড়	-10.8473
▁তেলুগু	-10.8474
ce	-10.8475
▁উপনিষদ্	-10.8475
▁রাইট	-10.8476
কথা	-10.8476
▁চ্যাম্পিয়নস	-10.8478
▁৯ম	-10.8487
▁সুন্নি	-10.8487
▁দ্বীপপুঞ্জের	-10.8489
▁ডেভেলপমেন্ট	-10.8492
▁সুরক্ষিত	-10.8493
▁পরগণা	-10.8494
ল্ট	-10.8494
▁অ্যাসিড	-10.8495
▁কাউকে	-10.8498
উপ	-10.8498
▁পরিমান	-10.8499
▁জার্সি	-10.85
▁م	-10.8503
▁এরূপ	-10.8503
▁সনদ	-10.8505
▁মোটর	-10.8507
▁রেজিমেন্ট	-10.8508
২০১৪	-10.8509
▁সভাপতির	-10.8512
▁ব্রা	-10.8516
▁ফলস্বরূপ	-10.8516
বাহী	-10.8517
▁ঋতু	-10.8518
▁কামান	-10.8522
▁আখ্যা	-10.8523
ানু	-10.8524
খ্যাতনামা	-10.8525
▁সাধক	-10.8526
▁সম্মুখ	-10.8526
▁এসোসিয়েশন	-10.8527
▁পূর্বপুরুষ	-10.853
▁রাজাদের	-10.8532
▁অংশীদার	-10.8538
▁অর্থনীতিবিদ	-10.8538
▁হস্তক্ষেপ	-10.8539
সেস	-10.8539
▁খাত	-10.8541
▁পদবী	-10.8542
▁দিল্লী	-10.8543
▁পরীক্ষামূলক	-10.8545
▁আটকে	-10.8546
মির	-10.855
▁ক্লার্ক	-10.855
▁বন্ড	-10.8556
▁মণ্ডল	-10.8559
ti	-10.856
▁ফায়ার	-10.8565
▁প্রত্নতত্ত্ব	-10.8569
▁দেশটিতে	-10.857
▁বসুর	-10.8572
▁n	-10.8573
▁অবিভক্ত	-10.8584
▁পাঠায়	-10.8586
▁উত্তরপ্রদেশ	-10.8586
▁পাতলা	-10.8589
▁ডিপ্লোমা	-10.8589
▁মোটা	-10.859
কোষ	-10.859
▁অরণ্য	-10.8591
৩০০	-10.8594
বর্তী	-10.8595
ুক	-10.8598
▁চাচা	-10.86
▁সন্ধি	-10.8602
▁ক্রীড়াবিদ	-10.8603
২০১৫	-10.8605
▁আজম	-10.8606
▁ভিটামিন	-10.8607
▁জিলা	-10.8607
▁বাষ্প	-10.8608
▁সার্বজনীন	-10.8609
▁ফো	-10.8612
▁বিষ্ণুপুর	-10.8616
ুল্লাহ	-10.8618
▁সময়কার	-10.8618
▁সেক্টরের	-10.862
▁গ্রীষ্মে	-10.862
▁সনাক্ত	-10.8622
▁মহাভারত	-10.8622
▁ডিসি	-10.8628
▁গম	-10.8629
▁প্রতিফলন	-10.8629
▁মেডিসিন	-10.863
▁বিচরণ	-10.8631
টেক	-10.8631
▁একসঙ্গে	-10.8634
▁কৃষ্ণের	-10.8635
▁রাজতন্ত্র	-10.864
লোক	-10.8646
▁টেবিল	-10.8646
▁প্রযোজিত	-10.8653
▁পরাজয়ের	-10.8653
▁আলীর	-10.8653
▁ইয়ো	-10.8657
শিল্প	-10.8658
▁জনবহুল	-10.8658
মাত্র	-10.8659
▁ফুটিয়ে	-10.866
▁বিল্ডিং	-10.8661
▁অনুপ্রেরণা	-10.8664
অর্থাৎ	-10.8667
▁রিও	-10.8669
▁বৈশাখ	-10.8676
▁অধিবাসীদের	-10.8678
▁বস	-10.8679
▁ভন	-10.8681
▁আজকে	-10.8681
ফর	-10.8681
থে	-10.8685
▁১৫ই	-10.8685
▁নানান	-10.8685
ত্য	-10.8686
▁শোষণ	-10.8687
▁১৮৯৫	-10.8687
▁বানান	-10.8688
▁মিশরে	-10.8694
দ্বয়	-10.8694
▁not	-10.8695
▁আইনি	-10.8696
▁মহাকাব্য	-10.8697
▁দাশগুপ্ত	-10.8699
▁ইন্টারফেস	-10.8699
▁দেশগুলোর	-10.87
▁ফেডারেল	-10.8701
▁চলা	-10.8702
▁কোর	-10.8702
ল্লি	-10.8708
▁পরিবহনের	-10.8708
▁শ্রমিকদের	-10.871
থু	-10.871
▁গাই	-10.8711
করা	-10.8712
▁পরিগণিত	-10.8722
▁প্রতিশোধ	-10.8722
শ্	-10.8725
স্তি	-10.8727
▁হায়দার	-10.8729
▁ঝড়	-10.8729
▁পলিটেকনিক	-10.8731
▁লিপির	-10.8731
▁ফার্স্ট	-10.8734
▁সেক্টর	-10.8735
দুটি	-10.8736
▁সম্প্রসারিত	-10.8745
▁সুপ্রিম	-10.8745
য়েড	-10.8746
▁সঙ্গীতশিল্পী	-10.8747
নারী	-10.8749
▁কাছেই	-10.8749
▁শিক্ষার্থীরা	-10.8749
▁ঘ	-10.8749
▁মুগ্ধ	-10.8751
▁ট্রেনিং	-10.8751
▁মোহন	-10.8757
▁কাট	-10.8757
▁তল	-10.8758
▁চাঁদের	-10.8763
▁অফিসিয়াল	-10.8764
▁কাদের	-10.8765
▁পল্লী	-10.8765
▁সাসেক্স	-10.8769
▁তিমুর	-10.8769
lo	-10.877
▁বাঁশ	-10.8771
▁বৌদ্ধবিহারে	-10.8774
▁কোষের	-10.8775
গতভাবে	-10.8777
▁রকেট	-10.8779
▁শীত	-10.8779
বুক	-10.8783
▁সিটিতে	-10.8783
যোগ	-10.8786
▁নিরাপত্তার	-10.8788
_	-10.8794
▁কেরালা	-10.8798
▁তথ্যের	-10.8799
▁রবীন্দ্রনাথের	-10.88
▁প্লেট	-10.8802
ঠ	-10.8803
▁জঙ্গলে	-10.8803
▁লিন	-10.8804
▁সেনের	-10.8805
ার্ড	-10.8805
▁ডিস্ক	-10.8806
▁কেপ	-10.8808
▁বিবৃতি	-10.8809
co	-10.8809
ক্ষেত্রে	-10.8816
ট্রা	-10.8821
▁রাশিয়ায়	-10.8822
ঙ্গার	-10.8822
▁ঢুকে	-10.8823
▁মেয়াদ	-10.8826
▁মহারাজা	-10.8833
▁রক্ষণশীল	-10.8834
▁ব্র্যান্ড	-10.8835
ডন	-10.8835
▁কফি	-10.8835
টিই	-10.8836
্যান্ট	-10.8838
▁কার্টুন	-10.8839
▁জরুরি	-10.8839
মাতা	-10.884
▁নামীয়	-10.8841
▁হুমায়ুন	-10.8842
▁বৃষ্টির	-10.8842
la	-10.8849
▁ঐতিহ্যের	-10.8853
▁পুরুলিয়া	-10.8863
▁পৌঁছায়	-10.8865
▁৮৯	-10.8867
▁পরেও	-10.8868
▁খাতে	-10.887
খানা	-10.8871
▁জিতেছেন	-10.8874
▁মুর্শিদাবাদ	-10.8877
▁জেনে	-10.8879
▁আয়ন	-10.888
▁রত্ন	-10.8881
রাত	-10.8882
▁মাতৃ	-10.8882
▁উপদ্বীপ	-10.8883
▁ঘটনাটি	-10.8885
▁অনন্ত	-10.8885
কিন্তু	-10.8887
▁সর	-10.8888
▁নির্যাতনের	-10.8891
▁পিছু	-10.8891
▁গান্ধীর	-10.8893
▁৯৮	-10.8893
▁আর্দ্র	-10.8895
▁বার্সেলোনার	-10.8898
▁নিজাম	-10.8898
▁গজ	-10.8899
▁ওমর	-10.8901
▁স্টাফ	-10.8901
বির	-10.8903
ভান	-10.8905
▁উবুন্টু	-10.891
▁দাঁড়	-10.891
▁জাহাঙ্গীর	-10.8912
▁নারায়ণগঞ্জ	-10.8912
▁বিভব	-10.8913
▁ক্ষেপণাস্ত্র	-10.8914
▁ফেলো	-10.8915
▁দেওয়ান	-10.8917
▁সংগে	-10.8917
▁বেশিরভাগই	-10.8922
▁গঠনে	-10.8923
▁কার্যক্রমের	-10.8924
▁বিদেশ	-10.8924
উদ্দীন	-10.8925
▁প্রেমে	-10.893
▁কিছুকাল	-10.893
▁প্রত্যাবর্তন	-10.893
▁পাশা	-10.8932
গেট	-10.8933
▁লামার	-10.8933
▁ক্ষয়ক্ষতি	-10.8933
▁আব্দুল্লাহ	-10.8933
▁বাতাস	-10.8935
গ্রুব	-10.8936
▁প্রা	-10.8941
▁বনু	-10.8944
▁কোণ	-10.8951
▁ব্যবসার	-10.8953
চরণ	-10.8954
▁তিনিও	-10.8957
▁আসনটি	-10.8957
▁প্রতিস্থাপিত	-10.8958
▁সহকর্মী	-10.8959
▁অস্পষ্ট	-10.8961
▁একপ্রকার	-10.8965
লির	-10.8974
ুদ্দিন	-10.8975
▁এদেশে	-10.8976
▁নাটকটি	-10.8978
তেন	-10.8979
▁স্থগিত	-10.8981
▁উপমহাদেশে	-10.8981
▁গলা	-10.8983
▁চালাতে	-10.8985
▁নিকোলাস	-10.8987
ad	-10.8993
ইং	-10.8996
▁মূর্তিটি	-10.9001
▁মিলার	-10.9002
▁মিমি	-10.9004
মার্কিন	-10.9006
▁ড্যানিয়েল	-10.9009
▁অঙ্কিত	-10.9009
জিয়া	-10.9013
”।	-10.9013
▁বেদান্ত	-10.9013
▁ইসরায়েলের	-10.9014
প্যা	-10.902
▁অা	-10.902
▁জাহাজে	-10.9021
▁পরদিন	-10.9024
▁কাহিনীর	-10.9025
▁সহযোগে	-10.903
▁কোথায়	-10.903
▁লালচে	-10.9033
স্তান	-10.9034
ers	-10.9034
▁মেসি	-10.9042
▁বিধবা	-10.9044
ut	-10.9047
ষা	-10.9048
▁পেন	-10.9052
▁বয়	-10.9053
মন্ত্রী	-10.9056
▁নীলফামারী	-10.9057
চক্র	-10.906
▁গণিতের	-10.9067
▁মর	-10.9067
গ্রাগ্স	-10.907
▁আপনার	-10.9071
▁বাদ্যযন্ত্র	-10.9075
ঙ্গো	-10.9078
▁৮০০	-10.9078
▁য	-10.9079
▁একা	-10.9081
▁ছাপ	-10.9083
▁সিরাজগঞ্জ	-10.9083
▁অভিনেত্রীর	-10.9083
▁রোগীর	-10.9089
▁শিকারী	-10.909
▁আর্মেনীয়	-10.9091
▁উচ্চতার	-10.9091
ব্রা	-10.9092
▁বন্দুক	-10.9095
▁ফেলতে	-10.9098
▁মেলবোর্ন	-10.9098
▁রাসেল	-10.9098
▁স্বত্ত্বেও	-10.9101
▁নিচু	-10.9103
▁ব্যাটসম্যানের	-10.9104
▁খ্রিষ্টপূর্ব	-10.9107
▁দুর্গাপুর	-10.9108
▁শুকনো	-10.9125
▁১৮৮০	-10.9126
▁কনিষ্ঠ	-10.9126
শিস	-10.9129
▁বিজ্ঞানে	-10.9132
▁গ্রিন	-10.9133
▁মনের	-10.9133
▁এজেন্ট	-10.9135
▁কালাম	-10.914
রেল	-10.9141
মনি	-10.9142
▁অধিবেশনে	-10.9142
▁বীমা	-10.9143
▁সঙ্গীতে	-10.9148
▁অথচ	-10.9149
▁অবনতি	-10.9151
▁বোনের	-10.9153
▁মহাসাগরীয়	-10.9154
▁ডিস	-10.9155
▁সাংবিধানিক	-10.9156
▁মাইন	-10.9158
▁ডাকে	-10.9158
ha	-10.9159
▁ঘূর্ণিঝড়	-10.9159
▁প্রমান	-10.9165
▁বাণিজ্যিকভাবে	-10.9171
▁লরেন্স	-10.9171
6%	-10.9172
▁ইনি	-10.9172
▁বাৎসরিক	-10.9173
▁হেড	-10.9174
7	-10.9181
রিক	-10.9183
▁এমনভাবে	-10.9184
▁নাসির	-10.9194
▁রবিন	-10.9194
▁পরিত্যাগ	-10.9198
▁সমভূমি	-10.92
▁প্রযুক্তিগত	-10.92
চ্ছ	-10.9201
▁বঙ্গীয়	-10.9203
▁মাদ্রাজ	-10.9204
▁চেতনা	-10.9207
▁টেনে	-10.9207
সাম	-10.9209
▁বুদ্ধিজীবী	-10.9209
▁ব্যবহারকারীদের	-10.9215
▁প্রস্তর	-10.9216
ীতে	-10.9216
পান	-10.9217
▁নিম্নে	-10.922
▁করেই	-10.9222
▁ক্ষতিকর	-10.9224
▁which	-10.9224
▁রিজার্ভ	-10.9225
▁ব্যবহারিক	-10.9225
▁সচেতন	-10.9228
▁প্রতিযোগিতাটি	-10.923
▁গ্যাসের	-10.9232
▁বরণ	-10.9233
মূর্তি	-10.9233
▁ওয়াট	-10.9234
▁দুর্ঘটনা	-10.9235
▁কাঠামোর	-10.9238
▁জিতেছে	-10.9238
▁সুস্পষ্ট	-10.9239
▁করেন৷	-10.9242
▁সার্বিক	-10.9243
▁অনুষ্ঠানটি	-10.9245
os	-10.9245
▁চো	-10.9246
▁সুনামগঞ্জ	-10.9251
▁জানার	-10.9253
▁পারা	-10.9254
▁৯১	-10.9255
শত	-10.9258
▁নাট্যধর্মী	-10.9258
▁al	-10.9259
পন্থী	-10.9259
্নী	-10.926
▁ধরণ	-10.9261
▁দর্শনীয়	-10.9263
িরা	-10.9264
ানা	-10.9266
se	-10.9266
▁জিয়াউ	-10.9267
▁স্টিভ	-10.9267
▁মিশিয়ে	-10.9271
মতে	-10.9271
▁নাথ	-10.9272
▁চেয়ার	-10.9273
▁শাল	-10.9275
▁মুলত	-10.9276
▁হারান	-10.9276
▁নাগরিকত্ব	-10.9277
▁পতাকার	-10.9279
পের	-10.9281
সূচক	-10.9283
▁১৮৮৮	-10.9286
দেশীয়	-10.9286
▁কুয়েত	-10.929
ভূক্ত	-10.9292
▁শাহের	-10.9294
▁জরুরী	-10.9296
▁আলাউদ্দিন	-10.9296
▁আলফ্রেড	-10.9297
▁স্বীকৃতিস্বরূপ	-10.9297
▁উপত্যকার	-10.9299
▁সপ্তদশ	-10.93
▁উন্নয়নশীল	-10.93
▁দূরবর্তী	-10.9301
am	-10.9302
▁ধর্মাবলম্বী	-10.9303
টিও	-10.9308
▁চাকমা	-10.9308
▁*	-10.9309
খালি	-10.9311
▁বনাঞ্চল	-10.9314
▁অ্যান্ড্রু	-10.9314
▁ম্যানেজমেন্ট	-10.932
▁নির্গত	-10.9321
▁গ্রামগুলো	-10.9321
▁ট্রি	-10.9323
ist	-10.9324
▁কিংস	-10.9326
▁গর্ত	-10.9328
▁বৈচিত্র্য	-10.9333
▁দলগুলো	-10.9335
মৃত্যু	-10.9339
▁বৈশিষ্ট	-10.934
▁ডেকে	-10.9341
▁ফয়সাল	-10.9343
▁বিবেচনায়	-10.9343
পাউবো	-10.9345
▁ছাড়িয়ে	-10.9345
▁প্রশিক্ষক	-10.9346
▁সাতক্ষীরা	-10.9348
▁রাগবি	-10.935
▁অস্বাভাবিক	-10.935
▁জাত	-10.9351
ানি	-10.9354
▁গুহা	-10.9357
▁সমালোচনার	-10.9361
▁Re	-10.9361
সিটি	-10.9363
▁স্কটল্যান্ড	-10.9365
▁চাইলে	-10.9366
▁সীমান্তের	-10.9366
▁কোচবিহার	-10.937
▁মহাত্মা	-10.9373
▁ব্যাচেলর	-10.9373
▁সহিত	-10.9378
▁গুয়াহাটি	-10.9379
▁হিব্রু	-10.9379
ভিল	-10.9382
▁পৃষ্ঠ	-10.9391
▁রিপাবলিক	-10.9392
চক	-10.9393
▁অ্যাট	-10.9394
▁পুনর্নির্মাণ	-10.9395
নামা	-10.9395
▁যুগ্ম	-10.9396
▁পছন্দের	-10.9396
▁উপরন্তু	-10.9397
▁যোগান	-10.94
▁ব্রত	-10.9403
▁জামালপুর	-10.9404
খণ্ড	-10.9406
েশ্বরী	-10.9409
ব্র	-10.9411
▁ভৈরব	-10.9411
▁সুই	-10.9412
▁সৈকত	-10.9417
▁সর্পিলাকার	-10.9419
X	-10.9422
ফের	-10.9425
▁রোডে	-10.9428
▁রানওয়ে	-10.9428
▁প্রস্তাবনা	-10.9433
নীল	-10.9434
▁গ্রাউন্ডে	-10.944
▁ফিট	-10.9444
▁দাশ	-10.9447
▁স্বর	-10.9449
▁m	-10.9449
▁কাক	-10.9451
▁18	-10.9454
▁ম্যাগাজিনের	-10.9456
হারা	-10.9457
▁ক্রু	-10.9459
ঘা	-10.946
▁উন্নতির	-10.9465
ীয়া	-10.9468
▁আব্দুর	-10.947
▁সমান্তরাল	-10.947
"),	-10.9471
▁ফিল	-10.9475
▁হার্ড	-10.9477
▁১৩টি	-10.9479
▁থা	-10.948
▁সিদ্ধান্তে	-10.9481
▁পুল	-10.9485
▁ত্রিশ	-10.9487
ৰ্	-10.949
▁৯৬	-10.9494
▁প্রণীত	-10.9494
▁ইতিমধ্যে	-10.9496
▁নওগাঁ	-10.9497
▁হিম	-10.95
man	-10.95
▁জাহান	-10.9501
▁গিটার	-10.9503
▁বিজনেস	-10.9503
▁সাময়িকী	-10.9504
▁নদের	-10.9507
▁মিশনের	-10.9508
▁জেতেন	-10.951
▁দীর্ঘতম	-10.9511
▁অপরাধের	-10.9512
▁আগমনের	-10.9513
▁হুমকির	-10.9516
▁জাদু	-10.9516
at	-10.9516
▁নামাঙ্কিত	-10.9519
▁নির্	-10.9521
▁প্রদানকারী	-10.9521
▁আস্তে	-10.9521
হল	-10.9525
▁কমই	-10.9527
▁নথি	-10.9527
▁সনি	-10.9531
▁বাল	-10.9536
▁বুকে	-10.9538
▁পুরু	-10.9542
▁রেখেছিল	-10.9544
▁পালনের	-10.9546
▁ভাষাটি	-10.9546
▁সুবাদে	-10.9548
▁হলঃ	-10.9551
▁ডক	-10.9552
▁ট্রাক	-10.9567
▁নির্বাচকমণ্ডলী	-10.957
▁টেলিফোন	-10.957
op	-10.957
▁সেতুটি	-10.958
▁আচরণের	-10.9585
▁৯৩	-10.9586
▁it	-10.9586
▁কার্	-10.9591
▁ক্রিকেটারের	-10.9594
▁দৈনন্দিন	-10.9595
▁পুনর্নির্ধারণ	-10.9595
▁সমালোচিত	-10.9595
▁ক্যাম্পাসে	-10.9597
▁ছেলেদের	-10.9598
▁প্রারম্ভিক	-10.9599
স্বাধীনতা	-10.96
▁হিটলার	-10.96
▁কেইন	-10.9602
▁গতিতে	-10.9606
▁জাম	-10.9607
▁মিশে	-10.9609
শিল্পী	-10.961
▁বাহক	-10.9613
▁l	-10.9616
▁পৃষ্ঠপোষক	-10.9618
▁কাঁচা	-10.9618
]],	-10.962
▁বিষাক্ত	-10.9621
▁দ্বিগুণ	-10.9621
▁পদের	-10.9622
২০০৩	-10.9624
▁নথিভুক্ত	-10.9624
▁কখনোই	-10.9625
▁তাইওয়ান	-10.9625
▁ট্যাগ	-10.9626
করন	-10.9626
▁ক্রো	-10.9628
▁আশ্রম	-10.963
▁স্থাপত্যের	-10.9631
▁ট্রাস্ট	-10.9631
▁টিন	-10.9634
▁আর্থ	-10.9635
▁১৮৯২	-10.9636
▁নাকি	-10.9636
খু	-10.9641
▁রাধা	-10.9643
▁পাশেই	-10.9645
ভাব	-10.9646
▁ডেনিস	-10.9648
▁সকলেই	-10.9649
▁কেন্টের	-10.9652
▁লোহিত	-10.9653
▁রোল	-10.9657
▁অ্যাপল	-10.9659
▁মহাবিশ্ব	-10.9659
প্রকাশ	-10.9662
▁জেরুজালেম	-10.9664
▁গ্রুপে	-10.9667
চাঁদ	-10.967
ৎস	-10.9671
▁গাড়ির	-10.9671
▁মুখার্জী	-10.9672
▁সাধু	-10.9676
▁সবজি	-10.9677
▁উপনীত	-10.9679
▁দলগুলোর	-10.9679
▁লড়াইয়ে	-10.968
▁সেতুর	-10.9682
▁মেন	-10.9688
▁কেনিয়া	-10.9689
▁বন্ধনী	-10.9691
▁আগা	-10.9695
▁দেখিয়ে	-10.9696
▁ডাইনোসর	-10.97
▁অন্ধকার	-10.97
▁আড়াই	-10.97
▁পরস্পরের	-10.97
▁দ্	-10.97
▁মাইক্রো	-10.9701
▁চতুর্দশ	-10.9702
সির	-10.9703
▁১৫টি	-10.9703
▁আবি	-10.9709
দুর	-10.9709
▁মণি	-10.971
▁বন্দরে	-10.9716
▁সমারসেট	-10.9723
▁আলবার্ট	-10.9727
▁ব্র	-10.9727
দ্যা	-10.973
ity	-10.973
সালে	-10.9731
▁রেশম	-10.9735
▁সাইকেল	-10.9737
▁আহসান	-10.9748
▁লোকাল	-10.975
▁পুর	-10.9757
▁তোমরা	-10.9758
▁ছায়াপথ	-10.976
▁কাউন্টির	-10.9763
▁সন্ধ্যা	-10.9767
▁ভিক্ষু	-10.9769
▁স্পিনার	-10.977
▁অনেকটাই	-10.9773
▁ইভেন্ট	-10.9773
▁ভক্তি	-10.9774
ci	-10.9775
▁সার্বভৌম	-10.9775
▁অডিও	-10.9776
▁পিসি	-10.9778
▁বর্জ্য	-10.9779
▁সমুদ্রপৃষ্ঠ	-10.978
▁অন্যদের	-10.9783
▁বয়সেই	-10.9786
হরি	-10.9794
▁টুর্নামেন্টে	-10.9795
▁ভিন্নতা	-10.9796
▁অভ্যাস	-10.9801
▁পাণ্ডুলিপি	-10.9801
ক্ত	-10.9802
▁ঢাল	-10.9803
স্প	-10.9803
তন্ত্র	-10.9804
▁বসানো	-10.9806
▁ইয়র্কশায়ার	-10.9806
▁ইয়ং	-10.9809
▁পিতামহ	-10.9809
▁মাদ্রিদের	-10.9809
▁কথায়	-10.9811
▁সুবিধার	-10.9811
ফাইনালে	-10.9812
গ্লিং	-10.9814
▁এড়িয়ে	-10.9815
▁কাতার	-10.9816
িংয়ের	-10.9818
▁ফুটবলের	-10.9819
▁নেহেরু	-10.9826
▁সদরদপ্তর	-10.9826
▁চ্যানেলটি	-10.9827
▁ফুটবলে	-10.9827
▁শাক	-10.9828
▁শৃঙ্গ	-10.983
ism	-10.9836
▁অ্যালবামটি	-10.9838
অব	-10.9841
▁গণতন্ত্র	-10.9841
▁দায়	-10.9842
পশ্চিমাঞ্চল	-10.9844
▁লাওস	-10.9844
?"	-10.985
▁মেরামত	-10.9852
াহ	-10.9855
▁ন্যূনতম	-10.9855
▁ইহুদী	-10.9855
▁পরিকল্পিত	-10.9855
▁দৈত্য	-10.9857
▁ট্রেনটি	-10.9858
▁গল্পে	-10.9861
ভাল	-10.9864
▁৩০০টি	-10.9865
্ম	-10.9867
▁ব্যাঙ্ক	-10.9869
রুপ	-10.9873
▁তীর্থ	-10.9874
▁আক	-10.9875
▁পোকা	-10.9875
▁কল্প	-10.9875
8	-10.9878
▁ইয়ে	-10.9883
ক্ষণ	-10.9885
▁শ্লোক	-10.9885
▁গন্ধ	-10.9886
▁জন্মে	-10.9886
২০০২	-10.9888
▁একধরনে	-10.9889
▁ইজ	-10.989
▁সাংবাদিকতা	-10.9893
▁২০টি	-10.9894
▁হিন্দুধর্মের	-10.9902
▁গর্ভে	-10.9902
▁ওয়াল্টার	-10.9903
▁উদ্বুদ্ধ	-10.9904
স্কো	-10.9904
▁তেলেগু	-10.9908
▁তুলা	-10.9909
যান	-10.9909
▁জ্যোতি	-10.9911
▁বোস	-10.9911
▁আত্মার	-10.9913
▁ভেবে	-10.9915
▁৭০০	-10.9917
কোর	-10.992
▁মল্লিক	-10.9921
▁পুত্রের	-10.9921
িংটন	-10.9922
ভেল	-10.9923
াক	-10.9926
▁শ্রেণিতে	-10.9929
▁মুম্বই	-10.993
▁অনূদিত	-10.993
▁যাবতীয়	-10.9932
▁জাতের	-10.9934
োয়া	-10.9936
▁সাক্ষাত	-10.9936
▁কৌতুক	-10.9938
▁ক্যাম্পে	-10.9939
▁কলম্বিয়া	-10.994
▁ফিলিস্তিনি	-10.9947
▁ধ্রুবক	-10.9949
▁ডেল	-10.9951
▁পৌছে	-10.9953
▁ঐতিহ্যগত	-10.9953
▁আলোচনায়	-10.9955
ীরা	-10.9956
▁উইন	-10.9956
▁ডেস্কটপ	-10.9957
▁ঠান্ডা	-10.9957
সেকেন্ড	-10.9957
▁দায়ে	-10.9958
▁স্টুয়ার্ট	-10.9959
▁শাসকদের	-10.9959
▁তাপমাত্রার	-10.996
▁গুলিতে	-10.9968
▁নিয়ন্ত্রণের	-10.9968
▁বোম্বে	-10.9974
▁সাময়িক	-10.9977
ian	-10.9977
গুন	-10.9979
ru	-10.9979
ব্যাক	-10.998
▁কষ্ট	-10.9981
▁ব্যাটম্যান	-10.9982
▁পরিপ্রেক্ষিতে	-10.9983
▁আহরণ	-10.9983
▁নিক	-10.9984
▁পৌছায়	-10.9986
▁উড়ে	-10.9986
▁নিউক্লিয়াস	-10.9986
▁অভিজ্ঞ	-10.9988
▁আহমেদের	-10.9989
▁অন্যটি	-10.999
ক্রম	-10.999
্টি	-10.9994
▁চলার	-10.9994
▁অনুরোধে	-10.9997
▁‘‘	-10.9997
▁উমাইয়া	-10.9998
▁ধনেশ	-10.9999
▁ফ্রেড	-11.0004
ান্ত	-11.0005
ছড়া	-11.0007
াব	-11.0011
▁নুরুল	-11.0011
মারা	-11.0012
▁নগ্ন	-11.0014
▁মালদ্বীপের	-11.0022
▁পাহাড়ে	-11.0025
▁মালদ্বীপ	-11.0029
▁ইঞ্জিনিয়ার	-11.003
▁স্বর্গ	-11.003
▁সদস্যপদ	-11.0032
▁স্কটল্যান্ডের	-11.0033
the	-11.0033
▁অধি	-11.0035
▁মডেলিং	-11.0036
▁সমঝোতা	-11.0036
▁ব্যুরো	-11.0036
▁জোড়	-11.0038
▁কোম্পানিটি	-11.0039
▁হবিগঞ্জ	-11.0039
▁আসাদ	-11.004
و	-11.004
▁অদ্ভুত	-11.0041
▁বিরতি	-11.0042
▁নেটওয়ার্কের	-11.0044
om	-11.0044
▁চারদিকে	-11.0047
▁মুজিব	-11.0047
▁করেছিলো	-11.0047
▁খাওয়ার	-11.0047
▁মাগুরা	-11.0048
▁কাব্যগ্রন্থ	-11.0049
ত্তি	-11.0051
▁সংগীতের	-11.0053
▁সাগরে	-11.0055
প্রো	-11.0057
://	-11.0062
দ্বীপ	-11.0063
▁হাদীস	-11.0063
দ্জিন	-11.0063
▁আইফোন	-11.0063
▁পরিস্থিতির	-11.0066
▁দুর্ভিক্ষ	-11.0066
▁খণ্ডে	-11.0068
▁দীক্ষা	-11.007
▁ডিপার্টমেন্ট	-11.007
▁গ্রীষ্মকালে	-11.0073
কিয়া	-11.0077
▁মনোভাব	-11.0077
▁সিংহাসন	-11.0079
▁রোবট	-11.0079
▁মিউনিখ	-11.0087
দর্শন	-11.0088
▁হিন্দ	-11.0089
▁বাহ্যিক	-11.0089
▁স্টিফেন	-11.0089
▁রক্তের	-11.0089
▁নীতিমালা	-11.0098
▁এড	-11.0098
▁পোল্যান্ড	-11.01
▁কুমারী	-11.0103
▁এএফসি	-11.0108
▁ইরানি	-11.0111
▁সন্ত্রাসী	-11.0112
▁দ্বার	-11.0115
▁এজেন্সি	-11.0116
▁হার্ডি	-11.0116
▁দফা	-11.0116
▁বীরভূম	-11.0121
▁ধারাবাহিকের	-11.0121
▁বদর	-11.0123
▁e	-11.0123
িভ	-11.0124
▁চেহারা	-11.0124
▁নিবন্ধিত	-11.0124
▁মার্কেট	-11.0125
মিক	-11.0127
▁মেধা	-11.0129
▁সমর্থিত	-11.013
▁সাফ	-11.0132
জ্ঞ	-11.0132
▁বিচিত্র	-11.0135
পাস	-11.0138
and	-11.0139
▁জন্মস্থান	-11.014
পর্যন্ত	-11.014
▁লাইনটি	-11.014
▁তাপমাত্রায়	-11.0141
▁স্বাধীনভাবে	-11.0142
▁ইং	-11.0143
▁বিলি	-11.0143
খে	-11.0145
▁চ্যাম্পিয়ন্স	-11.0148
্টার	-11.0148
্যু	-11.015
ল্যা	-11.0153
ক্রি	-11.0156
▁দাউদ	-11.0158
▁নিন্দা	-11.0159
▁গানটির	-11.016
চো	-11.016
▁১৮৯৪	-11.016
ভের	-11.0161
▁অত্যাচার	-11.0164
▁গার্লস	-11.0165
▁প্রয়োগের	-11.0165
▁জলাশয়	-11.0167
▁চাপা	-11.0167
▁বইতে	-11.0168
▁মেট্রোপলিটন	-11.0169
▁লালন	-11.0169
▁ফারুক	-11.0172
▁স্পেশাল	-11.0173
সাগর	-11.0174
▁গিল্ড	-11.0174
▁মধ্যবিত্ত	-11.0174
▁রোধ	-11.0176
▁গ্রেড	-11.0177
রেন	-11.0177
▁১৮৯৩	-11.018
▁১৮৮৯	-11.0181
▁আমলের	-11.0183
▁মায়ানমারের	-11.0188
▁সংস্করণের	-11.0195
্ন	-11.0195
র্ড	-11.0195
▁পরমাণুর	-11.0198
▁প্লেয়ার	-11.0198
▁হাজারের	-11.0199
▁রুদ্র	-11.02
▁কবিতায়	-11.0201
িদ	-11.0201
▁স্ট্রিং	-11.0204
▁রানার্স	-11.0204
▁ফকির	-11.0205
কুই	-11.0206
▁সিদ্দিকী	-11.0208
▁যাওয়ায়	-11.021
লেও	-11.0211
▁প্রজেক্ট	-11.0211
▁ত্রুটি	-11.0213
▁আসবে	-11.0214
▁বলের	-11.0215
▁সূচক	-11.0215
ঝ	-11.0218
▁সর্বদা	-11.0218
▁কৃতিত্বের	-11.0218
টিং	-11.0221
▁অনুচ্ছেদ	-11.0221
▁মামলায়	-11.0222
▁কীর্তি	-11.0224
শার	-11.0224
▁কার্যকারিতা	-11.0226
▁স্ট্যান্ডার্ড	-11.0228
▁সত্যিকার	-11.0228
▁গদ্য	-11.0228
গুরু	-11.0229
▁দখলের	-11.0229
ারী	-11.0231
দর	-11.0232
▁অন্ধ	-11.0234
দাতা	-11.024
▁দণ্ড	-11.024
▁কাবুল	-11.024
▁লোহার	-11.0244
▁পায়নি	-11.0245
ঞ্জি	-11.0246
পন	-11.0246
▁ট্রেড	-11.0248
▁বর্ণমালা	-11.0248
▁সহস্রাধিক	-11.025
▁সালাহউদ্দিন	-11.025
▁জীবনযাপন	-11.025
▁খোদাই	-11.0251
▁খেলেছিলেন	-11.0252
▁জর্ডান	-11.0252
▁প্রতিহত	-11.0252
ive	-11.0254
খি	-11.0256
▁সংকট	-11.0256
ভী	-11.0262
তল	-11.0263
▁মেট্রিক	-11.0263
▁পরিভাষা	-11.0264
▁ইসরায়েলি	-11.0265
▁ভৌগলিক	-11.0274
▁খ্রিস্ট	-11.0274
▁কন্ঠ	-11.0276
▁পদার্থবিজ্ঞানের	-11.0276
▁ধীর	-11.0277
▁মহাসচিব	-11.0277
▁জং	-11.0278
[	-11.0278
ভাবেই	-11.0281
▁ডুবে	-11.0281
▁সিনেমাটি	-11.0282
▁কন্নড়	-11.0284
▁জ্বালানি	-11.0288
▁প্রজন্ম	-11.029
▁ভারতবর্ষের	-11.0292
▁উদ্যোক্তা	-11.0293
▁পেশাদারী	-11.0294
▁সমৃদ্ধি	-11.0294
▁হিসেবেই	-11.0295
▁চালনা	-11.0297
▁সুইডেনের	-11.0297
▁পরিস্থিতিতে	-11.0299
ন্তন	-11.0303
▁আদান	-11.0303
▁দেবতাদের	-11.0304
▁হেলিকপ্টার	-11.0304
লুগ্স	-11.0304
▁বহুমুখী	-11.0309
▁বানর	-11.0309
▁অক্সাইড	-11.0309
▁থ্রিলার	-11.0315
▁গুলির	-11.0319
▁অংশবিশেষ	-11.0322
▁পার্ল	-11.0326
▁সম্মতি	-11.0326
▁উড্ডয়ন	-11.0332
ন্থ	-11.0333
▁সাক্ষী	-11.0335
নায়	-11.0338
▁উইমেন	-11.0338
২০১৬	-11.034
▁রাজ্জাক	-11.0343
im	-11.0344
▁আন্দামান	-11.0345
▁রাও	-11.0347
▁উত্তরের	-11.0349
▁রাস	-11.0357
▁লেনদেন	-11.0359
▁বিদ্যাসাগর	-11.0359
▁আলফা	-11.036
▁সুইডিশ	-11.0362
আমেরিকান	-11.0363
▁মহাদেশ	-11.0364
▁মিলিটারি	-11.0364
▁আঘাতে	-11.0365
▁প্রতিকৃতি	-11.0365
▁চৈত্র	-11.0366
▁নিত্য	-11.0366
ধারা	-11.0366
দেবতা	-11.0369
ফোর	-11.0375
▁পাবার	-11.0379
▁হাবিব	-11.0379
▁চূড়া	-11.0384
▁স্নান	-11.0385
▁ইয়র্কের	-11.0385
▁পরীক্ষণ	-11.0386
▁সাঁতারু	-11.0391
▁পাচ্ছে	-11.0393
▁ফিল্মস	-11.04
▁অনুপস্থিত	-11.0401
▁দেয়ালে	-11.0403
জয়	-11.0403
▁শেষভাগে	-11.0404
▁ব্যানারে	-11.0404
▁অভিজ্ঞতার	-11.0409
স্থিত	-11.0411
▁লতা	-11.0411
▁লিখা	-11.0413
▁গ্নু	-11.0414
▁কুইন	-11.0415
▁ভিয়েতনামের	-11.0419
▁স্কাই	-11.0419
▁মেডেল	-11.0423
টাস	-11.0423
▁বঙ্গাব্দ	-11.0425
গাল	-11.0428
মতি	-11.0432
▁উপস্থিতিতে	-11.0433
▁লাভে	-11.0433
▁পরিবহণ	-11.0436
▁আপেক্ষিক	-11.0437
্যান	-11.0438
▁কাটিয়ে	-11.0441
দ্ধ	-11.0441
▁আয়োজক	-11.0441
▁কন্টেইনার	-11.0441
▁সন্দ্বীপ	-11.0441
▁মহাজাগতিক	-11.0442
▁সঞ্জয়	-11.0444
রহাট	-11.0445
▁স্থলে	-11.0447
য়েট	-11.0448
▁উদ্দীন	-11.0449
▁গোলরক্ষক	-11.0456
▁জোন্স	-11.0458
▁কিতাব	-11.0458
▁কথ্য	-11.046
▁লৌহ	-11.0464
▁সামন্ত	-11.0465
ইয়ে	-11.0468
▁4	-11.0469
▁চারবার	-11.0473
▁সাদ	-11.0474
un	-11.0475
▁ওয়াটার	-11.0476
_1	-11.0478
▁উদ্	-11.0479
অধিবর্ষে	-11.048
▁১৮৮৬	-11.0482
▁স্যাম	-11.0492
▁কাটে	-11.0492
বাল	-11.0496
▁সম্বোধন	-11.0496
▁ম্যাক্স	-11.0497
▁রয়	-11.0499
▁ট্রাম্প	-11.0501
▁দারিদ্র্য	-11.0502
▁পরিবেশগত	-11.0505
নান	-11.0507
জিত	-11.0509
▁উত্তেজনা	-11.0512
দ্র	-11.0513
▁মধ্যযুগের	-11.0516
▁সিঙ্গাপুরের	-11.0518
▁উর্বর	-11.0519
সেরা	-11.0521
▁রেজিমেন্টের	-11.0521
▁হেল	-11.0522
▁মহাবিদ্যালয়ে	-11.0523
▁পাঁচজন	-11.0523
ভারতের	-11.0523
pe	-11.0524
▁পারস্যের	-11.0536
▁পরিবেশিত	-11.0539
▁বার্মা	-11.0543
টেল	-11.0549
▁অপহরণ	-11.0552
▁পর্নোগ্রাফি	-11.0553
▁বোয়িং	-11.0553
▁ভেক্টর	-11.0557
▁আক্ষরিক	-11.0558
▁অনেকের	-11.0558
▁জনসন	-11.0561
ফেল	-11.0564
পস	-11.0565
▁মাপের	-11.057
সিল	-11.0571
▁মানিক	-11.0573
▁সবাইকে	-11.0575
▁হায়দ্রাবাদ	-11.0575
▁গামা	-11.0577
ঈ	-11.0577
▁টেক্সটাইল	-11.058
▁প্রায়শঃ	-11.0581
▁বহাল	-11.0581
ধি	-11.0582
▁মার্ভেল	-11.0585
▁ঘাটতি	-11.0585
▁বৈঠকে	-11.0591
▁১৮৮২	-11.0592
▁এজ	-11.0594
▁পাতায়	-11.0594
▁নাইজেরিয়া	-11.0594
রিস	-11.0595
▁সংগঠনটি	-11.0596
▁হাওর	-11.0597
▁সম্রাটের	-11.0598
▁উপকূলের	-11.0603
▁জোরপূর্বক	-11.0608
▁বাড়ী	-11.0609
প্রিয়	-11.0611
▁লিঙ্গের	-11.0611
▁মিঃ	-11.0613
me	-11.0615
▁চিত্রগ্রহণ	-11.0615
▁চেম্বার	-11.0616
▁বনের	-11.0619
▁সম্বলিত	-11.0622
ালি	-11.0625
▁ওয়ার্ডে	-11.0625
▁গোস্বামী	-11.0627
▁و	-11.0633
দহ	-11.0633
▁সাম্রাজ্যে	-11.0636
▁দরুন	-11.0636
▁দীর্ঘস্থায়ী	-11.0637
▁আর্য	-11.0637
‘	-11.0639
ver	-11.0641
▁তাও	-11.0643
▁পরিমাপের	-11.0643
▁পরিষদে	-11.0644
▁প্রতিপক্ষের	-11.0645
▁চক	-11.0646
▁বামপন্থী	-11.0649
▁ভিক্ষুর	-11.0649
▁ইউনিভার্স	-11.0649
াকৃতির	-11.0651
াকৃতি	-11.0652
▁এটার	-11.0652
গ্রা	-11.0655
▁স্টিল	-11.0663
▁অগ্রণী	-11.0664
▁বঞ্চিত	-11.0665
▁অ্যানিমেশন	-11.0665
▁কণ্ঠশিল্পী	-11.0665
▁সম্মানসূচক	-11.0665
▁আলবেনিয়া	-11.0669
▁ব্রি	-11.0676
▁স্বীয়	-11.0676
মিস	-11.0679
লক	-11.0679
▁প্রতিষ্ঠানটির	-11.0683
▁ভাস্কর	-11.0683
জির	-11.0683
▁কর্মসূচি	-11.0689
▁চিত্রনাট্যকার	-11.0697
হিত	-11.0701
▁জালাল	-11.0703
▁১৮৭৬	-11.0704
কালের	-11.0705
▁শিক্ষকের	-11.0705
▁ন্যা	-11.0706
▁সড়কটি	-11.0709
▁মরুভূমি	-11.0714
▁পুর্ব	-11.0714
▁ফোর	-11.0715
র্দ	-11.0718
▁গণমাধ্যম	-11.0721
▁ফটিকছড়ি	-11.0721
▁ততোধিক	-11.0721
▁জলপাইগুড়ি	-11.0721
▁ক্ষতিগ্রস্থ	-11.0721
▁এঁদের	-11.0721
পুরের	-11.0725
▁উইথ	-11.0725
▁বাঙ্গালী	-11.0726
মানের	-11.0728
▁ব্রাজিলীয়	-11.073
▁বদলি	-11.0733
▁চাপের	-11.0738
▁সিম	-11.0739
▁লেখকদের	-11.0741
▁জোন	-11.0741
▁পাঞ্জাবি	-11.0741
▁সিন	-11.0744
▁ছাত্রাবাস	-11.0749
▁বিচারের	-11.075
▁খাগড়াছড়ি	-11.0752
▁আখতার	-11.0753
▁টেলর	-11.0758
▁স্টাডিজ	-11.0759
▁ডিসকাল	-11.076
▁সত্তা	-11.076
▁বালা	-11.0762
কাজ	-11.0763
▁লেজের	-11.0763
কিছু	-11.0771
▁গল্পটি	-11.0772
▁আসীন	-11.0778
▁কমন	-11.0779
নারায়ণ	-11.078
▁শেফিল্ড	-11.0781
▁আকাশে	-11.0781
▁উপাধিতে	-11.0782
▁ফ্রেঞ্চ	-11.0783
শাহ	-11.0788
▁ছিদ্র	-11.0789
J	-11.0791
mo	-11.0791
▁সাক্ষাৎকারে	-11.0796
▁প্রজাপতির	-11.0796
বিশ্ব	-11.0805
▁নকল	-11.0806
▁প্রেরিত	-11.0807
▁অদৃশ্য	-11.0808
▁অধিভুক্ত	-11.0808
বালা	-11.0809
▁মিছিল	-11.081
ভাষা	-11.081
▁যন্ত্রাংশ	-11.0811
▁মোল্লা	-11.0812
ইউরোপীয়	-11.0815
▁সাহস	-11.0816
▁সাধনা	-11.0816
▁ঘেরা	-11.0817
▁পিন	-11.0818
▁ফলাফলের	-11.0819
▁এসি	-11.082
▁পরিশোধ	-11.0823
▁শীর্ষক	-11.0825
পুরা	-11.0826
▁শিবির	-11.0826
পোর্ট	-11.0829
▁মেরিল	-11.0834
▁স্বয়ংক্রিয়	-11.0834
▁ক্রিস্টোফার	-11.0836
▁মনসুর	-11.0838
▁ফজলুল	-11.0838
▁অপরটি	-11.0842
▁জমিদারি	-11.0843
বিধানসভা	-11.0843
লাইট	-11.0843
▁হাব	-11.0843
ন্ধ	-11.0843
▁অঞ্চলকে	-11.0844
▁লিলি	-11.0847
▁প্রভু	-11.0848
▁ঘটিয়ে	-11.0852
▁নিম	-11.0853
▁জঙ্গি	-11.0853
▁বৃদ্ধ	-11.0853
▁ধারন	-11.0854
▁ছোটবেলা	-11.0855
▁ডাকনামে	-11.0856
▁ভাষাসমূহ	-11.0856
নীতি	-11.0857
▁চলাচলের	-11.0858
▁ব্লা	-11.0859
ধু	-11.0861
▁সোজা	-11.0862
▁দম্পতি	-11.0862
▁ফর্ম	-11.0863
কুন	-11.0864
▁মনোরম	-11.0866
ng	-11.0866
▁সংগঠক	-11.0866
তবে	-11.0867
▁রিভার	-11.0867
▁সী	-11.0867
▁বেলায়	-11.0868
▁উইলসন	-11.0868
▁হাজী	-11.0868
ন্দর	-11.0869
ব্	-11.087
▁দেশগুলো	-11.0871
▁পেরিয়ে	-11.0872
▁উপাসনা	-11.0873
▁ঐক্য	-11.0874
▁সনাতন	-11.0876
টিভি	-11.0877
সময়	-11.0879
▁বৈঠক	-11.0881
▁উপনদী	-11.0883
▁ঝাড়খণ্ড	-11.0883
ph	-11.0884
▁ভাবা	-11.0886
ba	-11.0887
যদিও	-11.089
▁লেখকের	-11.0891
▁টেলিযোগাযোগ	-11.0893
▁ডোনাল্ড	-11.0893
▁জনশ্রুতি	-11.0895
▁দেখাতে	-11.0895
▁মহ	-11.0896
▁শিলিগুড়ি	-11.0897
▁টান	-11.0901
য়াস	-11.0905
ফিল	-11.0905
▁ওজনের	-11.0908
▁ভাজা	-11.0911
েক	-11.0912
▁মিশ্রিত	-11.0912
▁হিমালয়ের	-11.0915
▁ভেদ	-11.0918
▁মক্কার	-11.0921
▁কিংবদন্তী	-11.0921
▁সাপের	-11.0925
ানী	-11.0926
▁ওয়ার্নার	-11.0929
▁রসায়নে	-11.0929
ঙ্গু	-11.093
▁চৈতন্য	-11.093
▁৯৭	-11.0934
গুলোয়	-11.0936
▁সচেতনতা	-11.0938
▁লেখালেখি	-11.0938
▁সংসার	-11.0939
▁বাবর	-11.0939
▁হননি	-11.094
▁আর্মেনিয়া	-11.094
▁বুলবুল	-11.0941
▁প্রশিক্ষণের	-11.0941
▁গুল	-11.095
▁এক্সচেঞ্জ	-11.095
▁নৃত্যশিল্পী	-11.0951
টস	-11.0952
▁চ্যানেলে	-11.0953
▁শোক	-11.0953
▁এতটা	-11.0956
জাই	-11.0956
▁সবকিছু	-11.0957
▁তীরবর্তী	-11.0959
▁গ্যারি	-11.096
▁কলম্বো	-11.0961
▁অভিধান	-11.0962
▁ড্রাগন	-11.0966
▁প্রয়াস	-11.0967
▁পার্সি	-11.097
▁চল	-11.0972
▁ওস্তাদ	-11.0975
▁কন্ট্রোল	-11.0977
ম্ছোগ	-11.0979
▁শুকিয়ে	-11.098
ان	-11.0985
ভু	-11.0986
জেল	-11.0986
▁ভাষাকে	-11.0988
▁১১০	-11.099
▁মেহের	-11.099
প্রসাদ	-11.0991
▁লাই	-11.0992
▁ফোর্ট	-11.0992
▁বীরত্ব	-11.0994
▁মক্কায়	-11.0997
▁চাষের	-11.0999
▁পুরাণের	-11.1
▁বিবাদ	-11.1002
▁মেক্সিকোর	-11.1004
▁উদ্যানের	-11.1004
▁বাস্তবে	-11.1005
▁পঞ্চদশ	-11.1009
▁ভূতাত্ত্বিক	-11.1009
▁লেবেল	-11.101
▁দালান	-11.1011
▁তুষার	-11.1014
▁মল্ল	-11.1016
▁মতবাদের	-11.1018
মারি	-11.1021
▁জার্মানী	-11.1022
বাজ	-11.1022
▁হাইকোর্ট	-11.1022
▁বিশ্বনাথ	-11.1024
▁সংগ্রাহক	-11.1036
▁ঘা	-11.1036
▁দাফন	-11.1038
▁x	-11.1039
▁বিড়াল	-11.104
বোন	-11.104
পাই	-11.1041
▁কলম	-11.1043
▁সূক্ষ্ম	-11.1044
▁ডিউক	-11.1044
▁মানা	-11.1047
▁ছিলনা	-11.1054
▁সিংহের	-11.1054
সংস্কৃত	-11.1055
▁পাড়া	-11.1056
▁ব্রহ্মা	-11.1057
▁আন্ত	-11.106
▁শৃঙ্খলা	-11.1062
▁ব্যাবস্থা	-11.1064
▁বাসভবন	-11.1065
▁একমত	-11.1065
▁ক্ষতির	-11.1067
▁কোট	-11.1067
▁ছক্কা	-11.1068
▁আহোম	-11.1068
ঝা	-11.1073
প্	-11.1075
▁মডেলের	-11.1076
িলা	-11.1079
▁বিনয়	-11.1083
▁জীবিকা	-11.1085
▁এমএ	-11.1086
▁কুক	-11.1086
▁২৫শে	-11.1089
▁তফসিল	-11.109
▁সুলতানের	-11.109
▁খৃষ্টাব্দে	-11.1092
▁স্কাউট	-11.1093
▁বিষয়গুলো	-11.1094
Y	-11.1095
▁হুমায়ূন	-11.1097
▁খসড়া	-11.1097
▁প্রচন্ড	-11.1097
▁শিরা	-11.1098
▁কেন্ট	-11.1099
োত্তর	-11.11
▁রাজীব	-11.1102
▁নকশার	-11.1106
ট্র	-11.1106
্তি	-11.1109
▁ছন্দ	-11.1109
▁স্যান	-11.111
শের	-11.1112
▁জীববিজ্ঞান	-11.1114
৮০০	-11.1117
▁নগরীর	-11.1118
▁মহল	-11.1119
▁ড্রয়ে	-11.112
▁গার্ল	-11.1121
▁বেস্ট	-11.1122
▁নদিয়া	-11.1123
▁পুরোহিত	-11.1124
▁মহিলারা	-11.1124
▁পরিবারকে	-11.1125
▁পড়ালেখা	-11.1126
▁নির্দেশক	-11.1128
ংক	-11.113
▁চিলি	-11.1132
▁রেলের	-11.1139
▁ব্রুস	-11.1139
▁১৮৮৪	-11.114
াঞ্চল	-11.1141
▁দুর্ঘটনায়	-11.1142
▁রণ	-11.1143
▁ঘটাতে	-11.1144
▁ডেভিস	-11.1144
▁চাকুরী	-11.1146
▁পেশী	-11.1146
▁ইসরাইল	-11.1148
▁হিরো	-11.1151
▁সমতা	-11.1157
▁অশ্বারোহী	-11.116
▁১৬ই	-11.1164
▁নিয়ন্ত্রক	-11.1165
▁স্কয়ার	-11.1172
▁বাহু	-11.1173
▁ইংরেজদের	-11.1173
▁পুষ্টি	-11.1177
▁স্থানীয়ভাবে	-11.1178
▁এমএস	-11.118
▁চলচিত্র	-11.1181
▁টক	-11.1182
▁ভার্	-11.1182
▁উপদ্বীপের	-11.1183
াইন	-11.1184
▁কার্যকলাপ	-11.1188
ch	-11.119
▁কক্ষে	-11.1192
ম্বি	-11.1192
▁খোঁজ	-11.1193
ক্র	-11.1194
▁পরিসরে	-11.1196
▁শাহজাহান	-11.1197
▁Al	-11.12
▁কৃষ্ণনগর	-11.1202
২০১৭	-11.1203
▁সংঘর্ষের	-11.1203
স্কা	-11.1205
শিয়া	-11.1205
▁রাজত্বের	-11.1206
▁রাউন্ড	-11.1206
▁জন্মদিন	-11.1206
▁নয়া	-11.1207
ফাই	-11.1212
কাই	-11.1213
▁উমা	-11.1215
▁ত্রিভুজ	-11.1215
▁অরুণাচল	-11.1218
▁রাষ্ট্রভাষা	-11.1221
▁বেলজিয়াম	-11.1222
▁এনওয়াই	-11.1224
tion	-11.1227
▁গার	-11.1231
▁থিম	-11.1232
▁নির্বাহ	-11.1233
কির	-11.1235
পেন	-11.1238
▁অধিগ্রহণ	-11.124
▁স্টিভেন	-11.1241
▁বিপণন	-11.1245
▁রোনালদো	-11.1245
▁সাংগঠনিক	-11.1245
▁উজবেকিস্তান	-11.1245
▁সরস্বতী	-11.1245
▁ন্যস্ত	-11.1245
▁সর্বশ্রেষ্ঠ	-11.1245
▁চাকুরি	-11.1245
▁ব্যাকটেরিয়া	-11.1246
▁দুর্গাপূজা	-11.1247
ডাই	-11.1248
▁ফ্রন্ট	-11.1248
▁চিপ	-11.1248
ম্মা	-11.125
▁ভাষ্য	-11.1255
সাইড	-11.1256
▁রহিম	-11.1256
▁১৮৯১	-11.1258
▁পুনর্	-11.1261
▁মহিলার	-11.1261
able	-11.1268
▁আন্তর্জাতিকভাবে	-11.127
▁টেক্সাস	-11.1272
▁বৌদ্ধধর্ম	-11.1272
দ্বন্দ্বিতায়	-11.1274
▁উদ	-11.1275
▁উত্থাপন	-11.1275
▁উদীয়মান	-11.1275
▁কতিপয়	-11.1275
▁পুড়িয়ে	-11.1275
▁মৃত্যুদন্ড	-11.1276
▁দিত	-11.1278
▁নাতি	-11.1278
▁গেলেন	-11.1279
ণী	-11.1279
▁সংঘের	-11.1282
▁মধ্যযুগে	-11.1283
▁ঐতিহ্যগতভাবে	-11.1284
ক্যি	-11.1285
▁গেয়ে	-11.1287
▁আবারো	-11.1288
▁ব্যাধি	-11.1288
▁শেরপুর	-11.1289
▁চ্যানেলের	-11.1291
▁শাসনকালে	-11.1294
▁মহারাজ	-11.1298
৪০০	-11.1301
▁ক্রি	-11.1302
▁আশরাফ	-11.1304
ক্ক	-11.1304
▁সম্পূর্ণভাবে	-11.1305
▁শাহ্	-11.1306
▁সাথেও	-11.1307
▁আইইউসিএন	-11.1309
▁পানামা	-11.1309
▁কুস্তিগীর	-11.131
কেল	-11.1312
▁হেলেন	-11.1313
স্ক্যা	-11.1313
সংখ্যক	-11.1313
▁একযোগে	-11.1315
▁উসমান	-11.1316
▁মোর	-11.1316
▁হোল	-11.1319
▁শতরান	-11.1319
▁বিজ্ঞানীদের	-11.132
▁ভেতরের	-11.1334
▁উপাখ্যান	-11.1335
▁ক্যান্টনমেন্ট	-11.1335
▁১৮৭০	-11.1335
▁মরহুম	-11.134
▁মশলা	-11.134
▁দোষী	-11.1348
ant	-11.1349
▁সার্কিট	-11.1352
▁রেলওয়ের	-11.1355
▁সদ্য	-11.1358
▁উপার্জন	-11.136
▁মঙ্গোল	-11.1364
▁কোম্পানিতে	-11.1364
▁জানে	-11.1365
▁মসৃণ	-11.1365
▁ট্রাফিক	-11.1365
▁ভিক্টর	-11.1366
▁খুশি	-11.1368
▁সমুদ্রে	-11.1369
মুর	-11.137
শালা	-11.1371
▁আনু	-11.1371
▁জ্যামিতিক	-11.1373
▁যত্ন	-11.1375
▁মাদার	-11.1377
▁ঊ	-11.1378
▁এগারো	-11.1379
q	-11.138
্রি	-11.1383
▁আশঙ্কা	-11.1384
▁কর্মের	-11.1389
ate	-11.1389
▁স্বচ্ছ	-11.1392
বাচক	-11.1392
▁২১শে	-11.1392
▁10	-11.1395
▁পাখিদের	-11.1395
▁স্যামুয়েল	-11.1396
▁সালতানাত	-11.1396
▁জিতেছিলেন	-11.1397
▁উৎপাদনে	-11.1398
▁অস্তিত্বের	-11.14
▁কর্মকাণ্ডের	-11.1403
▁ছবিটিতে	-11.1403
▁মধ্যপ্রাচ্য	-11.1406
▁হাসি	-11.1408
▁করবার	-11.1409
▁গ্রহণযোগ্য	-11.141
▁নিউজিল্যান্ডীয়	-11.1412
▁১৫০০	-11.1412
▁গ্রাউন্ড	-11.1413
▁আত	-11.1415
শীপ	-11.1416
▁পেট	-11.1418
_2	-11.1421
ট্রো	-11.1422
▁শহরকে	-11.1423
▁বিতাড়িত	-11.1426
▁নওয়াব	-11.1427
▁রাজবাড়ী	-11.1428
▁সহিংসতা	-11.143
টিয়া	-11.1431
▁যাঁরা	-11.1431
▁মেইল	-11.1431
▁তিব্বতে	-11.1433
▁ভূমিতে	-11.1433
▁এসেছেন	-11.1433
▁রঙিন	-11.1433
▁কম্বোডিয়া	-11.1437
তৃতীয়াংশ	-11.1439
নাই	-11.144
▁কথাটি	-11.1441
▁পটিয়া	-11.1441
ঢাকা	-11.1443
▁আরবী	-11.1444
▁অ্যানা	-11.1446
▁সাংহাই	-11.1451
▁ছেলের	-11.1452
▁বিশ্রাম	-11.1454
▁অধিবাসীরা	-11.1454
▁এপি	-11.1457
▁অভ	-11.146
▁সমর্থনে	-11.1461
বোর্ড	-11.1462
সমূহকে	-11.1465
▁সোনালী	-11.1466
▁যাপন	-11.1467
▁১৮৫৭	-11.1469
▁পিপলস	-11.1469
গল	-11.147
▁কমিকস	-11.1471
ব্যবস্থা	-11.1472
িম	-11.1477
▁স্লো	-11.1477
ফট	-11.1478
ত্বের	-11.1478
▁ঘন্টার	-11.1479
পুল	-11.148
▁করুন	-11.1483
▁লিটল	-11.1484
▁পৃষ্ঠা	-11.1484
▁আকবরের	-11.1484
▁ব্যবহারে	-11.1488
▁জলাধার	-11.1488
▁পিচে	-11.1488
▁পার্কের	-11.1489
▁ব্যবস্থাপক	-11.1489
▁১৩০	-11.149
ল্য	-11.1492
▁গানগুলো	-11.1496
ডিসি	-11.1496
▁সংগ্রামের	-11.1499
▁ঘটনাকে	-11.1499
▁বুল	-11.15
▁দুজনেই	-11.1501
সেই	-11.1502
▁১৮৮৫	-11.1502
হী	-11.1502
১৯৯৬	-11.1503
▁মরিচ	-11.1503
▁প্রতাপ	-11.1504
▁হাফ	-11.1505
▁ডার্ক	-11.1505
▁পরা	-11.1507
ডিন	-11.151
থার	-11.151
▁স্টেডিয়ামের	-11.1511
▁কোরীয়	-11.1511
▁সুলতানা	-11.1511
য়েস	-11.1512
সূত্র	-11.1512
▁রানা	-11.1514
▁কোটা	-11.1516
▁বক্তা	-11.1518
▁অর্জিত	-11.1518
▁ভরের	-11.1518
▁লোহা	-11.1519
▁আক্রমণাত্মক	-11.1519
▁অভিন্ন	-11.1521
▁বোলারের	-11.1521
▁বৈষম্য	-11.1523
▁দক্ষিন	-11.1524
্সোদ	-11.1525
▁চালক	-11.1525
শিপ	-11.1528
▁মিশিগান	-11.1531
▁মাদরাসা	-11.1537
▁অস্ট্রিয়া	-11.1538
▁ট্রা	-11.1541
▁গরুর	-11.1542
▁শুনতে	-11.1544
▁নাও	-11.1544
▁মেইন	-11.1545
▁স্বার্থ	-11.1549
▁পুনর্জন্ম	-11.1551
থো	-11.1552
▁উড়িষ্যা	-11.1554
▁নাচের	-11.1555
▁লাসা	-11.1557
▁লেখায়	-11.156
▁ইসলামে	-11.1561
▁ইউনাইটেডের	-11.1561
▁আদলে	-11.1561
ঞ্জা	-11.1564
বন্ধ	-11.1564
িদের	-11.1565
▁ঠাকুরগাঁও	-11.1567
▁এফএ	-11.1567
▁দিয়েই	-11.1567
▁ম্যাট	-11.157
▁ফেলার	-11.157
ho	-11.1575
▁অনিয়মিত	-11.1576
▁দেখাশোনা	-11.158
▁পরিসেবা	-11.1581
▁কারও	-11.1583
▁অপরাধী	-11.1583
▁চাপে	-11.1584
▁গিল	-11.1585
▁১৪০	-11.1586
▁অস্থি	-11.159
▁মাল্টি	-11.1591
▁বুট	-11.1595
▁১৮৬০	-11.1595
▁খুজে	-11.1597
রকম	-11.1597
▁তান	-11.1598
▁বামন	-11.16
▁অ্যাকাডেমি	-11.1602
▁বন্ধুদের	-11.1603
▁প্রশ্নের	-11.1605
▁হার্ডওয়্যার	-11.161
▁ডগলাস	-11.1611
▁বেষ্টিত	-11.1614
ম্যা	-11.1615
িনি	-11.1615
দ্রি	-11.1616
▁জর্জিয়া	-11.1616
জুড়ে	-11.1618
▁প্রসেসর	-11.1618
▁লাইব্রেরী	-11.1619
▁হেই	-11.1621
▁পদকে	-11.1626
▁২০শ	-11.1628
ালী	-11.1629
ণের	-11.1629
দাম	-11.1632
▁সাং	-11.1633
সিং	-11.1634
হাল	-11.1636
▁চর্চার	-11.1637
▁কিন	-11.1638
▁নিতেন	-11.1642
▁মিরপুর	-11.1643
▁বলয়	-11.1645
▁মৌলভীবাজার	-11.1646
▁এফসি	-11.1647
▁ডিভিডি	-11.1648
▁পরিধি	-11.1649
▁কবলে	-11.165
লিপি	-11.1651
▁কাব্যের	-11.1653
ie	-11.1653
▁প্রোটন	-11.1655
কাটা	-11.1656
▁রাজবাড়ি	-11.1656
▁মহাদেশীয়	-11.1657
ard	-11.1657
▁শট	-11.1657
▁হ্যায়	-11.1657
▁প্রেরণা	-11.1658
▁সায়	-11.1658
▁দুর্গের	-11.1658
তিয়া	-11.1659
▁হাস	-11.1663
▁ব্যবস্থাপনার	-11.1666
▁ডাবল	-11.1671
▁প্রতিবাদে	-11.1673
▁লক্ষ্মণ	-11.1673
▁অস্বীকৃতি	-11.1674
সেট	-11.1675
▁প্রক্রিয়াকরণ	-11.1675
▁রুটি	-11.1675
িট	-11.1679
▁ল্যান্ড	-11.1681
▁রজার	-11.1683
▁জলাভূমি	-11.1684
▁ইউটিসি	-11.1686
▁পুনরাবৃত্তি	-11.1686
▁১১ই	-11.1692
▁পরিশ্রম	-11.1692
▁দায়িত্বভার	-11.1694
▁জুলাইয়ে	-11.1699
▁সাক্ষাৎকার	-11.17
tic	-11.1701
▁রেলপথের	-11.1702
▁তেলের	-11.1703
▁নবদ্বীপ	-11.1703
▁ঘোষণার	-11.1704
▁জাদুঘরে	-11.1706
তাল	-11.1707
▁বিশপ	-11.1708
▁has	-11.171
▁কাদা	-11.1712
▁৭ই	-11.1713
▁প্লাস্টিক	-11.1713
▁মাপ	-11.1714
▁১৮৮৭	-11.1718
▁সমাধানের	-11.1718
▁গ্লাস	-11.1719
▁ফিরোজ	-11.172
▁দুপুর	-11.1721
▁বণিক	-11.1723
▁স্টোরি	-11.1723
▁পিতামাতা	-11.1726
▁নেতারা	-11.1727
▁রঙ্গ	-11.1729
▁দেশি	-11.173
▁গার্ডেন	-11.1731
বার্ট	-11.1736
▁এয়ারপোর্ট	-11.1736
▁ভারপ্রাপ্ত	-11.1736
▁শনিবার	-11.1738
▁রিয়াজ	-11.1738
র্গ্যাস	-11.1738
hi	-11.1738
▁পিকচার্স	-11.1738
▁can	-11.1743
▁সুরা	-11.1747
▁দামেস্ক	-11.1747
▁আত্মজীবনী	-11.1748
▁জলজ	-11.175
বিট	-11.1753
▁প্ল্যাটফর্ম	-11.1758
লতা	-11.1763
▁ম্যাচটি	-11.1764
▁অগাস্ট	-11.1766
▁অপরিহার্য	-11.1767
▁আলীবর্দী	-11.1767
▁হেমিংওয়ে	-11.1767
▁মেগাওয়াট	-11.1767
▁বুশ	-11.1767
▁সুন্দরবন	-11.1767
▁প্রতিরোধের	-11.1767
▁সমবায়	-11.1767
▁দুর্লভ	-11.177
▁জেলাটিতে	-11.1774
▁একদম	-11.1776
▁ডাঃ	-11.1777
ব্রি	-11.1785
▁ঠিকানা	-11.1788
▁গভীরভাবে	-11.1789
▁De	-11.179
পাদ	-11.1794
জম	-11.1797
▁তত্ত্বাবধায়ক	-11.1798
▁পাণ্ডব	-11.1798
▁কম্পাঙ্ক	-11.1798
▁were	-11.1799
বৃত্তি	-11.18
▁ডানায়	-11.1801
▁ইরানে	-11.1802
নাম্স	-11.1802
▁রেসলিং	-11.1805
▁দীর্ঘকাল	-11.1806
প্রা	-11.1812
▁১৬০	-11.1816
▁জরিপে	-11.1817
স্ব	-11.1818
▁বানিয়ে	-11.1819
▁জায়গার	-11.1821
▁ঘোড়ার	-11.1824
জেলাটি	-11.1824
ছাত্রী	-11.1825
▁বার্ন	-11.1825
জোড়া	-11.1827
▁ইলিনয়	-11.183
ট্	-11.1832
▁ইস্পাত	-11.1832
▁ওয়াটসন	-11.1833
▁ক্ষেত্রফল	-11.1833
▁সাভার	-11.1835
▁ফিলিপাইনের	-11.1835
▁পিরামিড	-11.1836
▁গির্জার	-11.1836
ন্দে	-11.1837
▁জৈবিক	-11.1841
যেখানে	-11.1847
▁অনুবাদক	-11.1848
▁গ্রাহক	-11.1849
▁আরাকান	-11.1851
▁পালি	-11.1851
▁বাহন	-11.1851
ক্সি	-11.1856
▁রান্নার	-11.1856
▁যজ্ঞ	-11.1858
কল্পে	-11.1859
▁লুসি	-11.186
▁সম্পাদকের	-11.1861
▁ফ্যাকাশে	-11.1862
▁দিবা	-11.1862
শাস্ত্র	-11.1864
▁লাশ	-11.1865
▁আশ	-11.1867
▁আলোকে	-11.1868
▁দ্বিতীয়বারের	-11.1874
স্টি	-11.1877
▁মুদ্রার	-11.188
ফিন	-11.1881
▁অ্যান্টি	-11.1881
োল	-11.1882
▁লিখন	-11.1883
▁টেক	-11.1887
▁থি	-11.189
▁দুর্নীতি	-11.1891
▁নাক	-11.1893
▁নটিংহ্যামশায়ার	-11.1894
লিস	-11.1895
▁কুর্দি	-11.1895
▁স্পিকার	-11.1896
▁ইলেক্ট্রন	-11.1896
▁মনি	-11.1897
▁রাজাকার	-11.1899
▁ভূমিকার	-11.1901
ঝি	-11.1904
▁পিতামাতার	-11.1907
▁অদ্বৈত	-11.1909
▁মহাসড়কের	-11.191
ary	-11.191
▁বিয়ার	-11.1912
১৯৯৯	-11.1914
▁শর্ট	-11.1916
▁অনুষদের	-11.1917
রেখা	-11.1917
▁সেনানিবাস	-11.1917
পূর্বাঞ্চল	-11.1919
▁লেবানন	-11.192
়	-11.1924
▁রঞ্জন	-11.1924
▁স্বনামধন্য	-11.1925
▁পদোন্নতি	-11.1925
▁মেমোরিয়াল	-11.1926
▁বিশ্বরেকর্ড	-11.1926
লং	-11.1926
▁লীলা	-11.1926
▁মিডলসেক্সের	-11.1926
▁বিপন্ন	-11.1927
align	-11.193
▁ধ্বংসের	-11.1933
▁দশমিক	-11.1936
▁মুভি	-11.1937
ভেদে	-11.1939
▁আইল্যান্ড	-11.1942
▁স্নায়ু	-11.1945
▁5	-11.1947
উদ	-11.1949
▁বিএনপি	-11.1949
▁প্যাকেজ	-11.195
▁টিনটিন	-11.1952
নিজ	-11.1954
▁নক	-11.1957
ডের	-11.1959
▁ডিফেন্স	-11.1961
▁আবিস্কার	-11.1961
▁জ্যাকসন	-11.1965
▁বিপর্যয়	-11.1965
▁থাকাকালে	-11.1967
াদ	-11.197
▁ইরাকি	-11.197
▁লিবিয়া	-11.1971
▁ব্যাংকিং	-11.1972
৬০০	-11.1973
জার্মান	-11.1974
▁রানার	-11.1976
▁বঙ্গাব্দে	-11.1977
হ্যারি	-11.198
রণ	-11.1984
▁সহ্য	-11.1985
▁কমল	-11.1986
▁নুর	-11.1986
▁স্টে	-11.1987
▁রাখতেন	-11.1989
▁পরিচালকের	-11.199
▁বাক	-11.199
▁অ্যাক্ট	-11.199
9	-11.1991
▁খাড়া	-11.1991
▁ইন্	-11.1994
▁হকের	-11.1994
▁তামা	-11.1994
▁সমস্যায়	-11.1996
▁শিক্ষায়	-11.1997
▁প্রাসাদের	-11.1998
▁আদিম	-11.1998
▁এন্টি	-11.2001
▁মেয়াদী	-11.2004
সভাপতি	-11.2005
▁ট্রাম	-11.201
age	-11.2011
রাহ	-11.2017
প্পা	-11.2017
▁সরবরাহের	-11.2019
▁দূর্দান্ত	-11.2022
▁বৈবাহিক	-11.2022
▁এরিক	-11.2023
▁সাধিত	-11.2023
▁ইমরান	-11.2023
গিরি	-11.2023
▁নাবিক	-11.2025
▁রামায়ণ	-11.2026
▁বইটিতে	-11.2027
▁বায়ো	-11.2029
▁নিজেদেরকে	-11.203
▁বটে	-11.2033
▁হিউ	-11.2037
▁চায়না	-11.204
▁বাহরাইন	-11.2041
▁স্তন	-11.2042
দ্দ	-11.2045
▁বঙ্গোপসাগর	-11.2048
▁জুটিতে	-11.2049
▁রোজা	-11.205
▁মন্দ	-11.205
▁যুগল	-11.2053
▁ক্যারিবীয়	-11.2054
▁সাক্ষ্য	-11.2055
▁আত্মহত্যার	-11.206
est	-11.206
vi	-11.2062
সিংহ	-11.2063
▁দার	-11.2064
ত্রি	-11.2066
▁টিউব	-11.2067
▁কামরূপ	-11.2068
▁ভেন	-11.2069
▁তীব্রতা	-11.207
▁রায়পুর	-11.2071
▁অ্যালেন	-11.2072
▁ভিতরের	-11.2073
▁জনকে	-11.2075
▁প্রবাহের	-11.2078
▁ভাষণ	-11.2079
▁স্বার্থে	-11.2079
▁এসেক্স	-11.208
▁থ্রি	-11.2081
ance	-11.2081
▁মহারাষ্ট্রের	-11.2083
▁উপেক্ষা	-11.2087
▁ছুটির	-11.2088
▁ভবিষ্যতের	-11.2088
াপ	-11.209
▁এলাহাবাদ	-11.209
▁প্রবেশদ্বার	-11.209
▁কোম্পানীর	-11.2091
▁নিল	-11.2092
মানব	-11.2094
পাতা	-11.2099
▁বর্তনী	-11.2099
▁এসএসসি	-11.21
▁সুইজারল্যান্ডের	-11.2105
▁অধ্যয়নের	-11.2105
▁বক	-11.2106
▁বিপদ	-11.2109
▁জীবাণু	-11.2112
র্নাম	-11.2113
▁প্রামাণ্য	-11.2118
▁কর্মসূচী	-11.2118
▁অত্যধিক	-11.2119
▁অজ্ঞাত	-11.212
▁নিউইয়র্ক	-11.212
▁বোলারদের	-11.212
▁ব্যবহারকারীর	-11.2121
▁ভেনিস	-11.2124
▁গ্রীন	-11.2125
▁বণ্টন	-11.2127
কস	-11.2128
▁ফ্রে	-11.2129
▁বার্বাডোস	-11.213
▁বসবাসের	-11.2137
▁অভিনয়ে	-11.2138
▁এরপরে	-11.2143
শির	-11.2145
▁পশুর	-11.2146
▁আমিরাতের	-11.2146
▁ব্রুনাই	-11.2147
▁আয়ু	-11.2148
▁পাটনা	-11.2148
▁নারীকে	-11.2148
▁ধর	-11.2148
সিও	-11.2151
▁ইঁদুর	-11.2152
▁সম্ভ্রান্ত	-11.2152
▁রওনা	-11.2152
▁কান্ট্রি	-11.2152
▁আলাপ	-11.2153
▁সীমান্তবর্তী	-11.2153
▁রসায়নবিদ	-11.2156
কেট	-11.2157
▁কয়েকদিন	-11.2159
লুং	-11.216
▁টীকা	-11.2161
▁প্রয়াত	-11.2161
▁গুজরাট	-11.2161
জনক	-11.2165
নস	-11.2166
▁জুলিয়ান	-11.2166
▁রাজকুমার	-11.2168
▁ফরেস্ট	-11.217
▁রাহুল	-11.217
▁খানকে	-11.217
উর	-11.217
▁ডোরা	-11.2171
কালো	-11.2172
▁প্রজা	-11.2173
▁মাহবুব	-11.2175
▁মিলান	-11.2178
▁উদার	-11.2179
▁ঝ	-11.218
নীর	-11.218
▁ধারক	-11.2182
nd	-11.2183
▁উত্তপ্ত	-11.2185
▁এভারেস্ট	-11.2185
▁রাবণ	-11.2187
▁হুগলী	-11.2189
▁জ্বালানী	-11.2191
▁কানাডীয়	-11.2192
▁বলকে	-11.2192
▁আবরণ	-11.2193
▁সেন্সর	-11.2194
প্লা	-11.2194
িয়েল	-11.2195
▁মারাঠি	-11.2198
▁তান্ত্রিক	-11.2203
▁সাক্ষর	-11.2204
িব	-11.2207
▁ব্রে	-11.2208
"(	-11.2211
জনের	-11.2212
▁সীমাবদ্ধতা	-11.2213
▁শিক্ষকদের	-11.2216
▁খো	-11.2217
▁নির্বাসিত	-11.2218
▁প্রভাষক	-11.2218
▁বাস্কেটবল	-11.2218
▁দৃষ্টিতে	-11.2218
▁মানিকগঞ্জ	-11.2219
ডিং	-11.2219
▁মূলধন	-11.2221
▁৬ই	-11.2221
▁কলাম্বিয়া	-11.2222
▁রেকর্ডিং	-11.2228
▁প্রাচ্য	-11.2229
য়েজ	-11.2233
▁করণ	-11.2235
▁দ্রুততম	-11.2236
▁ভোটার	-11.2237
▁শামসু	-11.224
ডস	-11.224
▁মুকুট	-11.224
▁আদায়ের	-11.2246
▁আলা	-11.2246
দশ	-11.2248
▁আনোয়ারা	-11.2252
▁বাগেরহাট	-11.2255
▁সম্পত্তির	-11.2255
▁লাদাখ	-11.2257
▁কর্মসংস্থান	-11.2259
▁আক্রমন	-11.2259
▁যৌক্তিক	-11.226
▁সেক্ষেত্রে	-11.226
তাত্ত্বিক	-11.226
▁পোলো	-11.2261
▁থাকতো	-11.2261
▁বিরাজ	-11.2262
▁বেড়ায়	-11.2263
▁মাঝ	-11.2265
▁আপন	-11.2272
▁প্রান্তের	-11.2275
চেন	-11.2275
▁পার্থ	-11.2276
▁আব্বাসীয়	-11.2277
▁সাইপ্রাস	-11.2281
▁নট	-11.2282
প্ত	-11.2282
▁যমজ	-11.2287
▁co	-11.2287
ve	-11.2291
▁গন	-11.2291
▁মৃত্তিকা	-11.2296
▁লাঠি	-11.2297
▁শান	-11.2298
▁কৃষকদের	-11.2298
▁গ্রন্থি	-11.2298
রত্ন	-11.2303
ত্রা	-11.2303
▁কাটান	-11.2306
▁স্রোত	-11.2307
▁যাত্রীদের	-11.2308
▁ক্রে	-11.2308
▁ব্লকে	-11.2311
▁ভ্যালি	-11.2313
▁বাথ	-11.2314
▁সমকামিতা	-11.2314
▁ওভারের	-11.2315
▁ওসমান	-11.2315
গ্রস্ত	-11.2316
▁পূর্ণিমা	-11.2317
▁ডিস্ট্রিবিউশন	-11.2317
▁আহমাদ	-11.2317
▁পূ	-11.2317
▁মানি	-11.2318
▁উপলব্ধ	-11.2321
▁রেস	-11.2321
▁কোয়া	-11.2323
▁প্রবৃদ্ধি	-11.2325
▁দুর্যোগ	-11.2327
▁বিজ্ঞাপনে	-11.2328
তুল	-11.2329
▁ছেদ	-11.2332
▁অধ্যুষিত	-11.2333
▁১২ই	-11.2335
▁মির	-11.2337
▁বার্ড	-11.2337
▁রাউন্ডে	-11.2338
▁পাহাড়ী	-11.2338
▁শিং	-11.2339
und	-11.2341
১৯৯৭	-11.2341
▁কাগজের	-11.2343
▁ব্যাগ	-11.2345
▁শিক্ষার্থীর	-11.2346
▁কারাগার	-11.2346
দেহ	-11.2348
▁সিঁড়ি	-11.235
▁কার্যত	-11.2351
▁আঙ্গুল	-11.2351
▁দাপ্তরিক	-11.2353
▁বিধায়	-11.2365
▁লুট	-11.2366
▁১৮৭৮	-11.2366
▁প্যানেল	-11.237
▁মনসা	-11.237
▁দূষণ	-11.2372
▁চিন্তাধারা	-11.2374
▁স্থিতিশীল	-11.2377
সংরক্ষণ	-11.2378
▁সাথেই	-11.2381
▁g	-11.2382
ফেন	-11.2382
লায়	-11.2382
▁নিখিল	-11.2384
▁দর	-11.2385
▁গার্ড	-11.2385
▁বাঘের	-11.2386
▁একইসাথে	-11.2387
▁নাইট্রোজেন	-11.2387
▁কাকা	-11.2391
▁বন্যার	-11.2392
▁বাজানো	-11.2392
▁মান্নান	-11.2393
▁শরিফ	-11.2395
▁ভয়ে	-11.2396
▁সারিতে	-11.2396
▁উঠা	-11.2398
▁কাঁচ	-11.2401
▁পড়াশোনার	-11.2403
▁লিখতেন	-11.2403
▁যেভাবে	-11.2404
▁শেন	-11.2406
▁গিনি	-11.2409
▁বাতাসের	-11.241
▁চল্লিশ	-11.2416
▁বেশীরভাগ	-11.2417
▁কন্যার	-11.2418
মুলক	-11.2423
▁বউ	-11.2424
▁কেনিয়ার	-11.2425
টনের	-11.2425
▁ডেইলি	-11.2425
ফ্রি	-11.2428
▁বদ্ধ	-11.2428
▁বুদ্ধি	-11.243
▁সাহারা	-11.243
▁গ্রামটি	-11.2431
▁রুপি	-11.2432
বিন	-11.2434
▁লঙ্ঘন	-11.2435
▁বলার	-11.244
অথবা	-11.244
▁গণমাধ্যমে	-11.2441
১৯৯৫	-11.2442
বৃন্দ	-11.2442
▁দেয়ালের	-11.2443
▁ভক্তদের	-11.2445
লিঙ্গ	-11.2445
▁তামাক	-11.2446
মূল্য	-11.2447
টুকু	-11.2447
▁মহাসাগরে	-11.2449
▁উকিল	-11.2451
▁con	-11.2452
▁১৮টি	-11.2453
▁টুর্নামেন্টের	-11.2453
▁মামলার	-11.2454
টাইম	-11.2455
▁প্রীতি	-11.2456
▁গুড	-11.246
মঙ্গল	-11.2463
▁প্রান্তিক	-11.2463
য়াং	-11.2466
▁ক্লে	-11.2466
▁ট্রাই	-11.2466
▁কোর্টের	-11.2469
▁লাউ	-11.2472
▁যাচ্ছেন	-11.2475
▁পাঠাতে	-11.2475
১৯৯৮	-11.2477
▁রোগী	-11.2477
▁মস্তিষ্কে	-11.2482
▁মালদা	-11.2483
▁গাইবান্ধা	-11.2485
▁ফোর্ড	-11.2485
▁নগরের	-11.2485
▁যতক্ষণ	-11.2486
▁প্রগতিশীল	-11.2486
▁প্রকাশনার	-11.2486
▁জুতা	-11.2487
▁ঘূর্ণন	-11.2493
▁উত্তরাংশে	-11.2493
▁রুপে	-11.2493
▁নিচ	-11.2494
▁পুঁথি	-11.2494
হাত	-11.2496
!"	-11.2496
▁লেন্স	-11.2498
কেন	-11.2499
▁একাডেমির	-11.2499
িয়ায়	-11.25
▁দর্শনে	-11.2501
▁১২৫	-11.2503
▁প্রচেষ্টার	-11.2504
▁ক্লা	-11.2506
▁অ্যাড	-11.251
▁ছাত্ররা	-11.2514
▁মৌখিক	-11.2517
▁উত্তরণ	-11.2518
▁টি২০	-11.2518
▁মনস্তাত্ত্বিক	-11.2519
লন	-11.2519
▁পর্যায়ক্রমে	-11.2519
▁have	-11.252
▁ডায়াবেটিস	-11.2521
▁তামিলনাড়ু	-11.2522
▁অ্যাপ	-11.2523
▁গোলটি	-11.2523
▁শিল্ড	-11.2525
ক্তি	-11.2527
মধ্যে	-11.2527
▁স্রষ্টা	-11.2529
▁শুক্রবার	-11.253
▁সাম্প্রতিককালে	-11.253
▁সাম্যবাদী	-11.253
▁প্রসব	-11.2533
সিয়ান	-11.2533
▁১৮৭৭	-11.2533
▁No	-11.2536
▁ইল	-11.2537
▁সাহেবের	-11.254
হ্যা	-11.254
্টো	-11.2541
▁কুশ	-11.2543
▁প্রাসাদে	-11.2543
▁ভীষণ	-11.2545
ন্য	-11.2547
▁থাইল্যান্ডের	-11.2548
▁হলদিয়া	-11.255
▁অব্দ	-11.2551
ট্টা	-11.2552
গার্ড	-11.2553
▁উত্পাদন	-11.2553
▁সিদ্ধার্থ	-11.2553
▁আলমগীর	-11.2553
▁ফিল্ডিং	-11.2553
▁অ্যাডামস	-11.2553
▁গায়ানা	-11.2558
▁বেড়া	-11.2558
▁কমতে	-11.2559
▁আলিম	-11.2563
▁কৃত	-11.2564
ারস	-11.2564
▁জীবন্ত	-11.2565
▁খিলাফত	-11.2565
▁ধারাবাহিকতায়	-11.2566
▁জাদুঘরের	-11.2566
▁ডিন	-11.2569
▁তুলেছেন	-11.2575
স্বামী	-11.2576
সমৃদ্ধ	-11.2577
গ্রিক	-11.2578
কান্ত	-11.2578
▁জিজ্ঞাসা	-11.258
▁শ্রীলঙ্কায়	-11.2581
▁চিকিৎসায়	-11.2581
▁আসছেন	-11.2581
▁একাদশে	-11.2582
▁চারা	-11.2585
▁হেপবার্ন	-11.2587
▁অভিযাত্রী	-11.2587
▁মীরসরাই	-11.2587
▁গাছপালা	-11.2587
▁জীবদ্দশায়	-11.2588
▁বোল্ড	-11.2588
▁অধ্যয়নরত	-11.259
অল	-11.259
বস্তু	-11.259
▁মাঘ	-11.2591
▁উল্লাহ	-11.2593
▁কিঃমিঃ	-11.2597
▁অন্যত্র	-11.2598
ফ্	-11.2599
▁ভোর	-11.2602
▁টাইটেল	-11.2603
▁সুইস	-11.2604
▁রাজধানীর	-11.2604
▁পিতৃ	-11.261
▁দেশগুলির	-11.261
▁ব্যাঙ	-11.2611
▁দানব	-11.2613
▁একদিকে	-11.2614
▁কলিন	-11.2616
▁ব্রডওয়ে	-11.2618
▁বক্সিং	-11.262
▁কথোপকথন	-11.2621
▁আঁশ	-11.2621
▁দুবাই	-11.2623
▁সরীসৃপ	-11.2624
▁কামনা	-11.2625
▁পাম	-11.2625
▁মিউজিয়াম	-11.2626
▁নাৎসি	-11.2626
▁শিকারে	-11.2628
▁চিংড়ি	-11.2628
▁রফিক	-11.2631
▁পোলিশ	-11.2631
▁অধিকৃত	-11.2633
▁Mo	-11.2639
বুল	-11.264
কারীরা	-11.2647
▁ফ্লা	-11.2648
▁চার্চের	-11.2649
কট	-11.2651
▁লাহোরে	-11.2651
কলা	-11.2654
▁k	-11.2654
গ্রোস	-11.2655
per	-11.2655
▁সৌভাগ্য	-11.2655
▁জব্বার	-11.2655
▁বিবর্তিত	-11.2655
▁পোকামাকড়	-11.2655
▁স্মৃতিস্তম্ভ	-11.2656
▁অভিমত	-11.2657
▁জনবসতি	-11.2658
▁ভাষাভাষী	-11.2658
▁হরিয়ানা	-11.2659
▁ফোরাম	-11.2662
▁বর্ষা	-11.2663
ুজ্জামান	-11.2665
▁মালি	-11.2666
বাম	-11.267
▁জ্যা	-11.267
▁প্রার্থীদের	-11.267
▁style	-11.2672
▁ইথিওপিয়া	-11.2674
▁উদ্বোধনে	-11.2674
আইসি	-11.2675
▁তাজিকিস্তান	-11.2679
▁কম্পিউটারে	-11.268
▁১০১	-11.2684
▁যাদব	-11.2685
▁ফুসফুস	-11.2686
▁মঞ্চস্থ	-11.269
▁অর্থোডক্স	-11.269
▁জলপ্রপাত	-11.269
▁বচ্চন	-11.269
▁নড়াইল	-11.269
▁গতিবেগ	-11.269
▁হানাদার	-11.2691
▁শাড়ি	-11.2691
▁ডার্বিশায়ার	-11.2693
▁বিপজ্জনক	-11.2693
▁শ্রীরামপুর	-11.2693
▁মনুষ্য	-11.2694
ফোন	-11.2695
▁খ্যাতিমান	-11.2696
▁হাফিজ	-11.2696
▁জিও	-11.2699
▁ফারসি	-11.27
▁নবীন	-11.2701
▁প্রবেশপথ	-11.2702
▁মহাযান	-11.2702
▁মণিপুর	-11.2703
▁ফার্ম	-11.2704
পানি	-11.2704
▁অন্ধ্রপ্রদেশ	-11.2704
▁অস	-11.2707
সঙ্গীত	-11.2708
্ৰ	-11.2708
▁আদ	-11.271
▁মৌসুমী	-11.2711
▁গণিতে	-11.2714
স্টোন	-11.2714
▁গবেষণাপত্র	-11.2717
স্ট্র	-11.2718
▁খিলান	-11.2718
রুম	-11.2719
▁মূলধারা	-11.2719
▁পরাস্ত	-11.2722
▁মুখোশ	-11.2724
▁রোকেয়া	-11.2725
▁পুনর্বাসন	-11.2725
ডাঙ্গা	-11.2728
▁শাহী	-11.273
▁নিয়েও	-11.2732
▁শিয়ালদহ	-11.2732
▁মাহ	-11.2732
▁রব	-11.2736
▁উদয়	-11.2737
▁কামার	-11.2739
▁শুদ্ধ	-11.2739
▁পন্থা	-11.274
▁কায়রো	-11.2741
ঙ্কা	-11.2742
▁সাইন	-11.2748
▁খেলাধুলা	-11.2752
নিস	-11.2752
▁প্রতিষ্ঠায়	-11.2753
▁সিদ্ধান্তের	-11.2754
পুরাণ	-11.2755
▁গবেষকরা	-11.2758
▁উপজীব্য	-11.2759
▁ডাম্বলডোর	-11.2759
▁স্ট্যানফোর্ড	-11.2759
▁প্রদর্শনীর	-11.276
▁শহরতলি	-11.2761
▁ঝু	-11.2762
▁শার	-11.2762
▁সেইসাথে	-11.2763
▁রিপাবলিকান	-11.2763
▁সবই	-11.2765
▁আপত্তি	-11.2766
▁বন্ধুর	-11.2766
যু	-11.2767
রাষ্ট্র	-11.2767
▁শিক্ষাজীবন	-11.2774
▁বসেন	-11.2775
▁চিন্তার	-11.2775
▁নিয়েই	-11.278
▁পটভূমি	-11.278
▁রিড	-11.2781
▁সঞ্চয়	-11.2781
▁ইয়েমেন	-11.2782
▁ধাবিত	-11.2782
প্রাচীন	-11.2783
অফ	-11.2785
ud	-11.2785
lu	-11.2786
বলি	-11.2787
▁অক্ষম	-11.2789
▁টির	-11.2792
▁he	-11.2793
▁নরেন্দ্র	-11.2794
▁সচেষ্ট	-11.2794
▁গেয়েছেন	-11.2795
va	-11.2795
▁ঘরানার	-11.2796
পাঠ	-11.2796
▁মহাকর্ষীয়	-11.2797
▁সন্তুষ্ট	-11.2798
▁ল্যাবরেটরি	-11.2804
▁প্রতিমা	-11.2809
সেন্ট	-11.2812
▁অর্	-11.2815
▁ফ্লোরিডা	-11.2818
▁আগুনে	-11.2819
▁পুষ্প	-11.2823
১৯৯৪	-11.2824
িমা	-11.2824
▁উইং	-11.2825
▁ত্রাণ	-11.2827
▁অধিকারের	-11.2828
▁চৌম্বক	-11.2828
▁গঙ্গোপাধ্যায়	-11.2829
▁স্বাদুপানির	-11.2829
▁নেতৃস্থানীয়	-11.2829
▁হিমাচল	-11.2829
▁খন্দকার	-11.283
▁মধ্যমাঠে	-11.283
▁সার্বভৌমত্ব	-11.2834
▁উইলিয়ামস	-11.2835
▁দৌড়	-11.2837
▁ব্যবধান	-11.2837
▁১৮শ	-11.2838
তাকে	-11.2838
▁জুল	-11.2841
হাব	-11.2845
▁হোস্টেল	-11.2845
▁বাগানের	-11.2846
▁গ্লোবাল	-11.2846
▁ফাই	-11.2846
▁বাগদাদ	-11.2851
তির	-11.2855
▁He	-11.2859
▁মধ্যপ্রাচ্যের	-11.286
▁হাতির	-11.2861
ভোগ	-11.2863
▁এরশাদ	-11.2864
▁বৃষ্টিপাতের	-11.2864
▁চাঁপাইনবাবগঞ্জ	-11.2864
▁মেঘালয়	-11.2864
▁জনৈক	-11.2864
▁বাড়তি	-11.2864
▁ইনপুট	-11.2865
▁হাতিয়ার	-11.2865
▁হাওয়ার্ড	-11.2865
▁গ্রি	-11.2865
▁সেন্টারে	-11.2865
▁নেপালে	-11.2866
▁গ্রেস	-11.2866
▁ম্যাগ	-11.2873
▁নাস্তিক	-11.2874
মন্দির	-11.2876
▁আরেকজন	-11.2878
▁গবেষনা	-11.2879
▁ফলের	-11.2879
▁st	-11.2883
ধান	-11.2884
▁রায়চৌধুরী	-11.2886
▁ফুলে	-11.2886
গোল	-11.2888
▁সারদা	-11.2888
▁পৃষ্ঠপোষকতা	-11.2894
▁নিজেও	-11.2896
▁৩০টি	-11.2897
ana	-11.2897
একজন	-11.2898
▁শ্রেণীবিন্যাস	-11.2902
▁স্বাস্থ্যের	-11.2902
খো	-11.2903
▁দুজনের	-11.2904
▁গ্রা	-11.2904
ন্যা	-11.2904
য়ার্স	-11.2905
াজ	-11.2907
▁হিউম্যান	-11.291
▁his	-11.291
▁পৌষ	-11.2912
▁মগ	-11.2912
▁১৮৭৯	-11.2914
ড়ী	-11.2914
ঙ্গে	-11.2918
কার্য	-11.2919
▁আলাদাভাবে	-11.292
▁মূলনীতি	-11.2921
ইয়ার	-11.2922
▁বেকার	-11.2923
▁জামে	-11.2924
▁জন্মায়	-11.2925
▁অর্থায়ন	-11.2925
▁ফাউন্ডেশনের	-11.2927
স্ট্রি	-11.2927
▁৯৪	-11.2927
▁আয়োজনে	-11.2929
▁ম্যাট্রিক	-11.293
▁জানি	-11.2932
▁৮ই	-11.2932
▁নায়িকা	-11.2933
▁প্ৰ	-11.2933
▁কানাডায়	-11.2933
িণী	-11.2933
▁পেনাল্টি	-11.2935
▁দীক্ষিত	-11.2935
▁কনডম	-11.2935
▁বহুজাতিক	-11.2935
চির	-11.2935
▁ধারাভাষ্যকার	-11.2935
▁মূর্তির	-11.2936
▁সুইডেন	-11.2936
▁ক্যান	-11.2937
▁পট	-11.2937
▁ভদ্র	-11.2938
▁বসবাসরত	-11.2941
▁গৃহে	-11.2942
নাট্য	-11.2943
▁কাণ্ড	-11.2949
ata	-11.295
▁বৃত্ত	-11.2951
▁বছরেই	-11.2951
▁ডারউইন	-11.2952
▁নির্ভরযোগ্য	-11.2955
▁হিজরি	-11.2957
▁ফেডারেশনের	-11.2962
নির্মিত	-11.2963
▁জাকার্তা	-11.2966
▁ভূমধ্যসাগর	-11.2967
▁অন্তর্	-11.2967
▁তরঙ্গের	-11.2969
▁অ্যানড্রয়েড	-11.297
▁গ্রাহাম	-11.297
▁নিবেদন	-11.2971
▁কবিতাটি	-11.2975
▁সেক্রেটারি	-11.2975
▁বলিভিয়া	-11.2975
▁১০ই	-11.2975
▁কর্মকাণ্ডে	-11.2977
গর	-11.2978
▁খেলনা	-11.2978
▁প্রোগ্রামের	-11.2981
বেরি	-11.2983
▁বাড়ে	-11.2986
▁সিকিম	-11.2988
▁টার	-11.299
▁উচু	-11.2991
▁ব্যক্তিগতভাবে	-11.2991
▁মৈত্রী	-11.2993
▁লিউ	-11.2994
▁দূর্গ	-11.2998
▁লুক	-11.3002
▁সন্ধানে	-11.3005
▁পাড়	-11.3005
▁ডাউনলোড	-11.3006
ুদ্দীন	-11.3006
▁কুড়িগ্রাম	-11.3007
▁সিএনজি	-11.3007
▁লক্ষণীয়	-11.3007
▁সার্টিফিকেট	-11.3008
▁জামান	-11.3009
▁কুতুব	-11.3011
বারের	-11.3011
▁মুরাদ	-11.3012
▁their	-11.3012
▁সারের	-11.3013
র্ব	-11.3014
▁উড়তে	-11.3015
▁ছিন্ন	-11.3016
▁প্রতিযোগিতামূলক	-11.3019
▁আহ	-11.302
াসের	-11.3026
▁কৃষ্ণা	-11.3026
▁আধিকারিক	-11.3028
▁মঞ্চনাটকে	-11.3029
▁চাক	-11.3029
▁সমীক্ষা	-11.3034
সাস	-11.3035
সম্মান	-11.3035
▁বিদ্রোহীদের	-11.3035
▁সীমানার	-11.3036
di	-11.3038
▁বেত	-11.3038
▁যেতেন	-11.3038
▁১৮০	-11.3039
son	-11.3039
পোর	-11.3042
▁নজরে	-11.3042
▁কোর্সে	-11.3042
▁সুভাষচন্দ্র	-11.3042
▁অ্যানি	-11.3043
▁কুরআনে	-11.3043
▁জিতেন	-11.3043
▁১৮০০	-11.3046
এখন	-11.3047
▁শুল্ক	-11.3048
্যে	-11.3048
▁গরু	-11.3048
▁৩০০০	-11.3049
▁ভাষাবিজ্ঞান	-11.305
▁কংগ্রেসে	-11.305
▁সম্মুখে	-11.3051
▁স্নেহ	-11.3052
ীক	-11.3052
ব্রে	-11.3053
▁সংঘাত	-11.3053
▁ছুটি	-11.3054
▁বাক্স	-11.3055
▁ড্যা	-11.3056
▁হয়না	-11.3058
▁গুচ্ছ	-11.3059
▁নাসের	-11.306
▁ব্রিগেড	-11.306
د	-11.3061
▁এতো	-11.3061
▁লিওন	-11.3063
▁আদেশে	-11.3063
বঙ্গ	-11.3066
▁শন	-11.3068
▁জেড	-11.3069
উইকেট	-11.3072
▁গল	-11.3073
▁মহাকর্ষ	-11.3074
▁ফৌজ	-11.3075
▁তাস্বত্ত্বেও	-11.3077
▁ধূমপান	-11.3077
▁গুহ	-11.3077
সিক	-11.3078
আর্য	-11.3088
▁এমপি	-11.3089
শায়ারের	-11.3089
▁বেল্ট	-11.309
▁রন্ধনশৈলী	-11.3091
▁বিক্রিত	-11.3091
▁হিসাবেও	-11.3092
si	-11.3094
▁ল্যাপটপ	-11.3097
▁শিল্পকর্ম	-11.3103
ন্তি	-11.3107
▁দরবার	-11.3109
ge	-11.3112
▁ক্রমান্বয়ে	-11.3113
▁মধুসূদন	-11.3113
▁নেত্রকোনা	-11.3113
▁ক্যামব্রিজ	-11.3113
▁উপস্থাপিত	-11.3113
▁ধাক্কা	-11.3113
▁প্রকাশ্যে	-11.3114
▁অটোমান	-11.3115
▁সাম্প্রদায়িক	-11.3116
▁অ্যাঞ্জেলেস	-11.3118
▁ঘি	-11.3119
▁এন্টারটেইনমেন্ট	-11.3119
▁কিশোরী	-11.3119
▁পেল	-11.3119
▁প্রত্যাশা	-11.3121
▁দুর্বলতা	-11.3122
▁বয়েজ	-11.3124
▁১৭শ	-11.3124
▁অনুপ্রবেশ	-11.3124
▁হামলায়	-11.3125
▁ড্রাম	-11.3126
%),	-11.3127
▁চিলির	-11.3127
▁অবস্থানরত	-11.3127
▁বাইবেল	-11.3128
▁ছানা	-11.3128
▁স্ক	-11.3129
▁বধ	-11.3131
▁উদ্বেগ	-11.3133
যিনি	-11.3137
▁ইয়ু	-11.3137
বক	-11.3138
▁এরই	-11.3139
▁অধ্যায়ে	-11.3143
বাহিনী	-11.3145
১৯৯২	-11.3145
▁বিক্রির	-11.3146
য়ু	-11.3148
▁প্রভাবের	-11.3148
▁স্মৃতিসৌধ	-11.3149
▁শচীন	-11.315
▁তর্ক	-11.3151
▁জাদুকর	-11.3152
▁ডোরেমন	-11.3153
▁পোল	-11.3153
▁মগধ	-11.3156
▁বিএসসি	-11.3156
জুন	-11.3156
▁বান	-11.3157
▁ব্যাপী	-11.3157
▁আর্ক	-11.3159
মেট	-11.3159
ভর	-11.316
িকে	-11.3161
▁থিয়েটারের	-11.3162
▁গ্রাম্য	-11.3165
ang	-11.3167
▁স্ট্যান্ড	-11.3169
▁ভ্রমন	-11.317
▁যুদ্ধকালীন	-11.3173
▁দুর	-11.3175
▁ভরা	-11.3177
রেস	-11.3178
▁মাঝি	-11.3179
সামাজিক	-11.318
▁h	-11.3185
▁পরমহংস	-11.3186
▁দৈহিক	-11.3186
▁চারুকলা	-11.3186
▁বিবাহবন্ধনে	-11.3186
▁ব্যয়বহুল	-11.3186
▁মহামারী	-11.3186
▁ওয়ারউইকশায়ার	-11.3187
▁মুস্তাফা	-11.3187
▁ফিলিস্তিন	-11.3189
▁শাহরুখ	-11.319
▁প্রাপ্তির	-11.3192
▁অংশকে	-11.3193
▁একধরণের	-11.3194
▁পার্শ্বে	-11.3196
▁সময়কালের	-11.3197
▁15	-11.3197
▁সত্যতা	-11.32
র্প	-11.3203
ka	-11.3205
▁সহকারে	-11.3206
▁সাইমন	-11.3208
▁বদল	-11.3208
▁খি	-11.3209
▁বাড়ানো	-11.321
▁আয়রন	-11.3214
ম্খা	-11.3215
১৯৯০	-11.322
▁কোণে	-11.322
দ্ব্যাংস	-11.3222
▁অনুধাবন	-11.3222
▁শওকত	-11.3222
▁হালনাগাদ	-11.3222
▁সমবেত	-11.3222
▁আবর্তিত	-11.3222
▁ভূমিকম্পের	-11.3223
▁কমাতে	-11.3231
তলী	-11.3232
ফ্রে	-11.3234
▁উন্মোচন	-11.3234
▁১৮৮৩	-11.3237
▁ওঠার	-11.3237
▁সুইজারল্যান্ড	-11.3238
▁ডিমের	-11.3239
▁সংগ্রামী	-11.3245
▁ঘটলে	-11.3246
সেনা	-11.3246
নাগ	-11.3248
▁http	-11.325
▁মালভূমি	-11.325
▁১৭টি	-11.325
ous	-11.325
ক্যাল	-11.3251
▁খে	-11.3256
উল্লাহ	-11.3256
▁উদ্ভাবিত	-11.3258
▁ক্যাথরিন	-11.3258
▁রেস্টুরেন্ট	-11.3258
▁সংকলিত	-11.3258
▁উপস্থাপক	-11.3259
েন্স	-11.3259
▁দাও	-11.3259
▁স্বভাব	-11.326
▁দেউল	-11.326
গের	-11.3261
▁পটুয়াখালী	-11.3263
▁পিপল	-11.3266
দুই	-11.3268
▁বনভূমি	-11.3271
▁টের	-11.3272
▁উদ্দীপনা	-11.3274
গুল	-11.3274
▁ফেয়ার	-11.3274
▁ধাতুর	-11.3275
▁গড	-11.3275
▁সৈয়দপুর	-11.3276
▁রাউলিং	-11.328
▁দর্শকের	-11.328
▁সিস্টেমে	-11.328
▁হিন্দুরা	-11.3282
wa	-11.3282
▁লতিফ	-11.3283
▁আবহ	-11.3283
▁হানা	-11.3285
▁বাঙালী	-11.3285
▁ফেরি	-11.3287
text	-11.3289
পক্ষ	-11.329
▁দেশগুলোতে	-11.329
ভূ	-11.3293
▁ধারাবাহিকতা	-11.3294
▁বেহালা	-11.3295
টান	-11.3295
▁সর্দার	-11.3295
▁ফিচার	-11.3297
▁টেন	-11.3297
▁ফাইবার	-11.3299
▁ষাটের	-11.3299
▁হেম	-11.33
▁ছায়াছবি	-11.3302
▁কল্পকাহিনী	-11.3305
▁লোগো	-11.3306
▁স্ক্রিপ্ট	-11.3306
▁অঙ্গরাজ্য	-11.3306
▁লাফ	-11.3308
▁অসুবিধা	-11.3308
বিক	-11.3309
▁শহরগুলির	-11.3309
▁কারি	-11.331
বিদ্যার	-11.331
▁শ্বাস	-11.3314
মেলা	-11.3314
▁বাজ	-11.3314
▁কুড়ি	-11.3318
▁জোলি	-11.3319
▁মিশেল	-11.3319
▁ক্রুজ	-11.3321
▁দিচ্ছে	-11.3322
্না	-11.3324
সাদা	-11.3324
▁পার্টিতে	-11.3325
▁রাষ্ট্রে	-11.3326
াবলি	-11.3326
বিন্দু	-11.3327
▁মাও	-11.3328
▁বেরি	-11.3328
▁ব্যাডমিন্টন	-11.3332
▁দুর্ঘটনার	-11.3333
▁কণার	-11.3334
র্ম	-11.3337
▁এডুকেশন	-11.3337
মণ্ডল	-11.3339
▁গুজব	-11.3339
▁অনিল	-11.334
▁আন্ডার	-11.3343
▁গাইড	-11.3343
▁কণিকা	-11.3343
ak	-11.3345
▁মেয়েরা	-11.3345
▁সান্তা	-11.3351
▁বারাণসী	-11.3352
ীভূত	-11.3352
▁ব্যান্ডটি	-11.3352
▁যুদ্ধক্ষেত্রে	-11.3355
▁আঠারো	-11.3356
▁ডিরেক্টর	-11.3356
▁বহিঃ	-11.3364
▁নির্দেশিত	-11.3367
▁জর্দান	-11.3367
▁first	-11.3369
▁স্টাইল	-11.3373
▁ক্রিকেটারদের	-11.3373
নদী	-11.3376
▁নির	-11.3377
▁পাগল	-11.338
▁আইস	-11.3382
▁করেছি	-11.3382
▁কার্যক্রমে	-11.3384
র্স	-11.3386
▁পড়ানো	-11.3387
ভাগে	-11.3387
▁ফটক	-11.3387
▁সম্মেলনের	-11.3392
▁তিব্বতি	-11.3392
▁লক	-11.3392
▁হত্যাকাণ্ড	-11.3394
▁ফিল্ডার	-11.3394
সাত	-11.3394
▁Ba	-11.3395
নির্ভর	-11.3396
ence	-11.3396
▁বর্ষাকালে	-11.3397
যদি	-11.3398
▁সেগুলোর	-11.3401
▁শৌখিন	-11.3406
▁অন্ত	-11.3406
▁বামহাতে	-11.3406
▁অবসরপ্রাপ্ত	-11.3407
▁মিলিয়নের	-11.3409
▁এক্সপ্রেসওয়ে	-11.341
ig	-11.3411
▁পার্	-11.3412
▁প্লা	-11.3413
▁কাতালান	-11.3415
তিক	-11.3415
▁দিয়া	-11.3416
▁ধার্মিক	-11.3416
▁সংক্রমণের	-11.3417
▁আপাত	-11.342
▁সমাজবিজ্ঞান	-11.342
▁কঙ্গো	-11.342
▁টেল	-11.3421
▁৫ই	-11.3423
মুন	-11.3423
▁সন্ধ্যায়	-11.3423
▁নন্দী	-11.3423
▁মানুষেরা	-11.3424
▁দীন	-11.3425
▁জানতেন	-11.3428
▁সিরিয়াল	-11.343
বাগান	-11.3431
ুম	-11.3437
▁ভাঙ্গা	-11.3438
জেনারেল	-11.3439
▁ক্যাল	-11.3441
▁হাটহাজারী	-11.3443
▁অধ্যাদেশ	-11.3443
▁ক্যালসিয়াম	-11.3443
▁ফান্ড	-11.3444
▁মতলব	-11.3445
▁পিট	-11.3445
▁ব্যাং	-11.3446
▁টিকা	-11.3447
▁সমকালীন	-11.3448
▁কর্মকান্ড	-11.3448
োভিচ	-11.3452
▁মামুন	-11.3455
ষে	-11.3456
▁ব্যাক্টেরিয়া	-11.3456
▁বাক্যের	-11.3457
▁গার্	-11.3457
ইয়ের	-11.3458
▁লিও	-11.3459
র্ণ	-11.3461
▁গোলাপ	-11.3461
▁পার্বতী	-11.3462
নতুন	-11.3463
▁রেকর্ডস	-11.3464
▁সংশোধনী	-11.3465
▁মনোবিজ্ঞান	-11.3466
▁ফলক	-11.3469
▁যেখান	-11.347
ংগা	-11.3472
▁সমর্থকদের	-11.3473
যুদ্ধ	-11.3474
▁ব্লকটি	-11.3475
▁বাদক	-11.3475
▁বাসিন্দাদের	-11.3478
গুপ্ত	-11.3479
▁প্রক্রিয়াটি	-11.3479
▁স্কেল	-11.348
▁সাতকানিয়া	-11.348
▁আব্রাহাম	-11.3481
▁প্রমিলা	-11.3481
▁মূল্যের	-11.3482
▁°	-11.3482
▁গোপালগঞ্জ	-11.3482
▁কর্মকর্তারা	-11.3486
▁ভিড়	-11.3486
▁তালিকাটি	-11.3488
শহর	-11.3489
▁কেভিন	-11.3491
▁ওয়েবসাইটে	-11.3492
▁তিস্তা	-11.3492
▁যৌনতার	-11.3499
▁উক্তি	-11.3499
পরে	-11.3499
গী	-11.3499
▁যাদেরকে	-11.3501
▁মুহূর্তে	-11.3502
▁বাঁক	-11.3502
▁বর্গের	-11.3504
▁নির্মাণকাজ	-11.3507
▁সঞ্চালন	-11.3507
ুই	-11.3509
ies	-11.351
অনু	-11.351
▁রহস্যময়	-11.351
20	-11.3511
প্লে	-11.3513
▁ইহুদিদের	-11.3514
▁সংসারে	-11.3514
▁মিয়ানমার	-11.3516
▁প্রভিন্স	-11.3518
▁পেট্রোলিয়াম	-11.3518
▁সোডিয়াম	-11.3518
▁অববাহিকা	-11.3519
▁৯ই	-11.352
▁আবদুস	-11.352
▁হাকিম	-11.3525
▁কুর	-11.3525
▁ভেসে	-11.3526
▁ঢেকে	-11.3526
▁টাইগার	-11.3527
▁থানায়	-11.3528
▁গঙ্গার	-11.3529
▁স্পেনে	-11.3532
▁হ্যারির	-11.3535
ইড	-11.3538
ty	-11.3538
▁০১	-11.3538
▁ব্যাবহার	-11.3542
ন্টি	-11.3547
মোট	-11.3547
▁আকস্মিক	-11.3548
▁পাত্রে	-11.3548
▁সাহায্যের	-11.3549
▁ক্র	-11.355
▁প্রতিমন্ত্রী	-11.355
অধুনা	-11.3552
বর্ষ	-11.3553
▁স্বাগত	-11.3553
▁ওরচেস্টারশায়ার	-11.3555
▁শৈল্পিক	-11.3555
▁চ্যা	-11.3555
▁অপারেটর	-11.3555
▁নবগঠিত	-11.3555
▁হেঁটে	-11.3556
▁প্রেমিক	-11.3556
▁টেলিগ্রাফ	-11.3558
▁শ্রীলংকা	-11.3558
▁লড়াইয়ের	-11.3558
▁রীতিনীতি	-11.3558
▁সঙ্গম	-11.356
জেস	-11.3561
▁গতিশীল	-11.3562
▁কাপ্তাই	-11.3563
▁ছিট	-11.3565
র্ট	-11.3565
লিয়ান	-11.3568
▁অজয়	-11.3571
▁১৮৮১	-11.3572
ালয়	-11.3572
▁বাতি	-11.3573
▁ইলেক্ট্রনিক	-11.3576
▁সুন্দরবনের	-11.3576
থের	-11.3576
▁শিশুরা	-11.3576
হিল	-11.3577
য়ানা	-11.3579
▁তিল	-11.3579
স্যা	-11.358
▁ভিয়েনা	-11.3581
▁ভালবাসা	-11.3582
▁অবস্থানকালে	-11.3582
▁আবাসন	-11.3583
▁বলেছে	-11.3584
ag	-11.3585
▁চলছিল	-11.3586
▁কাটার	-11.3589
left	-11.3591
▁St	-11.3591
▁করো	-11.3592
▁উচ্চারিত	-11.3593
▁বিস্তীর্ণ	-11.3593
▁শিলচর	-11.3593
▁মেধাবী	-11.3593
▁মহাকাশযান	-11.3593
▁লেভেল	-11.3594
▁ধু	-11.3595
▁বিশ্বজুড়ে	-11.3596
তাদের	-11.3598
▁সাঁওতাল	-11.3603
▁পৌরসংস্থা	-11.3608
▁মদন	-11.3609
▁সেজন্য	-11.361
▁পারদর্শীতা	-11.361
▁দিনটি	-11.3611
▁রাস্তাটির	-11.3614
▁দত্তের	-11.3615
দেশের	-11.3616
পরবর্তী	-11.3619
মিল	-11.362
▁উৎপাদনকারী	-11.3622
▁খড়	-11.3626
▁সীতা	-11.3628
be	-11.3628
আধুনিক	-11.3629
▁২৪টি	-11.3629
▁কুইন্সল্যান্ডের	-11.3629
▁An	-11.3629
▁ঈদগাহ	-11.3631
▁দৃষ্টান্ত	-11.3631
▁অস্টিন	-11.3634
▁সঙ্গীতজ্ঞ	-11.3634
▁রেলস্টেশন	-11.3635
▁বট	-11.3635
▁সার্	-11.3636
▁বিভাজনের	-11.3638
ৎসু	-11.3639
▁জনপদ	-11.364
্লি	-11.3644
▁অ্যান্ডি	-11.3645
্সের	-11.3646
টিভ	-11.3648
▁বিস্তারের	-11.3648
▁ক্রোমোজোম	-11.3648
▁গবেষণাগার	-11.3649
গাছ	-11.3651
ব্বা	-11.3651
▁রামের	-11.3652
▁জিনগত	-11.3653
▁হাসপাতালের	-11.3655
▁কভার	-11.3656
মস	-11.3657
▁খ্রীষ্টাব্দে	-11.3657
িনের	-11.3659
▁অপরাধে	-11.366
▁বুর	-11.366
up	-11.3661
গ্রহণ	-11.3667
সম্পদ	-11.3667
▁বিন্দুতে	-11.3668
▁দূর্ঘটনা	-11.3669
▁জওহরলাল	-11.3669
▁সংকীর্ণ	-11.3669
▁শাসনকর্তা	-11.367
▁কিয়েভ	-11.3672
▁ভালোবাসার	-11.3673
▁বানু	-11.3676
▁সমর	-11.3678
_3	-11.3679
▁ব্রিটেনে	-11.3679
▁আসরের	-11.3679
▁লোম	-11.368
▁মিড	-11.368
▁পুরান	-11.3681
▁চক্রের	-11.3681
▁বিজেপি	-11.3681
▁সিল	-11.3683
▁প্যাসিফিক	-11.3685
▁হাইস্কুল	-11.3685
▁অলৌকিক	-11.3686
▁চুন	-11.369
▁বিধায়ক	-11.3691
য়িং	-11.3693
▁পোড়া	-11.3694
▁ক্ষত	-11.3695
▁সেক্স	-11.3696
ab	-11.3696
▁মুম্বাইয়ের	-11.3697
▁বাচ্চাদের	-11.3699
▁পিচ	-11.3703
▁সাংসদ	-11.3703
ওয়ার্ড	-11.3703
▁ব্যাপারটি	-11.3704
▁অ্যাসোসিয়েশনের	-11.3704
▁পদ্ধতিটি	-11.3705
▁করাচি	-11.3706
▁অস্ত্রোপচার	-11.3707
▁গীর্জা	-11.3707
▁চৈনিক	-11.3707
▁গর্ডন	-11.3707
▁রশীদ	-11.3707
▁ব্যবসাসফল	-11.3707
▁ইয়াসমিন	-11.3707
▁গোলা	-11.3708
▁মাঝেমধ্যে	-11.3708
▁পৌরসভায়	-11.3709
▁ধর্মনিরপেক্ষ	-11.371
▁ঝি	-11.371
▁ডিজাইনার	-11.3711
সিসি	-11.3711
▁ইসলামিয়া	-11.3712
▁ভাইরাসের	-11.3713
▁মহাসড়কটি	-11.3714
▁সবিশেষ	-11.3715
▁আসানসোল	-11.3716
ডাক	-11.3716
▁তৈল	-11.3716
▁মূলক	-11.3717
▁Y	-11.3719
সীমা	-11.3721
ওন	-11.3721
▁ব্যবস্থাপনায়	-11.3723
বাকী	-11.3724
▁আল্লাহ্	-11.3725
নাইট	-11.3725
▁তথাপি	-11.373
▁২২শে	-11.3731
▁৩৫০	-11.3731
দেন	-11.3736
যাত্রা	-11.3736
▁অভিভাবক	-11.3736
▁দিব্য	-11.3737
pi	-11.374
দ্বয়ের	-11.374
▁রাজারা	-11.374
▁কর্ণফুলি	-11.3745
▁এয়ারওয়েজ	-11.3745
▁শিকড়	-11.3745
▁স্বল্পদৈর্ঘ্য	-11.3746
▁রোম্যান্স	-11.3746
ell	-11.3747
ারে	-11.3748
19	-11.3748
▁ঝিনাইদহ	-11.375
বিন্যাস	-11.3753
▁বিগ্রহ	-11.3753
যন্ত্র	-11.3753
▁মমতা	-11.3753
▁প্রথার	-11.3754
▁যাবৎ	-11.3755
▁ক্ষমতাচ্যুত	-11.3755
had	-11.3755
▁অভিনয়শিল্পী	-11.3756
▁কোস্ট	-11.3757
োদ	-11.3757
▁ইতোমধ্যে	-11.3761
সকে	-11.3761
▁উচ্চতম	-11.3761
▁বুঝা	-11.3762
কিশোর	-11.3764
▁কখনই	-11.3764
▁ইউরোর	-11.3765
▁গণহত্যার	-11.3766
▁এও	-11.3767
▁রোহিঙ্গা	-11.3769
▁সংকর	-11.3769
▁তত্ত্বে	-11.3772
▁কক্ষের	-11.3777
দ্বিতীয়	-11.3779
কল্প	-11.3782
ুরা	-11.3783
▁শিশ্ন	-11.3784
▁ইসহাক	-11.3784
ব্যাম্স	-11.3784
▁অ্যাক্টরস	-11.3784
▁করিডোর	-11.3784
কার্ড	-11.3785
▁সেহেতু	-11.3785
▁প্রত্যয়	-11.3786
কক্ষ	-11.3787
র্জ	-11.3789
▁ঝর্ণা	-11.379
্টন	-11.3791
বাহ	-11.3793
পূজা	-11.3795
▁ভুলে	-11.3795
▁সেবন	-11.3796
▁হেয়ার	-11.3797
▁দিল্লীর	-11.3797
▁শিল্পীর	-11.3798
▁ঘড়ি	-11.38
▁কারাদণ্ড	-11.3803
▁মামা	-11.3804
▁গ্রেগ	-11.3806
বারি	-11.3811
▁ইভান	-11.3813
▁সৈন্যবাহিনী	-11.3813
▁অব্দে	-11.3815
▁প্রাচীনকালে	-11.3815
▁ভেষজ	-11.3822
মার্ক	-11.3825
▁ধারণাকে	-11.3825
▁তাজ	-11.3825
▁সময়সূচী	-11.3826
▁বিএনপির	-11.3826
▁বলতেন	-11.3827
▁উত্তরাখণ্ড	-11.3827
▁হিন্দুধর্ম	-11.3828
▁অবহিত	-11.3829
▁মধ্যেও	-11.383
▁বিশেষায়িত	-11.3832
▁পঞ্চগড়	-11.3833
▁মারে	-11.3833
নিয়ার	-11.3833
ংয়ের	-11.3835
▁দেও	-11.3835
▁কুলি	-11.3837
▁মেয়েকে	-11.3838
11	-11.3852
▁কনসার্ট	-11.3854
▁চাকা	-11.3855
কবি	-11.3855
▁ট্রফিতে	-11.3857
▁ইবনু	-11.3859
▁মোহ	-11.3859
াবলী	-11.3859
▁সহায়তার	-11.3859
▁উত্তরসূরি	-11.3861
▁পরাভূত	-11.3861
▁মার্বেল	-11.3862
▁তালুকদার	-11.3862
▁বায়ুর	-11.3862
▁নিউট্রন	-11.3862
▁এয়ারবাস	-11.3863
▁সিডনিতে	-11.3864
▁তুর্কী	-11.3865
স্তর	-11.3867
▁তুলেছে	-11.3867
▁১নং	-11.3868
▁নিচেরসারিত	-11.3869
▁কানাডিয়ান	-11.3869
▁ক্যান্সারে	-11.3871
▁r	-11.3872
▁বহির্	-11.3875
▁ভালোভাবে	-11.3875
▁করলো	-11.3877
▁শ্যাম	-11.3877
▁সেকেন্ডে	-11.3879
▁জনি	-11.3881
▁বিক্রিয়ার	-11.3883
▁ভালভাবে	-11.3883
▁দ্বিতীয়বার	-11.3885
▁জায়গাটি	-11.3887
▁যাজক	-11.3888
▁সন্ত	-11.3888
আলা	-11.389
▁মাইনর	-11.389
▁আনুগত্য	-11.3892
▁পেরু	-11.3894
▁মনোনয়নে	-11.3895
▁যেটির	-11.3896
ধ্ব	-11.39
▁ক্রোয়েশিয়া	-11.39
▁আর্নেস্ট	-11.39
▁নালন্দা	-11.39
▁কেউই	-11.3901
▁ফাজিল	-11.3902
▁পত্তন	-11.3906
চীন	-11.3907
পেট	-11.391
▁মন্দিরটির	-11.3911
▁সৃজনশীল	-11.3913
▁পরিবেশনা	-11.3914
▁দরবারে	-11.3916
ার্থ	-11.3917
▁ভবিষ্যত	-11.3919
▁প্যালেস	-11.3922
▁খিলাফতের	-11.3925
▁আর্মেনিয়ার	-11.3927
াইড	-11.3928
▁গর্ভ	-11.3929
▁কুই	-11.393
▁মাকে	-11.393
দলের	-11.3933
les	-11.3935
▁ড্রাগ	-11.3936
▁পেশাগত	-11.3937
▁আঘাতপ্রাপ্ত	-11.3938
sa	-11.3939
ধ্বনি	-11.3939
▁পুরস্কৃত	-11.3939
▁তাসমানিয়া	-11.3939
▁ঘন্টায়	-11.3941
▁সতীর্থ	-11.3941
▁সুনীল	-11.3942
▁আবৃত্তি	-11.3943
▁উপস্থিতির	-11.3944
▁কোরিয়ান	-11.3946
▁চেলসি	-11.3947
ব্যান্ড	-11.3947
রির	-11.3947
▁১৬শ	-11.3949
▁ফাল্গুন	-11.3949
▁বড়ুয়া	-11.3952
▁মন্ডল	-11.3954
▁মৌ	-11.3955
▁অনেকসময়	-11.3957
▁ঈগল	-11.396
▁সেনাবাহিনীকে	-11.3962
ম্যানের	-11.3964
▁প্রকাশনী	-11.3965
▁কাশী	-11.3966
াট	-11.3966
রিয়াল	-11.3967
▁রেস্তোরাঁ	-11.3968
▁গুর	-11.3968
গঙ্গা	-11.3969
▁ট্যুর	-11.3971
প্ট	-11.3972
▁ঝা	-11.3975
▁রেফারি	-11.3975
▁উৎখাত	-11.3979
▁রাউজান	-11.3979
▁সিয়েরা	-11.3979
▁কেনেডি	-11.3979
▁দ্বিতল	-11.398
জিগ্স	-11.3982
▁কনভেনশন	-11.3983
▁অতএব	-11.3983
▁রেন	-11.3984
অর্থ	-11.3986
▁জমিদারদের	-11.3988
▁জীবনানন্দ	-11.3991
▁সীমার	-11.3995
▁সংঘর্ষে	-11.3996
▁উৎসের	-11.3998
প্রদান	-11.3998
▁বিরূপ	-11.3999
তাঁর	-11.3999
ah	-11.4
▁১৮৭৪	-11.4
▁পাদদেশে	-11.4
চালিত	-11.4001
10	-11.4001
▁লেজার	-11.4002
▁ত্বক	-11.4005
থাং	-11.4008
▁শুরুতেই	-11.4011
ইজ	-11.4012
▁ধারাবাহিকটি	-11.4012
▁নিষ্কাশন	-11.4016
▁প্রাগৈতিহাসিক	-11.4018
▁শিক্ষিকা	-11.4018
১৯৮৪	-11.402
কারক	-11.4021
▁খালের	-11.4021
দাহ	-11.4025
▁পাঠানোর	-11.4026
▁উদ্ধৃতি	-11.4026
▁প্রদাহ	-11.4027
▁কোলে	-11.4028
▁অন্তঃ	-11.4032
▁পিঠের	-11.4033
▁কাদির	-11.4036
▁নিষেধ	-11.4036
ানোর	-11.4037
▁তিউনিসিয়া	-11.4037
▁চিং	-11.4037
▁স্নো	-11.4038
▁তালিম	-11.4038
▁পাম্প	-11.4039
পোল	-11.404
▁বেলজিয়ামের	-11.4045
▁ঘোষের	-11.4048
▁প্রতিভার	-11.405
▁বোর্ডে	-11.4052
য়াম	-11.4053
হাটি	-11.4054
▁পাইন	-11.4054
▁স্বদেশী	-11.4054
▁তাহের	-11.4054
▁মধ্যভাগ	-11.4055
▁ওয়ালি	-11.4057
▁ইকুয়েডর	-11.4057
▁স্কোয়াড্রন	-11.4057
▁2019	-11.4057
▁পারিশ্রমিক	-11.4057
▁অ্যান্ডারসন	-11.4058
▁মিজোরাম	-11.4058
▁আলোকপাত	-11.4058
▁বিমানটি	-11.4058
▁ডাকাতি	-11.4058
▁ব্রাউজার	-11.4059
১৯৮৯	-11.406
▁ঈদ	-11.4061
মল	-11.4066
▁ঢেউ	-11.4066
▁তন্তু	-11.4067
▁আবহাওয়ার	-11.4067
▁কেমন	-11.4068
বৃত্ত	-11.407
▁মঞ্চনাটক	-11.4072
▁ক্যাট	-11.4073
▁সফলতম	-11.4075
▁w	-11.4077
▁শ্	-11.4077
েন্দ্রনাথ	-11.4081
▁জেলাতে	-11.4081
▁জামায়াতে	-11.4084
▁অঙ্ক	-11.4084
▁হলিউডের	-11.4084
▁সাহিত্যকর্ম	-11.4086
▁কাজল	-11.4087
▁কোষে	-11.4087
বাবা	-11.4087
কৌশল	-11.4089
টক	-11.4089
▁সিরিয়ায়	-11.409
▁বাস্তবতা	-11.409
▁সন্ন্যাস	-11.4093
মেল	-11.4093
সমাজ	-11.4093
▁পেপার	-11.4095
▁ময়ূর	-11.4096
▁বুখারী	-11.4097
▁সেলজুক	-11.4097
▁সমধিক	-11.4097
▁অলাভজনক	-11.4097
▁উৎপাদক	-11.4098
▁উচ্চমাধ্যমিক	-11.4098
▁সঞ্চিত	-11.4098
▁তুমুল	-11.4098
▁জ্বল	-11.4099
▁গোলদাতা	-11.4099
মিডিয়াম	-11.4101
কর্মী	-11.4103
▁সিনহা	-11.4109
ড্র	-11.4113
▁এট	-11.4113
%(	-11.4114
▁বিস্ফোরণের	-11.4116
▁সাজা	-11.4118
▁সোয়া	-11.412
▁জলদস্যু	-11.412
▁ইরাকে	-11.4123
▁গ্লা	-11.4124
▁কোরআন	-11.4125
▁অন্যান্যদের	-11.4128
▁্যাম	-11.413
▁ক্লিনিক	-11.4132
▁ইপিআর	-11.4133
▁ষাট	-11.4134
ম্বু	-11.4135
▁মুনাফা	-11.4137
▁সমার্থক	-11.4137
▁চোপড়া	-11.4137
▁কাজাখস্তান	-11.4137
▁তলোয়ার	-11.4137
▁নববর্ষ	-11.4137
▁হেজাজ	-11.4137
▁মালামাল	-11.4137
▁চোয়াল	-11.4137
▁পাসপোর্ট	-11.4138
▁ধর্মান্তরিত	-11.4139
জাতি	-11.4139
▁কচুয়া	-11.414
▁দোকানে	-11.4141
▁বিশদ	-11.4141
ফুট	-11.4141
▁সৈনিকদের	-11.4144
▁গুল্ম	-11.4144
▁জমে	-11.4148
▁অ্যাডাম	-11.4148
bo	-11.415
▁Sa	-11.4156
▁হংকংয়ে	-11.4157
▁হয়ত	-11.4162
▁সিলভার	-11.4163
▁but	-11.4164
▁বুঝে	-11.4164
ated	-11.4165
ম্বার	-11.4165
▁বিশ্লেষণের	-11.4167
▁পিস	-11.4168
▁রাজু	-11.417
▁টাইটান	-11.4174
▁মেগা	-11.4175
▁উৎকীর্ণ	-11.4177
▁দিলীপ	-11.4177
▁নেট	-11.4177
▁গর্ভপাত	-11.4177
▁ব্র্যাডম্যান	-11.4179
▁ঊর্ধ্ব	-11.4179
▁সঙ্গীতধর্মী	-11.4183
োক	-11.4184
▁এলি	-11.4184
▁সঞ্চার	-11.4185
▁অস্ট্রিয়ার	-11.4186
২০১৮	-11.4186
▁শুক্র	-11.4186
▁ভুবনেশ্বর	-11.4189
▁পরিবর্তনশীল	-11.419
ect	-11.4193
▁সিজার	-11.4193
▁কল্যাণে	-11.4194
াইজ	-11.4194
আইএস	-11.4195
সনের	-11.4196
▁উদর	-11.4197
্তা	-11.4197
▁ধা	-11.4199
৭০০	-11.42
গ্র	-11.4204
জিও	-11.4205
▁ট্যা	-11.4205
ts	-11.4208
▁রাজ্যটি	-11.4208
▁আক্রমণকারী	-11.4211
▁গোড়া	-11.4212
ডিস	-11.4214
▁মৌজায়	-11.4214
▁মাদ্রাসায়	-11.4216
রাগ	-11.4216
▁মোশাররফ	-11.4217
▁রেখার	-11.4218
▁রিজ	-11.4218
রোগ	-11.422
▁সোমবার	-11.422
▁তথ্যচিত্র	-11.4224
▁পরিহিত	-11.4231
▁যাচ্ছিল	-11.4232
▁প্লেটো	-11.4233
▁গাড়ী	-11.4234
▁আইপি	-11.4235
াইয়ের	-11.4236
▁ডাকনাম	-11.4236
▁এধরনের	-11.4239
প্রান্ত	-11.4239
লাক	-11.4244
াঙ্ক	-11.4248
ঙ্গল	-11.4249
োজ	-11.4249
▁ইঙ্গ	-11.4254
▁এইচআইভি	-11.4257
▁জরিমানা	-11.4257
▁ফরিদগঞ্জ	-11.4258
▁পাঠাগার	-11.4258
▁চর্বি	-11.4258
▁আইবিএম	-11.4258
▁দায়িত্বপালন	-11.4258
▁চিত্রায়িত	-11.426
১৯৯৩	-11.4262
হাউজ	-11.4264
▁পিস্তল	-11.4264
▁ধনাত্মক	-11.4264
১৯৮৫	-11.4265
▁এলেন	-11.4266
▁বৃত্তাকার	-11.4267
▁রেট	-11.4268
▁প্রণয়	-11.4268
▁লিগা	-11.4268
মারী	-11.427
▁পদটি	-11.4271
গ্রি	-11.4273
▁রেজিমেন্টে	-11.4274
▁Bo	-11.4274
▁কাতারের	-11.4275
এছাড়াও	-11.4277
▁জানালা	-11.428
▁জায়	-11.4285
▁জয়পুর	-11.4286
▁যোগসূত্র	-11.4287
▁ওমান	-11.4292
▁মস্তক	-11.4293
জাপান	-11.4295
িক্স	-11.4296
▁লেবু	-11.4296
▁পদার্পণ	-11.4298
▁বহিরাগত	-11.4298
▁প্রবক্তা	-11.4298
▁মজবুত	-11.4298
▁ব্যঞ্জনধ্বনি	-11.4298
▁স্মার্টফোন	-11.4298
▁টিকিট	-11.43
খন্ড	-11.43
▁all	-11.4303
জ্	-11.4303
▁দূরত্বের	-11.4306
▁ঘণ্টার	-11.4307
▁লোড	-11.4309
টাল	-11.431
পট	-11.4311
▁ইডেন	-11.4312
গোষ্ঠী	-11.4313
ষণ	-11.4314
▁আঁ	-11.4315
▁ঈসা	-11.4315
▁প্রযোজনায়	-11.4316
▁নাগপুর	-11.4317
▁১৮৭৩	-11.4317
▁পাকিস্তানিদের	-11.4317
▁থাকবেন	-11.4318
▁উমিয়া	-11.4318
one	-11.432
▁রোগীদের	-11.432
▁ঢিবি	-11.4323
াকা	-11.4326
▁"“	-11.4326
▁who	-11.4329
▁স্টেডিয়ামটি	-11.433
▁কম্প	-11.4333
▁6	-11.4333
▁কোমল	-11.4336
▁যন্ত্রটি	-11.4337
▁প্রথমার্ধে	-11.4338
▁করপোরেশন	-11.4338
▁স্বায়ত্তশাসন	-11.4338
▁অমিতাভ	-11.4338
▁অণুষ্ঠিত	-11.4339
▁ঠাণ্ডা	-11.4339
▁অবস্থিত৷	-11.4339
▁কলেজিয়েট	-11.434
▁গ্রাফিক্স	-11.4341
▁পিয়ানো	-11.4341
▁খুঁজতে	-11.4342
সবুজ	-11.4342
▁থিওরি	-11.4343
▁বানিজ্যিক	-11.4344
▁জাদুঘরটি	-11.4345
▁দ্রাবিড়	-11.4345
▁বেড়াতে	-11.4347
▁আংশিকভাবে	-11.4349
▁ব্যারন	-11.435
ot	-11.435
▁ক্ষুদ্রতম	-11.4352
মিত	-11.4352
▁হোস্ট	-11.4352
▁আবর্তন	-11.4353
▁ভারতী	-11.4353
▁আগ্রা	-11.4353
▁যেতো	-11.4353
রঞ্জন	-11.4356
▁জেগে	-11.4356
em	-11.436
▁আফ	-11.4362
▁মঠের	-11.4363
▁বুধ	-11.4363
▁স্বেচ্ছাসেবক	-11.4366
▁চোর	-11.4367
উট	-11.4373
রিয়ান	-11.4373
▁আবাদ	-11.4373
▁দৌড়ে	-11.4374
▁অসহযোগ	-11.4376
কুয়া	-11.4378
্যাট	-11.4379
▁ভবিষ্যদ্বাণী	-11.4379
▁সাব্যস্ত	-11.4379
▁সুপারহিরো	-11.438
▁আধান	-11.438
▁মাইলফলক	-11.438
▁অসম্পূর্ণ	-11.438
▁মজিদ	-11.4381
▁সার্বিয়া	-11.4382
▁হেমন্ত	-11.4382
হাজার	-11.4382
▁কলিকাতা	-11.4386
প্প	-11.4387
▁মৃত্যুতে	-11.4387
▁ইলিয়াস	-11.4388
▁La	-11.4388
▁গেজ	-11.4389
▁এস্টেট	-11.4389
▁ফেসবুক	-11.4392
ানুসারে	-11.4393
▁প্রসঙ্গ	-11.4394
▁ঝাল	-11.4394
শ্বর	-11.4395
▁তেজস্ক্রিয়	-11.4395
▁স্বর্গীয়	-11.4397
▁চিত্রা	-11.4397
ill	-11.4402
▁দেখলে	-11.4403
চ্ছা	-11.4405
▁বিশ্বস্ত	-11.4408
▁কুপার	-11.4409
ni	-11.441
▁রুটে	-11.441
▁গুলোতে	-11.4412
▁শার্ট	-11.4412
বিজ্ঞানী	-11.4414
▁পুরা	-11.4414
▁প্রকৌশলে	-11.4419
▁গ্যালারি	-11.442
▁সম্পূর্ন	-11.442
▁তারতম্য	-11.442
▁খাইবার	-11.4421
▁টুকরা	-11.4422
▁গবেষকদের	-11.4424
▁পশ্চিমের	-11.4425
▁ভূঁইয়া	-11.4427
▁হুসেন	-11.4427
▁রাসূল	-11.4428
▁শিল্পীরা	-11.4429
our	-11.4429
▁উপসাগরীয়	-11.4429
▁একত্র	-11.4429
▁১৮৬৯	-11.443
▁ডেভ	-11.4431
ক্রো	-11.4432
▁ভূখণ্ড	-11.4434
▁পাখা	-11.4435
▁ইতালিতে	-11.4436
স্কার	-11.4442
▁১৪৪	-11.4444
▁হুই	-11.4446
▁গজল	-11.4449
▁টিভিতে	-11.4449
▁গ্লেন	-11.4449
▁রক্তে	-11.445
▁কেন্দ্রবিন্দু	-11.445
▁pro	-11.4456
▁সর্বদাই	-11.4456
ট্যা	-11.4457
▁রাঙ্গুনিয়া	-11.4461
▁লালমনিরহাট	-11.4461
▁ইয়াহিয়া	-11.4462
odice	-11.4462
▁থু	-11.4464
▁বিভিন্নভাবে	-11.4464
▁পুর্বে	-11.4464
▁উদ্ধৃত	-11.4465
পূর্বক	-11.4465
▁তীক্ষ্ণ	-11.4466
▁অপূর্ব	-11.4467
টাকে	-11.4468
১৯৮৮	-11.4468
▁সামঞ্জস্য	-11.4469
▁লালা	-11.4471
▁ইনকা	-11.4471
▁ইম	-11.4472
▁সাউন্ড	-11.4472
▁সড়কে	-11.4472
▁দক্ষিনে	-11.4473
▁কর্	-11.4475
▁সমুহ	-11.4475
▁তরফ	-11.4476
▁৫০টি	-11.4476
গাও	-11.4477
▁পোল্যান্ডের	-11.4484
▁হিন্দী	-11.4484
▁তারপরে	-11.4484
ass	-11.4484
বস	-11.4485
▁চড়ে	-11.4486
▁প্লাস	-11.4487
েত	-11.4487
কোল	-11.4487
▁ত্রিপুরার	-11.4491
▁একান্ত	-11.4494
▁বিহারে	-11.4494
▁প্রেক্ষাগৃহে	-11.4499
▁অনুকরণ	-11.4499
▁রবিবার	-11.45
▁পিক	-11.45
▁সিকিউরিটি	-11.4502
▁উড়োজাহাজ	-11.4503
▁also	-11.4503
▁মোঘল	-11.4503
▁স্ফটিক	-11.4504
▁বিরাজমান	-11.4504
গির	-11.4505
▁ভেড়া	-11.4508
▁ফ্রান্সিসকো	-11.4509
▁সাবমেরিন	-11.4509
▁ভবনটির	-11.4509
▁কারখানায়	-11.4509
▁জিমি	-11.451
▁ইরানী	-11.4511
▁রেকর্ডের	-11.4511
বত	-11.4512
▁বদ্বীপ	-11.4514
▁রিক	-11.4514
▁রিন	-11.4515
▁ধ্বংসপ্রাপ্ত	-11.4515
এটা	-11.4515
ow	-11.4518
▁ফাঁস	-11.4519
▁বাদাম	-11.4521
▁গাওয়ার	-11.4521
all	-11.4522
্ল	-11.4523
▁কিরণ	-11.4524
▁ছাগল	-11.4527
▁Le	-11.453
ুত	-11.453
▁সুরে	-11.4531
▁এগুলোকে	-11.4532
▁ডট	-11.4536
ন্টা	-11.4539
▁কিন্ত	-11.4541
▁পিঠ	-11.4542
বায়	-11.4542
▁লঞ্চ	-11.4542
বাবু	-11.4544
▁ভার্জিনিয়া	-11.4544
ছোট	-11.4544
▁আচ্ছাদিত	-11.4544
▁স্বরবর্ণ	-11.4544
ster	-11.4548
▁নিষ্ক্রিয়	-11.4548
▁বর্ষে	-11.4549
▁দুবার	-11.4551
▁এঁরা	-11.4551
েবল	-11.4554
▁ভাষাগুলি	-11.4554
রেড	-11.4555
উচ্চ	-11.4556
▁তারপরও	-11.4556
▁অনুভূত	-11.4558
োলি	-11.4561
▁জিনের	-11.4561
hy	-11.4561
▁ইনস্টিটিউটের	-11.4562
▁পূর্বেকার	-11.4562
▁বিনোদনের	-11.4562
ধার	-11.4566
▁ডেন	-11.4567
দন	-11.4568
িসের	-11.457
▁অন্যের	-11.457
স্থানে	-11.4572
▁প্রথমত	-11.4575
▁আমর	-11.4578
▁গোলাপি	-11.458
▁চলচ্চিত্রসমূহ	-11.4582
ব্ক্	-11.4582
রেট	-11.4584
▁পর্তুগীজ	-11.4585
▁দাবিতে	-11.4585
▁কোণঠাসা	-11.4586
▁আহবান	-11.4586
বেলা	-11.4587
▁ব্রাদার্স	-11.4587
▁কালক্রমে	-11.4588
fe	-11.4588
▁মেমরি	-11.4588
▁কর্মচারীদের	-11.4588
কূল	-11.4589
po	-11.4593
▁বাঁশি	-11.4594
▁ছত্রাক	-11.4594
▁ب	-11.4595
▁সোম	-11.4596
সদৃশ	-11.4597
▁অর্জনে	-11.4597
▁ছাড়	-11.4598
স্টন	-11.4598
▁চিত্রকর্ম	-11.4601
▁বিচ	-11.4602
বার্ন	-11.4603
▁হোটেলে	-11.4603
▁ধ্রুব	-11.4606
▁মুহাম্মদের	-11.4606
ya	-11.4608
▁১০৫	-11.4612
অভি	-11.4613
্যের	-11.4616
▁আমীর	-11.4617
▁উদ্যানে	-11.4617
▁টেলি	-11.4623
ব্ব	-11.4627
▁রাজপুত	-11.4627
গম	-11.4627
▁প্রতীয়মান	-11.4628
▁মোতায়েন	-11.4628
▁উপকূলবর্তী	-11.4628
▁ঘটবে	-11.4628
▁রিলিজ	-11.4629
▁দন্ড	-11.4629
▁কুইন্সল্যান্ড	-11.463
▁রাডার	-11.4631
▁থেমে	-11.4632
▁দাড়ায়	-11.4632
▁মেট্রোর	-11.4633
▁হাস্যরস	-11.4633
দক্ষিণে	-11.4635
▁ডাউনি	-11.4637
▁খালেদা	-11.4638
▁নরওয়ের	-11.4639
▁সিমেন্ট	-11.464
▁জর্ডানের	-11.4641
ল্হা	-11.4645
▁১৮৭১	-11.4646
▁সেমিফাইনালে	-11.465
▁পেশার	-11.465
▁ভারতীয়দের	-11.4653
▁স্ট্যাম্প	-11.4654
▁বেজ	-11.4654
▁ঝাঁপি	-11.4655
উইক	-11.4656
▁জানাতে	-11.4662
▁উপকারী	-11.4662
▁মাহি	-11.4663
▁প্রচ্ছদ	-11.4663
▁তারার	-11.4664
▁বোকা	-11.4667
খার	-11.4667
▁সুবিধার্থে	-11.467
▁পূর্ণদৈর্ঘ্য	-11.467
▁পাঞ্জাবী	-11.4671
▁নিঃসরণ	-11.4671
▁প্রবেশাধিকার	-11.4671
▁বাঁ	-11.4672
▁কক্ষপথ	-11.4672
▁টুল	-11.4672
▁এমটিভি	-11.4673
▁হোসেনের	-11.4674
ইসলাম	-11.4675
শাল	-11.4676
▁ইস	-11.4676
▁জলপাই	-11.4679
▁বিবর্তনীয়	-11.4679
▁শিখতে	-11.4679
১৯৮০	-11.468
▁অনুগত	-11.468
▁অধিবেশন	-11.4682
াত্মক	-11.4685
ডান	-11.4686
▁নির্ণয়ের	-11.4689
▁ভারতবর্ষে	-11.4689
▁ছয়জন	-11.4696
▁টোবাগো	-11.4696
▁বিশেষ্য	-11.4697
▁স্টোর	-11.4699
▁রিলে	-11.4699
▁পেতেন	-11.4701
▁সম্পর্ককে	-11.4702
▁খালেদ	-11.4702
▁দায়ের	-11.4703
▁ছদ্মনামে	-11.4704
স্য	-11.4706
▁মহেন্দ্র	-11.4709
▁চৌদ্দ	-11.4712
▁পোড়ামাটির	-11.4712
▁অর্পণ	-11.4712
▁ক্ষতিপূরণ	-11.4712
▁পৌঁছান	-11.4712
▁গ্রামাঞ্চলে	-11.4712
▁চাহিদার	-11.4713
▁আক্তার	-11.4713
▁কাগজে	-11.4714
▁আমাজন	-11.4714
▁প্রস্তুতিমূলক	-11.4715
▁কথাসাহিত্যিক	-11.4715
▁মেলবোর্নে	-11.4716
▁ওয়ালেস	-11.4717
▁সায়েন্সেস	-11.4717
▁উজবেক	-11.4718
▁সংবলিত	-11.4719
▁দড়ি	-11.472
▁তৈরীতে	-11.4721
▁আহার	-11.4722
▁সরানো	-11.4722
▁ফটো	-11.4725
▁এ্যান্ড	-11.4725
স্টে	-11.4725
▁নবাবের	-11.4726
ভূত	-11.4726
ফিক	-11.4728
্টা	-11.4733
▁১৮৭৫	-11.4734
▁নন্দ	-11.4734
▁রোমানিয়া	-11.4735
ক্ষমতা	-11.4739
▁রামচন্দ্র	-11.4746
▁মাদ্রাসার	-11.4747
▁রোমের	-11.4748
▁অভিমুখে	-11.4748
▁আরবদের	-11.4748
▁সংস্করণটি	-11.475
▁প্রোডাকশন	-11.475
▁সুদান	-11.4751
▁ভাট	-11.4752
নব	-11.4752
▁থ	-11.4753
▁হতাহত	-11.4754
▁ধর্মঘট	-11.4754
▁নৌবহর	-11.4754
▁আকাদেমি	-11.4755
▁লিচেস্টারশায়ার	-11.4755
▁শ্রেষ্ঠাংশে	-11.4756
▁হাঙ্গর	-11.4757
▁ইউটিউব	-11.4758
▁হ্যাডলি	-11.4759
▁জামাত	-11.476
▁সিরি	-11.4762
▁সার্কাস	-11.4762
▁জিনোম	-11.4763
▁দুটির	-11.4766
▁অব্যাহতি	-11.4766
▁অন্ধ্র	-11.4767
▁বাঁধে	-11.4769
রক্ষকের	-11.4771
▁দক্ষিণপূর্ব	-11.4772
▁লিভার	-11.4773
land	-11.4775
▁Co	-11.4775
িনো	-11.4776
▁পড়বে	-11.4777
▁শাক্ত	-11.4778
▁মেলায়	-11.4782
▁দশা	-11.4782
ঙা	-11.4787
গর্ভ	-11.4791
▁আও	-11.4792
▁কমার্স	-11.4792
▁অম্ল	-11.4793
▁পিকচার	-11.4793
▁আস্থা	-11.4796
▁আমন্ত্রিত	-11.4797
▁দামোদর	-11.4797
▁প্লাটফর্ম	-11.4797
▁কান্দাহার	-11.4797
▁ঘৃণা	-11.4797
▁লায়লা	-11.4797
ওয়েস্ট	-11.4797
▁বসিয়ে	-11.4799
▁সেনাপ্রধান	-11.4799
▁সিল্ক	-11.48
জীবী	-11.48
▁প্রতিশব্দ	-11.4802
▁ভূটান	-11.4802
▁১৮৬৭	-11.4803
▁অণুজীব	-11.4805
চী	-11.4814
▁১৮৬২	-11.4814
▁মরু	-11.4815
▁দিবসে	-11.4819
▁বিন্যস্ত	-11.4822
▁সাঁ	-11.4822
▁দক্ষিণাংশে	-11.4824
▁বর্ণমালার	-11.4825
end	-11.4825
▁ডুবোজাহাজ	-11.4827
▁আরবে	-11.4828
কোড	-11.4829
mer	-11.4829
ক্ষা	-11.483
▁নার্স	-11.4831
▁কাঁধে	-11.4831
▁রাশ	-11.4834
▁ডেনমার্ক	-11.4834
▁কড়া	-11.4835
▁হোমস	-11.4838
▁কংক্রিট	-11.484
▁গর্ভধারণ	-11.484
▁তদানী	-11.484
▁ডেমোক্রেটিক	-11.484
▁চ্যাপ্টা	-11.484
▁প্রামাণ্যচিত্র	-11.4841
▁পনের	-11.4841
▁আশির	-11.4841
▁কাজকর্ম	-11.4841
▁রাজপুত্র	-11.4842
▁রাজেন্দ্র	-11.4842
▁প্রবীণ	-11.4845
াচার	-11.4846
ডাম	-11.4847
▁মেরিন	-11.4847
▁উপজাতীয়	-11.4849
▁বীর্য	-11.4849
▁বায়ুমণ্ডল	-11.4849
▁মর্	-11.485
▁নিউক্লিয়ার	-11.485
▁ক্যালকাটা	-11.4852
▁ঘুরতে	-11.4853
মাথা	-11.4853
▁Ch	-11.4853
দুল	-11.4853
▁পশতুন	-11.4853
▁সূত্রের	-11.4854
ঘু	-11.4854
▁দত্তক	-11.4854
▁ফ্রম	-11.4855
tro	-11.4855
▁নব্বই	-11.4856
▁শংকর	-11.4856
▁সংমিশ্রণ	-11.4856
▁ভাষাগুলির	-11.4859
বাক	-11.4859
ay	-11.486
▁একাধিকবার	-11.4862
▁ফির	-11.4862
আমরা	-11.4865
▁স্বরাষ্ট্র	-11.4865
▁বজ্র	-11.4866
খানি	-11.4869
▁রেঞ্জ	-11.4871
▁নিবন্ধে	-11.4872
▁জাই	-11.4875
পদ্ধতি	-11.4877
▁ভ্যা	-11.4879
▁ক্যারি	-11.488
ris	-11.4881
▁আভা	-11.4881
▁শয়তান	-11.4882
▁দ্বায়িত্ব	-11.4882
▁ব্যাটালিয়ন	-11.4882
▁গোড়াপত্তন	-11.4882
▁কার্নেল	-11.4883
▁গ্যালাক্সি	-11.4883
au	-11.4883
▁মুন্সিগঞ্জ	-11.4883
▁কলি	-11.4885
▁থেরাপি	-11.4885
মাস্টার	-11.4886
▁খৎনা	-11.4887
▁এম্পায়ার	-11.4888
▁পাঠ্য	-11.4888
▁পশতু	-11.4888
▁বলিউডে	-11.4889
▁সমাজকর্মী	-11.489
▁সুতা	-11.489
▁পাইথন	-11.489
টর	-11.489
▁নগদ	-11.4891
প্রকার	-11.4894
▁লিংক	-11.4894
▁বিলুপ্তির	-11.4894
▁অনুপস্থিতিতে	-11.4897
▁মুম্বইয়ে	-11.4898
▁ঋণাত্মক	-11.4899
▁বডি	-11.49
▁১৮৬১	-11.4903
মুল	-11.4904
org	-11.4907
▁ভাবনা	-11.4909
▁জেফ	-11.4911
োলজি	-11.4912
▁বুদ্ধিমত্তা	-11.4913
িউ	-11.4914
▁অস্ত্রের	-11.4919
▁বারে	-11.492
ন্তে	-11.4925
▁বেক	-11.4925
▁চিন্তাবিদ	-11.4926
তুন	-11.4927
▁অগস্ট	-11.4927
ক্ষন	-11.4929
▁দেশেই	-11.4929
▁দেখানোর	-11.493
▁ব্যস্ততম	-11.493
▁ঈ	-11.493
▁Ar	-11.4934
চট্টগ্রাম	-11.4934
▁অসুর	-11.4935
▁ষোল	-11.4935
▁খেলাগুলো	-11.4937
▁নিলেও	-11.4938
মণি	-11.4938
ড়িয়ে	-11.494
▁বিশেষণ	-11.4941
▁প্রে	-11.4941
▁খেলোয়াড়কে	-11.4942
▁১৮৭২	-11.4944
▁কর্মীরা	-11.4944
▁ম্যাগাজিনে	-11.4945
▁মহাদেশে	-11.4946
ভিয়া	-11.4948
▁ছাত্রীদের	-11.4949
▁এইডস	-11.4949
▁সিয়া	-11.495
▁হতাশা	-11.4952
▁প্রস্তুতকারক	-11.4956
▁বিজয়ীদের	-11.4958
▁উষ্ণতা	-11.4959
▁আর্ম	-11.4959
▁পুজো	-11.496
▁পূর্বাঞ্চল	-11.496
স্টো	-11.4961
▁তালাক	-11.4962
▁মাঙ্গা	-11.4964
▁বাজারজাত	-11.4967
আম	-11.4968
▁শাস্ত্রে	-11.4969
▁ট্যাবলেট	-11.4969
▁বিভাগটি	-11.4969
▁তারই	-11.4969
▁স্যামসাং	-11.4969
▁অমান্য	-11.497
▁উত্তরসূরী	-11.497
▁ভাসমান	-11.497
▁আওয়াজ	-11.497
▁অরুণ	-11.4972
▁ভরে	-11.4973
য়ী	-11.4973
▁হোন	-11.4973
▁নামায	-11.4974
▁সংকোচন	-11.4975
▁ব্যর্থতা	-11.4975
▁সার্ভে	-11.4975
▁২২টি	-11.4975
▁কার্লোস	-11.4975
▁নির্বাক	-11.4976
▁যীশু	-11.4977
▁প্রতিযোগীতায়	-11.4977
অর	-11.4977
▁টাটা	-11.4978
▁টানেল	-11.4979
▁কট	-11.498
▁কেন্দ্রস্থল	-11.4983
ায়ণ	-11.4983
▁মেহেরপুর	-11.4983
▁সঙ্গ	-11.4983
েস্ট	-11.4987
ium	-11.4987
▁গিরি	-11.4988
▁আইনসভা	-11.499
কোলা	-11.4993
▁ময়দা	-11.4994
▁পাইপ	-11.4996
▁টেইলর	-11.4997
▁রাষ্ট্রবিজ্ঞান	-11.4999
ীকৃত	-11.5
▁হীরা	-11.5001
▁এটিতে	-11.5004
▁(19	-11.5005
www	-11.5012
▁তাড়াতাড়ি	-11.5012
▁বহিষ্কার	-11.5012
▁this	-11.5012
▁অভিযোজন	-11.5012
()	-11.5013
▁পুরসভা	-11.5014
▁স্বায়ত্তশাসিত	-11.5017
▁টেকনিক্যাল	-11.502
▁চেয়েছিল	-11.5022
▁মতন	-11.5022
▁অশ্ব	-11.5022
▁v	-11.5023
▁৫০০০	-11.5024
▁গ্র	-11.5024
oc	-11.5024
বিয়া	-11.5025
▁পেরি	-11.5026
▁কম্পিউটিং	-11.5027
▁মিলি	-11.5027
▁সেইন্ট	-11.5031
▁কর্মসূচির	-11.5034
▁বিন্দুর	-11.5035
▁ব্রো	-11.5035
▁জমিদারী	-11.5036
da	-11.5038
▁নরওয়ে	-11.5041
▁হারানো	-11.5042
▁হলদে	-11.5042
▁কেনা	-11.5045
▁বারান্দা	-11.5045
▁’	-11.5046
▁খ্রিস্টধর্ম	-11.5047
য়ার্ড	-11.5047
▁জবাবে	-11.5047
টিস	-11.5049
▁সম্	-11.505
▁পরামর্শে	-11.505
▁ভুমিকা	-11.505
ময়ী	-11.5051
▁ভিসা	-11.5053
▁শির	-11.5053
▁এরপূর্বে	-11.5056
▁অলংকার	-11.5056
▁তীর্থঙ্কর	-11.5056
▁গর্ভবতী	-11.5056
▁সামঞ্জস্যপূর্ণ	-11.5057
▁আলিয়া	-11.5057
▁বর্ন	-11.5058
▁তালিবান	-11.5059
▁কর্তা	-11.5061
▁মানদণ্ড	-11.5061
▁বিমল	-11.5061
ব্রত	-11.5062
▁কবিদের	-11.5067
১৯৯১	-11.5069
▁দোল	-11.5069
▁লাস্ট	-11.5069
▁ভিলা	-11.5071
ৎজ	-11.5071
▁সেক্টরে	-11.5071
▁শিন	-11.5072
গাম	-11.5073
ure	-11.5077
হিন্দু	-11.5078
▁টেক্সট	-11.5081
▁প্রতিনিধিদল	-11.5081
▁মেঝে	-11.5083
▁ডাউন	-11.5084
▁ভেজা	-11.5085
শব্দ	-11.5086
▁সম্ভবতঃ	-11.5087
▁স্বপ্নের	-11.5088
হক	-11.5088
▁প্রাপ্তি	-11.509
শেষ	-11.5092
▁লক্ষ্যমাত্রা	-11.5096
মুক্তি	-11.5097
▁আশি	-11.5098
▁নির্মল	-11.5099
▁ম্যারাথন	-11.51
▁এড়াতে	-11.51
▁নিউজিল্যান্ডে	-11.5101
▁পারদর্শিতা	-11.5102
▁আইওএস	-11.5102
▁ব্যক্তিরা	-11.5102
▁সোহরাওয়ার্দী	-11.5102
▁উদ্ভাবক	-11.5104
▁দানের	-11.5106
▁জ্যোতিষ	-11.5106
▁মেমোরি	-11.5106
মুসলিম	-11.5106
▁কিছুদিনের	-11.5107
ip	-11.5107
▁ছায়াছবিটি	-11.5107
▁মিটারের	-11.5109
▁আগামী	-11.5109
▁শতাংশের	-11.5109
কলকাতা	-11.511
শালী	-11.5111
▁সত্ত্বা	-11.5111
▁সার্চ	-11.5112
দুন	-11.5113
বহুল	-11.5115
প্রি	-11.5116
▁শিকারের	-11.5116
১৯৭৩	-11.5116
▁অঞ্চলটির	-11.5118
▁নামটির	-11.5118
▁রাবার	-11.5118
ঁচ	-11.5119
▁বাগানে	-11.5119
ঢ়	-11.512
বলে	-11.5121
▁বৃত্তের	-11.5122
▁ইস্যু	-11.5123
▁বানানোর	-11.5124
সাধারণ	-11.5124
▁রড	-11.5126
▁ma	-11.5126
▁বিষয়গুলি	-11.5127
▁ওয়াহ	-11.5128
▁বাছাইপর্বে	-11.5128
পিসি	-11.5128
▁ববি	-11.513
▁জজ	-11.5131
ব্রো	-11.5133
▁জয়নগর	-11.5133
▁পাওয়ায়	-11.5135
▁হাওয়া	-11.5135
▁ব্যাটারি	-11.5136
কারের	-11.5137
ওয়েট	-11.5142
▁তাৎপর্য	-11.5143
▁মতাদর্শ	-11.5144
▁অবিচ্ছেদ্য	-11.5144
▁ক্রেডিট	-11.5144
▁আশুতোষ	-11.5144
▁মজুদ	-11.5144
▁দায়িত্বপ্রাপ্ত	-11.5144
▁ব্যায়াম	-11.5144
pa	-11.5146
▁রক্ষণভাগ	-11.5146
▁কার্যনির্বাহী	-11.5146
বিজয়	-11.5149
বিহার	-11.515
▁মাঝের	-11.5153
োয়ার	-11.5155
ব্রহ্ম	-11.5157
ঘন্টা	-11.5158
▁কঙ্কাল	-11.5161
▁আসক্তি	-11.5163
▁গ্রিস	-11.5164
▁জলপথ	-11.5164
▁অফিসের	-11.5165
▁দানা	-11.5167
হাতি	-11.5169
▁আসিফ	-11.5169
▁ট্যাক্সি	-11.517
▁কাচা	-11.5176
পিত	-11.5178
ণি	-11.5181
▁ব্রাহ্ম	-11.5181
পূ	-11.5182
▁পদার্থবিদ	-11.5184
▁বর্ণনায়	-11.5184
▁দ্বীপপুঞ্জে	-11.5185
▁আবশ্যক	-11.5185
▁কিল	-11.5185
▁অপরিবর্তিত	-11.5188
▁পর্বতশৃঙ্গ	-11.5188
▁অগভীর	-11.5189
▁খানিকটা	-11.5189
▁ফোটে	-11.519
রাজ্য	-11.5193
▁দলনেতা	-11.5194
▁মুছে	-11.5195
▁তাজিক	-11.5196
▁কর্তব্য	-11.5197
শক্তির	-11.5198
▁সামার	-11.52
▁সহজাত	-11.5202
▁দাঁতের	-11.5203
▁হাওয়াই	-11.5203
▁সাইদ	-11.5204
▁পরিকল্পনায়	-11.5209
▁উত্	-11.5209
▁ধাঁচের	-11.5211
▁কার্ট	-11.5212
▁অভিষেকে	-11.5212
▁জেতে	-11.5213
▁উচ্চশিক্ষা	-11.5216
▁ফেলুদা	-11.5217
ton	-11.5218
▁বঙ্গের	-11.5219
▁শৈলীর	-11.5219
▁মস	-11.522
▁একাংশ	-11.5222
▁লাইনে	-11.5222
্রা	-11.5222
ন্দ্রা	-11.5224
সিডি	-11.5225
োভ	-11.5226
▁কেন্দ্রস্থলে	-11.5231
▁অটোরিক্সা	-11.5233
▁শ্যুটিং	-11.5233
▁জলবিদ্যুৎ	-11.5233
▁জিনিসপত্র	-11.5235
▁ইভ	-11.5236
▁গুটিয়ে	-11.5237
ner	-11.524
▁আকাশের	-11.5241
▁জ্যোতির্বিদ্যা	-11.5241
▁আশ্বিন	-11.5242
▁শুঙ্গ	-11.5242
যখন	-11.5243
▁সামগ্রিকভাবে	-11.5244
▁রৈখিক	-11.5245
▁পৌঁছানোর	-11.5245
▁ফেমে	-11.5245
▁নেতার	-11.5246
▁ট্রেনের	-11.5246
▁আইনসভার	-11.5246
▁কুখ্যাত	-11.5249
▁গুরুত্বের	-11.5252
▁আইনগত	-11.5255
▁৩৬০	-11.5255
▁২০২০	-11.5256
▁ডগ	-11.5257
▁ব্রড	-11.5257
শক	-11.5257
▁ফলিত	-11.5264
▁লেই	-11.5264
▁শরৎ	-11.5265
▁মার্শ	-11.5265
▁বাইরেও	-11.5265
▁গ্রীষ্মের	-11.5271
ina	-11.5271
▁পারলে	-11.5272
▁ইর	-11.5272
াচার্য	-11.5273
রুল	-11.5274
ডল	-11.5274
▁অনবদ্য	-11.5277
▁মহেশখালী	-11.5278
▁চকরিয়া	-11.5278
▁ফোকাস	-11.5279
▁মৃদু	-11.5279
জিং	-11.5281
▁ইচ্ছে	-11.5283
িফ	-11.5284
▁ফাঁকা	-11.5284
▁কেল্লা	-11.5285
▁অভিবাসন	-11.5287
▁জবাব	-11.5288
▁রসায়নের	-11.529
▁ভৌতিক	-11.5291
▁আইএসও	-11.5292
তথাকথিত	-11.5295
োনি	-11.5296
▁জনসাধারণ	-11.5298
▁ফজল	-11.5299
পথে	-11.5299
▁ধরেই	-11.5299
▁এডি	-11.5299
▁মাংসের	-11.53
▁গোলাপী	-11.53
▁গতিপথ	-11.5301
জ্জা	-11.5301
▁মোকাবিলা	-11.5302
▁বার্মার	-11.5302
▁বিটা	-11.5303
▁গারো	-11.5303
▁রাজকুমারী	-11.5303
ন্দো	-11.5305
াউ	-11.5306
▁শোভা	-11.5307
▁কামিল	-11.5307
জীবনের	-11.5308
▁পারতো	-11.5308
▁নামাজের	-11.5311
▁নেপালি	-11.5314
▁এগুলিকে	-11.5315
▁কুরু	-11.5316
▁অমৃত	-11.5319
▁ক্লো	-11.5319
▁শ্রীপুর	-11.532
য়াত	-11.5322
▁অঞ্চলগুলি	-11.5322
▁পিরোজপুর	-11.5322
▁উৎকৃষ্ট	-11.5322
▁সাকিব	-11.5322
▁সবচাইত	-11.5323
▁হিলিয়াম	-11.5323
▁সীমারেখা	-11.5324
েম	-11.5325
▁পেছন	-11.5328
▁ভাঙা	-11.533
▁অজিত	-11.5331
থান	-11.5331
▁শেষপর্যন্ত	-11.5331
▁নেতৃবৃন্দ	-11.5333
▁তারাই	-11.5333
কর্তা	-11.5335
ঞ্জার	-11.5335
ভিস	-11.5336
▁বাজে	-11.5336
▁Na	-11.5336
▁দেখেছেন	-11.5336
▁হত্যাকাণ্ডের	-11.5338
দাই	-11.5338
জেলা	-11.5342
▁পেত	-11.5343
ology	-11.5343
োতে	-11.5344
হ্যাম	-11.5345
প্রাণ	-11.5345
▁শিবিরে	-11.5345
▁Be	-11.5345
▁হুদা	-11.5345
▁পয়সা	-11.5347
▁ন্যাট	-11.535
হাউস	-11.5353
▁কাশ্মীরের	-11.5353
▁পাখনা	-11.5358
▁নকশায়	-11.5362
▁রিচার্ডসন	-11.5362
▁বিহারী	-11.5363
▁বিকাশে	-11.5363
▁ত্বকের	-11.5364
ac	-11.5364
▁ছি	-11.5364
▁ইবরাহিম	-11.5367
▁বিস্ফোরক	-11.5367
▁হার্বার্ট	-11.5367
▁স্বাস্থ্যসেবা	-11.5368
▁উপমহাদেশ	-11.5369
▁নরসিংদী	-11.5371
▁প্রদেশটি	-11.5371
▁ক্রিয়ার	-11.5372
▁উড়িষ্যার	-11.5373
▁ওয়াইন	-11.5373
▁ক্যারল	-11.5375
▁স্বেচ্ছায়	-11.5376
▁ফসলের	-11.5377
▁রতন	-11.5378
▁পারসিক	-11.5379
▁বার্লিনে	-11.538
▁প্রতিকূল	-11.5382
▁আর্সেনাল	-11.5384
▁করানোর	-11.5384
▁হারাম	-11.5388
▁মঞ্জুর	-11.5389
▁পাখিটি	-11.539
▁প্রকরণ	-11.5391
▁গলায়	-11.5392
দানের	-11.5392
▁হ্যারিস	-11.5392
্লা	-11.5392
▁সহযোগিতার	-11.5393
▁মানস	-11.5394
che	-11.5397
▁অন্যায়	-11.5398
ছাত্রীদের	-11.5398
▁নিবেদিত	-11.5398
▁সংগ্রামে	-11.54
▁বেঙ্গালুরু	-11.5401
মন্ত্র	-11.5401
য়ায়	-11.5404
▁Me	-11.5404
▁স্ট	-11.5407
লেই	-11.5407
▁পরোক্ষ	-11.5408
▁পরিমানে	-11.5409
▁রাইস	-11.5409
সুলভ	-11.5409
▁খেয়াল	-11.541
বিবাহ	-11.5411
▁হাঙর	-11.5412
▁প্রশিক্ষন	-11.5412
▁শূককীট	-11.5412
▁ম্যালেরিয়া	-11.5413
▁ফাটল	-11.5413
▁ব্যারিস্টার	-11.5413
▁স্লোগান	-11.5413
▁সাপোর্ট	-11.5414
▁কাউ	-11.5414
▁কাপড়ের	-11.5414
▁খেজুর	-11.5415
▁নূরুল	-11.5415
▁প্রথমটি	-11.5417
সত্য	-11.5418
▁একপর্যায়ে	-11.5418
হানি	-11.5419
▁সন্তোষ	-11.542
স্রোং	-11.5421
▁9	-11.5421
▁খোঁজে	-11.5422
▁ছে	-11.5422
▁গেমটি	-11.5423
tes	-11.5425
▁জানেন	-11.5425
▁তিথিতে	-11.5425
পুরী	-11.5426
১৯৬২	-11.5428
▁বস্তুকে	-11.5431
▁কাশি	-11.5432
▁প্রচারক	-11.5433
▁ওয়াইল্ড	-11.5434
▁অক্ষত	-11.5434
▁অবগত	-11.5435
▁কোলা	-11.5436
▁সিরিয়ান	-11.5437
▁পেরুর	-11.5438
▁হ্যারিকে	-11.5438
▁17	-11.5439
হীনতা	-11.5441
সারি	-11.5441
োনা	-11.5444
▁বাড়ানোর	-11.5445
▁Ca	-11.5446
▁সতর্কতা	-11.5446
ধাম	-11.5448
▁মরক্কো	-11.545
▁ভাঙন	-11.5453
▁কানা	-11.5454
▁জ্যৈষ্ঠ	-11.5458
▁ফ্রিকোয়েন্সি	-11.5458
▁বন্দোবস্ত	-11.5458
▁লিঙ্গানুপাত	-11.5458
▁ডলফিন	-11.5458
▁ফ্রিস্টাইল	-11.5458
▁বাড়াতে	-11.5458
▁নানাবিধ	-11.5459
▁ফরওয়ার্ড	-11.5459
▁ড্যান	-11.5459
▁ইয়র্কে	-11.5461
▁রূপরেখা	-11.5463
▁বছরগুলোতে	-11.5466
▁পথটি	-11.5472
▁বিকৃত	-11.5475
এখানে	-11.5476
▁জেনেটিক	-11.5477
গাই	-11.5478
con	-11.5478
▁দিগন্ত	-11.548
▁India	-11.5481
▁মুস	-11.5482
▁un	-11.5482
▁কাউন্টিতে	-11.5485
▁বাইবেলের	-11.5486
▁কনফারেন্স	-11.5488
▁পর্যবেক্ষক	-11.5489
▁পুরুষে	-11.5489
হিম	-11.549
▁ইসলামাবাদ	-11.5496
▁উদ্যানটি	-11.5497
স্তো	-11.5498
▁হ্যাম	-11.5499
েয়	-11.55
▁সফটওয়্যারের	-11.55
গ্রহ	-11.5501
▁দিলেও	-11.5502
▁কাজগুলো	-11.5503
▁খোরাসান	-11.5504
▁ডেট্রয়েট	-11.5504
▁উল্টো	-11.5504
ল্প	-11.5505
▁জনঘনত্ব	-11.5505
▁বন্ধুত্বপূর্ণ	-11.5505
▁প্যাটেল	-11.5506
▁নৃত্যের	-11.5507
▁one	-11.5507
▁আপিল	-11.5508
▁দৈব	-11.5509
▁শ্রেণীবিভাগ	-11.551
▁ইলেকট্রনিক্স	-11.5511
▁উপপাদ্য	-11.5512
হেড	-11.5514
এশিয়াটিক	-11.5515
▁দৃশ্যে	-11.5516
▁জগ	-11.5517
▁ছাত্রছাত্রীদের	-11.5517
▁পৃষ্ঠপোষকতায়	-11.552
▁মসলা	-11.5521
▁এড়ানো	-11.5521
▁সিলেটে	-11.5521
▁স্টি	-11.5522
▁ঠোঁটের	-11.5522
▁ছাত্রলীগের	-11.5524
▁মেলার	-11.5525
▁মিসেস	-11.5527
পশ্চিমাঞ্চলে	-11.5528
▁দলগত	-11.553
▁লাস	-11.5532
▁তাক	-11.5532
▁সতী	-11.5535
তক	-11.5535
▁নেভি	-11.5537
▁মারাঠাদের	-11.5537
▁রানি	-11.5537
▁মরণোত্তর	-11.5538
▁এলাকাতে	-11.5538
▁চিল	-11.5538
শিয়ান	-11.554
▁রাত্রি	-11.5545
খোলা	-11.5546
▁জীবনকে	-11.5547
▁ফ্যাক্টর	-11.5548
▁উল্লেখযোগ্যভাবে	-11.5549
▁টিস্যু	-11.5549
▁পান্ডুলিপি	-11.5549
▁কাসিম	-11.555
▁শরৎচন্দ্র	-11.555
▁শহরটিতে	-11.555
▁বন্টন	-11.5551
▁মেল	-11.5552
▁মিনা	-11.5552
▁কেরি	-11.5554
▁পাদ	-11.5555
▁ইউক্রেন	-11.5555
▁সংবাদপত্রে	-11.5558
▁১০৮	-11.5559
▁ইত্যাদিতে	-11.556
▁ট্রেনে	-11.5562
▁ইলেকট্রিক	-11.5564
▁অনা	-11.5565
▁সরকারিভাবে	-11.5565
হুয়া	-11.5565
১৯৭৫	-11.5569
হত্যা	-11.5569
▁ক্রীড়ায়	-11.5571
▁লাম	-11.5571
ইক	-11.5572
▁সমাস	-11.5573
রিও	-11.5573
িডি	-11.5574
▁বেগুনি	-11.5574
▁জনগণকে	-11.5576
ক্রে	-11.5577
▁বাছাইপর্বের	-11.558
▁মথুরা	-11.5582
▁সিলভা	-11.5582
প্রবণ	-11.5585
ধরনের	-11.5586
▁সংগ্রহশালা	-11.5586
▁পূজিত	-11.5586
রাঃ	-11.5588
▁টুপি	-11.5589
▁পাঁচবার	-11.5591
▁বললে	-11.5591
▁শান্তিপূর্ণ	-11.5592
ান্তর	-11.5594
▁বিলবোর্ড	-11.5595
▁কপিরাইট	-11.5596
▁শাকিব	-11.5596
▁অদূরে	-11.5596
▁সুকুমার	-11.5597
দিনের	-11.5598
▁লিগে	-11.5599
▁আইনী	-11.56
▁কাঁঠাল	-11.56
সাধারণত	-11.5602
▁সাইবার	-11.5603
▁কাজাখ	-11.5604
▁১০২	-11.5605
▁পেরেছেন	-11.5605
▁মহলে	-11.5608
▁এলো	-11.5608
ধন	-11.5608
▁সেমিনার	-11.5609
no	-11.5611
১৯৮৭	-11.5612
▁চেইন	-11.5613
▁ইতি	-11.5614
▁খাদ	-11.5614
করে	-11.5614
বিদ্যায়	-11.5614
হয়	-11.5618
▁নেদারল্যান্ড	-11.5618
▁লেবার	-11.5618
▁রীতির	-11.562
▁স্প্রিং	-11.5622
▁ওড়িয়া	-11.5623
▁অণুর	-11.5628
▁আলজেরিয়া	-11.5636
▁১০৩	-11.5639
▁মুক্তিবাহিনী	-11.5639
শিব	-11.564
নকে	-11.5642
▁মুফতি	-11.5642
▁সুবিশাল	-11.5642
▁ত্রিমাত্রিক	-11.5642
▁মহাপরিচালক	-11.5642
▁লেফট	-11.5643
▁প্রবাল	-11.5645
▁বিলুপ্তি	-11.5645
▁কন্	-11.5647
▁পরোক্ষভাবে	-11.5647
▁নির্মানের	-11.5648
▁সাইন্স	-11.565
নাশক	-11.565
▁বোল	-11.5652
সাহিত্য	-11.5652
শিন	-11.5653
▁প্লেস	-11.5659
▁চক্ষু	-11.566
io	-11.5661
▁Ma	-11.5661
▁শূন্যস্থান	-11.5662
▁ভাদ্র	-11.5664
মায়ের	-11.5664
পরবর্তীতে	-11.5664
মায়া	-11.5665
▁চলচ্চিত্রগুলো	-11.5665
▁ex	-11.5665
ea	-11.5667
টাইপ	-11.5669
ভিক	-11.5669
port	-11.5669
▁যাত্রার	-11.567
নুর	-11.567
▁আমল	-11.567
▁ওসমানী	-11.5671
▁মঙ্গোলিয়া	-11.5671
▁বেইলি	-11.5673
▁যতীন	-11.5674
প্ল	-11.5676
ীম	-11.5677
ক্রিয়া	-11.5682
মিনি	-11.5682
প্রবাহ	-11.5683
▁সুমাত্রা	-11.5684
যোগে	-11.5687
▁কচি	-11.5687
▁নাটাল	-11.5688
▁হজ্জ	-11.5688
▁ক্যান্টারবারি	-11.5688
▁পথিকৃৎ	-11.5688
▁যাযাবর	-11.5688
▁মার্গারেট	-11.5688
▁সুউচ্চ	-11.569
red	-11.569
▁নারকেল	-11.5692
▁অনেকাংশে	-11.5694
▁জঁ	-11.5696
দ্রা	-11.5697
▁অরবিন্দ	-11.5699
▁শীল	-11.57
▁বৈধতা	-11.5702
▁কপিল	-11.5702
ring	-11.5705
▁উদযাপ	-11.5706
▁কং	-11.5706
কানুন	-11.5707
▁ইয়েমেনের	-11.571
▁সিড	-11.571
▁ইলা	-11.5714
ম্বো	-11.5718
▁এবিসি	-11.572
▁ইমেজ	-11.5722
▁পিয়া	-11.5723
▁কলম্বিয়ার	-11.5724
▁নির্দেশনায়	-11.5725
▁Ha	-11.5725
▁করিয়া	-11.5725
শতকের	-11.5726
▁বর্ননা	-11.5727
▁ওয়াক	-11.5727
দোন	-11.5728
▁আইনস্টাইন	-11.5728
18	-11.5729
টাউন	-11.5731
▁পরিণতি	-11.5732
▁পুনে	-11.5733
পাট	-11.5733
িস্তান	-11.5735
▁মিডফিল্ডার	-11.5735
▁বক্ষ	-11.5735
▁ঐক্যবদ্ধ	-11.5735
▁মালদহ	-11.5736
▁অসমে	-11.5738
লীলা	-11.5738
▁কৌশলের	-11.5739
▁ইম্পেরিয়াল	-11.5739
▁মন্ত্রীসভা	-11.5739
ট্টি	-11.5742
▁নেবার	-11.5743
▁জ্যামিতি	-11.5743
কান্দি	-11.5743
ight	-11.5744
▁মণিপুরী	-11.5744
▁বিধ্বস্ত	-11.5745
▁আড়ালে	-11.5747
ন্দু	-11.5749
▁বলকান	-11.5749
▁so	-11.5749
▁20	-11.5749
▁১৮৫০	-11.575
▁হ্যান্ড	-11.5751
াইজেশন	-11.5753
১৯৭৬	-11.5753
▁জরায়ু	-11.5754
▁কলার	-11.5755
▁সংখ্যাগরিষ্ঠতা	-11.5755
▁চাষাবাদ	-11.5755
▁ডেম	-11.5755
ম্ম	-11.5756
▁ব্যক্তিবর্গ	-11.5756
এমএস	-11.5757
▁জামা	-11.5758
▁১২০০	-11.5759
▁মদিনায়	-11.5762
▁নগরে	-11.5763
কুর	-11.5765
▁ব্রাজিলে	-11.5768
সেং	-11.5769
ال	-11.5771
▁ব্লাড	-11.5772
▁ময়দানে	-11.5773
▁আম্	-11.5773
▁ভগ্ন	-11.5774
▁বেগে	-11.5775
নোস	-11.5775
জাল	-11.5777
▁টিকেট	-11.5779
▁জগত	-11.5781
▁গ্রাস	-11.5782
▁অন্তর্নিহিত	-11.5782
▁দ্রৌপদী	-11.5782
▁প্রতারণা	-11.5782
▁প্রবর্তক	-11.5782
▁ভগিনী	-11.5782
▁রমজান	-11.5782
▁উচ্ছেদ	-11.5783
▁ঙ্গোর	-11.5783
▁অ্যাংলো	-11.5784
কারীর	-11.5785
▁অলি	-11.5786
▁প্রার্থীতা	-11.5787
পুকুর	-11.5787
▁হনুমান	-11.5788
▁চিত্রকর	-11.579
▁ট্র	-11.5791
▁নিশ্চয়তা	-11.5792
▁শ্রাবণ	-11.5793
▁্যাঙ্কিং	-11.5793
▁অনশন	-11.5794
▁গৌণ	-11.5795
বাস্তব	-11.5797
সর্বোচ্চ	-11.5798
▁ডেটা	-11.58
মায়	-11.58
▁কল্যাণী	-11.5803
▁বানাতে	-11.5804
নেল	-11.5805
▁চ্যাপেল	-11.5806
হারে	-11.5808
হন	-11.5808
▁তরুন	-11.5809
▁ইন্টারনেটে	-11.581
গ্রো	-11.5811
▁ব্যবহারকারীরা	-11.5814
কশন	-11.5815
▁গীতা	-11.5815
▁বিভক্তি	-11.5815
▁ইউনিভার্সিটিতে	-11.5816
▁ধরেছেন	-11.5816
ক্ট	-11.5817
▁প্রজাতিটিকে	-11.5821
▁বাঁকা	-11.5822
▁সল	-11.5824
▁জলীয়	-11.5825
▁জিডিপি	-11.5826
▁ট্যাংক	-11.5826
▁কক্ষপথে	-11.5827
▁বিদ্রোহে	-11.5828
▁ব্যানার্জী	-11.5829
▁ম্যাসাচুসেটস	-11.5829
▁চমকপ্রদ	-11.5829
▁হুসেইন	-11.5829
▁অস্ত্রশস্ত্র	-11.5829
▁বর্গমাইল	-11.583
▁এনজিও	-11.5831
▁মিশনারি	-11.5831
▁র্ন্যিং	-11.5831
▁খাজনা	-11.5832
▁বাঁকানো	-11.5832
▁নিয়মের	-11.5834
▁অত	-11.5834
জেড	-11.5835
▁প্রতিষ্ঠানগুলো	-11.5837
▁একাডেমীর	-11.5837
▁একথা	-11.5837
▁সাময়িকভাবে	-11.5837
▁স্ত্রীকে	-11.5839
▁ইউক্রেনের	-11.5841
▁অনলাইনে	-11.5843
াইয়া	-11.5843
▁ঘনিষ্ঠভাবে	-11.5845
১৯৭৮	-11.5849
জীব	-11.5849
▁ওমানের	-11.585
▁সর্প	-11.5851
▁বার্	-11.5856
▁বাতাসে	-11.5858
এয়ার	-11.5859
ae	-11.5859
mon	-11.5862
▁ডাকাত	-11.5862
সিএল	-11.5863
▁সপ্ত	-11.5864
বেদ	-11.5864
▁কমানোর	-11.5865
চিন	-11.5868
▁ক্লাসিক	-11.5868
যো	-11.5869
▁ক্ল	-11.5869
▁ওয়েল	-11.587
▁হের	-11.5873
▁মিডল	-11.5873
▁মৌর্য	-11.5874
ণ্ট	-11.5875
সর্ব	-11.5875
▁পরিকাঠামো	-11.5877
▁অ্যান্টার্কটিকা	-11.5877
▁মোহনা	-11.5877
▁অলঙ্কার	-11.5877
▁স্বাক্ষরতা	-11.5877
▁খোলার	-11.5878
▁অভিব্যক্তি	-11.5879
▁বাল্যবিবাহ	-11.5881
▁চিত্ত	-11.5881
ness	-11.5882
▁আশ্চর্য	-11.5883
▁বলবিদ্যা	-11.5886
▁পুড়ে	-11.5886
▁দীঘি	-11.5887
▁খার	-11.5888
▁ঢোল	-11.589
সল	-11.5892
▁চিত্রে	-11.5892
▁লুকাস	-11.5892
▁অ্যালিস	-11.5893
▁শত্রুর	-11.5893
▁অ্যানো	-11.5894
▁বর্ডার	-11.5896
▁কিছুক্ষণ	-11.5896
▁খানম	-11.5896
১৯৭১	-11.5896
▁তামার	-11.5897
আঃ	-11.5897
▁অনুমিত	-11.5899
োভা	-11.5901
▁গোলক	-11.5903
▁গুজরাত	-11.5903
▁পিঠা	-11.5903
▁সৈন্যদল	-11.5905
▁ইংরেজরা	-11.5911
min	-11.5911
go	-11.5911
▁ডলারে	-11.5911
▁পন্ডিতের	-11.5916
▁সেভেন	-11.5916
▁একাকী	-11.5918
▁দেশকে	-11.5918
▁ফ্রেম	-11.5921
▁ছায়াপথের	-11.5922
▁সোশ্যাল	-11.5924
▁ইউরেনিয়াম	-11.5924
▁মেরিলেবোন	-11.5924
▁ক্ষমতাসীন	-11.5924
▁নিষ্পত্তি	-11.5924
▁ঘটা	-11.5925
▁যুদ্ধবিরতি	-11.5925
▁জালালাবাদ	-11.5925
▁যোনি	-11.5926
br	-11.5926
▁ধারণক্ষমতা	-11.5927
▁সরদার	-11.5927
▁মহাদেব	-11.5929
▁রবিনসন	-11.593
▁পৃথকভাবে	-11.593
▁চুলের	-11.5931
▁বর্ম	-11.5933
▁মানচিত্রে	-11.5934
▁আইওসি	-11.5935
▁সোনালি	-11.5935
▁বিপ্লবীদের	-11.5936
▁হজ	-11.5938
▁হালিম	-11.5941
▁খেলাতেই	-11.5941
খড়গপুর	-11.5941
এপি	-11.5944
▁সীমানায়	-11.5945
েটিভ	-11.5945
▁মির্জাপুর	-11.5946
১৯৭০	-11.5946
▁মোহিনী	-11.5947
▁চারিদিকে	-11.5949
▁মাজ	-11.5949
▁কাস	-11.5956
সদস্যের	-11.5957
▁বিজয়ে	-11.5959
▁বালু	-11.5965
কন্যা	-11.5967
▁অপরকে	-11.5968
চৌ	-11.5969
▁প্রেসিডেন্সির	-11.5971
ংগ	-11.5971
▁অগ্রদূত	-11.5972
▁যোরহাট	-11.5972
▁বয়কট	-11.5972
▁পদ্মশ্রী	-11.5973
▁মুখপাত্র	-11.5973
ট্রে	-11.5973
▁এলবাম	-11.5974
▁রুপান্তরিত	-11.5975
▁বহুসংখ্যক	-11.5976
▁ড্রামা	-11.5976
▁উগ্র	-11.5976
▁শর	-11.5977
▁কেন্দ্রীভূত	-11.5977
▁সভাপতিত্ব	-11.5977
স্ট্রা	-11.5979
▁১৮৬৪	-11.598
▁জানিয়েছেন	-11.598
▁তেরো	-11.5981
▁চাষী	-11.5982
শিক্ষক	-11.5986
▁দয়া	-11.5987
এসটি	-11.599
▁জীবনযাত্রার	-11.599
▁উপনিষদের	-11.5991
▁উঁচুতে	-11.5992
▁ইউনিভার্সিটির	-11.5992
▁দোষ	-11.5993
াও	-11.5995
▁ব্যারি	-11.5997
▁ইমারত	-11.6
আইন	-11.6001
▁খ্রীস্টাব্দে	-11.6004
▁গানগুলি	-11.6004
▁সানা	-11.6006
▁৯০০	-11.6006
▁অ্যালবামে	-11.6007
ংস	-11.6008
▁গাজা	-11.6009
▁সুমন	-11.601
▁আয়না	-11.601
োরি	-11.6013
▁ম্যাসাচুসেট্	-11.602
▁অভিশাপ	-11.602
▁উগান্ডা	-11.602
▁নেপথ্য	-11.602
▁ক্লাইভ	-11.602
▁জাভেদ	-11.6021
▁আগ্নেয়গিরি	-11.6021
▁অগ্রাধিকার	-11.6021
▁কমিটিতে	-11.6022
▁কার্গো	-11.6022
▁প্রকট	-11.6023
▁পায়রা	-11.6025
▁নির্গমন	-11.6025
▁ক্রুসেড	-11.6027
পক্ষে	-11.6027
▁প্রবাদ	-11.6029
রক্ষা	-11.603
▁রায়ান	-11.6032
▁নিলাম	-11.6032
▁চিফ	-11.6034
▁ধর্মতত্ত্ব	-11.6035
▁উৎসাহী	-11.6036
▁বেলে	-11.6037
▁জারী	-11.604
▁প্রত্যেকেই	-11.604
উরি	-11.6041
"'	-11.6041
▁other	-11.6043
▁গ্রাফিক	-11.6043
চ্ছি	-11.6046
▁চিঠিতে	-11.6046
▁উপসাগরে	-11.6047
▁বৃক্ষের	-11.6047
▁মার্	-11.6047
লেখক	-11.605
সুন্দরী	-11.6053
▁হিজরী	-11.6054
▁খাতের	-11.6054
রিং	-11.6054
▁স্পষ্টভাবে	-11.6056
▁আওয়ার	-11.6057
▁শীর্ষস্থানে	-11.6057
ll	-11.6057
▁কূপ	-11.6062
ছাড়া	-11.6063
▁স্বত্ব	-11.6064
▁বিস্ময়কর	-11.6065
▁স্কু	-11.6066
▁University	-11.6068
▁গ্রেনেড	-11.6068
▁মন্ত্রনালয়	-11.6068
▁পর্য্যন্ত	-11.6068
ব্র্গ্যুদ	-11.6068
▁অবিবাহিত	-11.6068
▁পরিসীমা	-11.6069
▁অভ্যস্ত	-11.6069
▁সূচিত	-11.607
▁পেটেন্ট	-11.607
▁সামর্থ্য	-11.607
▁চামড়ার	-11.6071
▁গণ্ডার	-11.6072
▁রাষ্ট্রপ্রধান	-11.6072
▁পহেল	-11.6073
▁প্রাচুর্য	-11.6073
▁মোশন	-11.6074
▁রিয়েল	-11.6075
▁বাকল	-11.6079
mb	-11.608
▁বৃদ্ধিতে	-11.608
▁উলুম	-11.6083
▁মাধব	-11.6084
▁হইতে	-11.6084
▁হাঁকান	-11.6086
▁কুসুম	-11.6086
িয়ো	-11.609
▁১৮৫৮	-11.609
▁১৮৬৫	-11.6091
▁আহমেদাবাদ	-11.6093
▁সুগন্ধি	-11.6094
▁প্রদীপ	-11.6095
▁৪০টি	-11.6098
▁মার্স	-11.6099
▁তবু	-11.6099
▁ওএস	-11.6101
ুরিয়া	-11.6101
▁no	-11.6105
▁মানবজাতি	-11.6106
রীতি	-11.6113
▁চত্বরে	-11.6115
যুগ	-11.6116
sion	-11.6116
এমসি	-11.6116
▁সীতাকুণ্ড	-11.6117
▁মাথাপিছু	-11.6117
▁অর্গানাইজেশন	-11.6117
▁মিচেল	-11.6117
▁সাহ	-11.6117
র্ত্সে	-11.6118
▁মধুর	-11.6118
▁এইচএসসি	-11.6118
লেক	-11.6119
▁শৈবাল	-11.6119
বিবি	-11.6119
▁দেবীকে	-11.6121
▁লিমিটেডের	-11.6121
▁গায়	-11.6121
▁মাননীয়	-11.6122
খ্রিষ্টপূর্বাব্দ	-11.6122
▁ভিন	-11.6123
▁লম্বাটে	-11.6124
▁ঘানা	-11.6124
▁চালের	-11.6126
▁শীর্ষস্থান	-11.6128
াগার	-11.613
ডাল	-11.613
▁উপজাতির	-11.6131
▁প্রতিজ্ঞা	-11.6132
▁করব	-11.6133
▁স্ম্যাকডাউন	-11.6133
শিলা	-11.6133
ক্রা	-11.6135
▁যেয়ে	-11.6136
▁আওরঙ্গজেব	-11.6139
▁নোয়া	-11.614
▁পাতি	-11.614
▁মালিকের	-11.614
দাদ	-11.614
▁পাতাল	-11.6143
▁পতঙ্গ	-11.6143
▁বিশেষত্ব	-11.6143
▁বার্ক	-11.6144
▁মেটা	-11.6144
▁গাল	-11.6144
▁গাড়িতে	-11.6145
▁রাজ্যপাল	-11.6146
▁স্ট্যা	-11.6147
▁ক্যান্সারের	-11.6147
▁বসার	-11.6147
▁মিস্টার	-11.615
▁ক্রোধ	-11.6152
হিন্দি	-11.6153
▁কিনতে	-11.6153
▁চেনা	-11.6154
ঙ্কো	-11.6154
▁পেজ	-11.6154
▁জড়	-11.6154
▁গ্রীষ্ম	-11.6155
▁দৈর্ঘ্যে	-11.6156
▁একাডেমিতে	-11.6158
▁আগরতলা	-11.6161
▁ফোর্সের	-11.6162
▁আর্টিস্ট	-11.6163
▁পুরী	-11.6163
উইন	-11.6163
▁রুপান্তর	-11.6164
▁নেতাজি	-11.6165
মাহ	-11.6165
▁অ্যালকোহল	-11.6166
▁উত্থাপিত	-11.6166
▁বেঞ্জামিন	-11.6166
▁উচ্চপদস্থ	-11.6166
▁ব্রিগেডিয়ার	-11.6166
▁নিয়ন্ত্রণাধীন	-11.6167
▁ভোটাধিকার	-11.6168
▁কখন	-11.6168
য়েভ	-11.6169
▁গতানুগতিক	-11.6169
▁চিনতে	-11.617
ত্ম	-11.617
▁ফিজি	-11.617
▁কেটেছে	-11.6171
▁জুয়া	-11.6171
▁অষ্ট	-11.6172
▁আপেক্ষিকতা	-11.6173
▁অক্ষয়	-11.6174
▁উইকি	-11.6175
স্বর	-11.6175
▁আউটপুট	-11.6175
▁রক্ষার্থে	-11.6176
▁জামিল	-11.6177
▁হোমো	-11.6178
▁অগ্র	-11.6178
▁উত্তরা	-11.6182
▁১২৮	-11.6183
▁বাঘা	-11.6183
bi	-11.6183
থাল	-11.6183
চল	-11.6185
ম্ভ	-11.6185
▁কথাও	-11.6185
▁কাব্যে	-11.6185
▁সদৃশ	-11.6186
▁রাখাইন	-11.6187
▁প্রতীকী	-11.6187
▁ভারতকে	-11.6188
১৯৮২	-11.6188
▁গোপনীয়তা	-11.6188
▁খেলাগুলোয়	-11.619
১৯৬০	-11.619
▁মিত্রতা	-11.6191
▁রোমে	-11.6191
▁১৮৬৩	-11.6192
▁সাতজন	-11.6192
▁যাদু	-11.6198
▁শেখার	-11.6199
দ্দা	-11.6199
▁বার্থ	-11.6199
▁পারেনা	-11.6201
▁দৃশ্যের	-11.6202
▁উত্তরপূর্ব	-11.6204
▁কেস	-11.6205
▁চেষ্টায়	-11.6206
▁স্টেটস	-11.6206
▁সংখ্যাটি	-11.6206
দলীয়	-11.6207
▁সর্বজনীন	-11.6208
▁আমেরিকাতে	-11.6209
▁গীতি	-11.6211
▁ঝড়ের	-11.6213
▁উত্তেজিত	-11.6215
▁ক্যালেন্ডার	-11.6215
▁মালয়ালম	-11.6215
▁গাঙ্গুলী	-11.6215
▁অঙ্গীকার	-11.6215
▁বেলুচিস্তান	-11.6215
▁আব্দুস	-11.6215
▁ভয়ঙ্কর	-11.6215
▁আমজাদ	-11.6215
▁দৃশ্যকাব্য	-11.6215
▁নেলসন	-11.6216
▁ঈদুল	-11.6216
ডোর	-11.6218
▁জোরদার	-11.6218
▁সংকুচিত	-11.6219
▁পনেরো	-11.6219
▁সংবেদনশীল	-11.6224
▁আনসার	-11.6226
▁থাকে৷	-11.6227
▁শীতকাল	-11.6227
▁সুরমা	-11.6227
পিতা	-11.6228
▁বুকের	-11.6229
▁১১৭	-11.6232
▁গলার	-11.6235
▁যথার্থ	-11.6237
▁জনতার	-11.6238
▁মুহাম্মাদের	-11.6239
▁উপরিতল	-11.6241
▁বড়দিন	-11.6245
▁কাজেই	-11.6245
▁করছি	-11.6246
▁its	-11.6248
দূর	-11.6249
▁পোস্টার	-11.625
▁চলক	-11.6252
▁অমল	-11.6252
গতি	-11.6255
তখন	-11.6255
▁আনাতোলিয়া	-11.6258
▁ডিই	-11.6259
▁হাঁটু	-11.6261
গুলোও	-11.6262
▁গিরিবর্ত্ম	-11.6264
▁নির্বাচক	-11.6264
▁পারভেজ	-11.6265
▁প্রশিক্ষিত	-11.6265
▁খননকার্য	-11.6267
ণে	-11.6267
▁স্থাপনার	-11.6269
▁মেক্সিকান	-11.627
▁যো	-11.627
▁সংযোগের	-11.6271
হ্য	-11.6271
▁পলায়ন	-11.6271
ক্লি	-11.6271
▁ক্রমেই	-11.6271
▁আতা	-11.6275
▁যৌগিক	-11.6275
গস	-11.6277
▁অনুকূল	-11.6279
াভ	-11.6281
নির্মাণ	-11.6281
00	-11.6282
▁চম্পা	-11.6283
সূর্য	-11.6285
▁সংগ্রহে	-11.6286
১৯৮৬	-11.6288
▁কান্ড	-11.6289
▁চত্বর	-11.6291
▁যশ	-11.6291
▁আটজন	-11.6294
▁অববাহিকার	-11.6295
▁ইন্টেল	-11.6298
▁কচ্ছপ	-11.6298
▁তোর	-11.6298
গিন	-11.6299
▁শৈশবকাল	-11.63
▁সংস্থাটির	-11.63
▁তর	-11.63
▁বহুবার	-11.6303
▁কাহিনীতে	-11.6304
▁প্রক্রিয়াকে	-11.6306
কণ্ঠ	-11.6307
▁করন	-11.6307
োরা	-11.6311
▁তথ্যসূত্র	-11.6311
▁সহপাঠী	-11.6314
▁বনগাঁ	-11.6314
▁১৭০	-11.6316
▁চোল	-11.6316
িক্যাল	-11.6319
▁গয়া	-11.632
▁ব্যাপ্তি	-11.6322
পেল	-11.6322
▁ভ্যালেন্সিয়া	-11.6323
নির্	-11.6324
▁মমতাজ	-11.6325
▁ছু	-11.6326
▁স্তুপ	-11.6326
▁ভাইসরয়	-11.6327
▁সিক্স	-11.6332
▁সেনানিবাসে	-11.6332
ভূষণ	-11.6334
ron	-11.6335
অভিনেত্রী	-11.6335
▁ডেনমার্কের	-11.6335
▁বুনো	-11.6335
অভিনেতা	-11.6335
▁ফারাও	-11.6337
▁জেটি	-11.6338
▁শিশুকে	-11.6339
ঙ্কার	-11.634
ব্রিজ	-11.6341
▁me	-11.6341
form	-11.6345
▁কোর্টে	-11.6345
▁স্ট্রাইকার	-11.6347
কালী	-11.6354
▁ক্যামেরার	-11.6354
▁আগেও	-11.6355
▁পাথরে	-11.6356
কাট	-11.6357
▁১০৪	-11.6361
▁সমকামিতার	-11.6363
▁চুয়াডাঙ্গা	-11.6363
▁এভিনিউ	-11.6363
▁রোমাঞ্চকর	-11.6363
▁পুনঃনির্মাণ	-11.6364
▁রক্তচাপ	-11.6364
▁গুরুত্বপূর্ন	-11.6364
▁ফ্রেডরিক	-11.6364
▁নক্ষত্রের	-11.6365
▁ইউনিক্স	-11.6365
▁স্ট্রিপ	-11.6365
▁এপ্লিকেশন	-11.6367
▁জয়া	-11.6367
▁রাঢ়	-11.6368
▁ইন্দোনেশিয়ায়	-11.6368
▁8	-11.637
অন্য	-11.6371
মার্চ	-11.6371
▁আলোকিত	-11.6373
▁ম্যাথু	-11.6375
▁আবিষ্কারক	-11.6376
তান্ত্রিক	-11.6384
▁ইপি	-11.6384
▁ফ্ল্যাশ	-11.6384
▁আন্দোলনকে	-11.6384
ran	-11.6385
har	-11.6387
১৯৭৯	-11.6388
▁কীর্তন	-11.6391
বাহিত	-11.6393
কাত	-11.6394
ভেদ	-11.6397
সিম	-11.6398
▁মন্ত্রীর	-11.6399
▁সুত্র	-11.64
▁দারা	-11.64
▁ট্যাঙ্ক	-11.6403
▁ফিলিস্তিনের	-11.6404
▁গভীরে	-11.6405
▁ফিনিক্স	-11.6405
▁অন্তর্ভুক্তি	-11.6405
▁অনাথ	-11.6405
▁কাসা	-11.6406
বিগ	-11.6406
ত্ত্ব	-11.6408
▁দাতা	-11.641
ক্যান	-11.641
▁সংবিধানে	-11.6411
স্টা	-11.6411
▁নও	-11.6411
ফাইনাল	-11.6412
▁আগ্নেয়	-11.6413
▁জিজ্ঞেস	-11.6413
▁ঝুঁকে	-11.6413
▁গ্রহাণু	-11.6413
▁গুড়	-11.6413
▁ফেলেছে	-11.6414
▁সুরিনাম	-11.6414
▁কাবাডি	-11.6415
▁হাজি	-11.6415
▁আশীর্বাদ	-11.6417
▁ইভান্স	-11.6418
রোজ	-11.6419
▁সিন্ধি	-11.642
▁বিক্রমপুর	-11.6421
▁স্তবক	-11.6425
▁মেহ	-11.6428
▁১১৫	-11.6429
▁বিক্রেতা	-11.6434
ting	-11.6434
▁ওয়েলিংটন	-11.6436
আমাদের	-11.6439
শ্র	-11.6441
বিভাগ	-11.6443
▁মুসলমানরা	-11.6443
▁লিগের	-11.6445
▁করে৷	-11.6445
▁মতবিরোধ	-11.6447
▁শিক্ষাগ্রহণ	-11.6449
আস	-11.6449
▁শাস্ত্রের	-11.6452
▁রেইন	-11.6453
▁নেটওয়ার্কে	-11.6453
▁জনগনের	-11.6459
▁ব্যক্তিত্বের	-11.6459
গোর	-11.646
▁স্লিপ	-11.646
▁চিতা	-11.6462
িকার	-11.6462
▁যুধিষ্ঠির	-11.6463
▁প্রাইমটাইম	-11.6464
▁অন্তিম	-11.6464
▁ভয়ংকর	-11.6464
▁কার্যাবলী	-11.6464
▁শীতে	-11.6464
▁কোবরা	-11.6465
খাল	-11.6465
▁been	-11.6465
▁ভুট্টা	-11.6465
▁প্রিয়া	-11.6465
▁আল্লামা	-11.6466
▁বৃহস্পতিবার	-11.6466
▁গ্লুকোজ	-11.6469
▁কবীর	-11.6469
দেবীর	-11.6471
এসএ	-11.6472
প্রভা	-11.6472
কারা	-11.6473
▁ইউরোপীয়ান	-11.6475
সেবা	-11.6476
▁একাউন্ট	-11.6476
▁লেহ	-11.6478
▁সনাক্তকরণ	-11.6479
▁শ্রোতা	-11.648
ius	-11.648
▁চাকরির	-11.6481
▁ভব	-11.6485
হলুদ	-11.6487
▁আকা	-11.6487
▁ব্লগ	-11.6488
▁মরুভূমির	-11.6488
▁লাভজনক	-11.6489
িচ	-11.6489
বাদক	-11.6491
▁এওয়ার্ড	-11.6496
▁অকাল	-11.6499
▁জোটের	-11.6499
▁খাঁর	-11.65
▁ম্যাকাও	-11.6501
▁গ্রন্থাগারে	-11.6501
▁ৎস	-11.6502
▁শ্রীলঙ্কান	-11.6503
বায়ু	-11.6503
▁প্রসারের	-11.6504
▁স্যান্ড	-11.6506
ish	-11.6507
নিং	-11.6513
▁ইন্তেকাল	-11.6514
▁ম্যান্ডেলা	-11.6514
▁সাত্তার	-11.6515
ছু	-11.6515
▁সুবিধাজনক	-11.6516
পররাষ্ট্রমন্ত্রী	-11.6516
▁জেন্টলম্যান	-11.6519
▁অঙ্কের	-11.652
দায়ক	-11.652
▁থো	-11.6526
▁কাঁকড়া	-11.6527
▁ভরত	-11.6527
▁কাউন্সিলর	-11.6528
▁শক	-11.6528
▁বিনিয়োগের	-11.6529
▁আসতেন	-11.653
▁নদীয়া	-11.653
ভার্স	-11.6531
▁বস্তুত	-11.6532
▁ঘোষাল	-11.6532
act	-11.6533
▁Ro	-11.6534
▁লেস	-11.6535
প্রতিনিধিত্বকারী	-11.6536
▁প্রমিত	-11.6537
ভদ্র	-11.654
েন্ড	-11.6543
▁১১৪	-11.6545
▁হরফ	-11.6545
▁লয়েড	-11.6546
”"	-11.6548
▁ইউনি	-11.6548
স্থানীয়	-11.655
▁শাস্ত্রী	-11.6552
ach	-11.6553
▁ভাণ্ডার	-11.6554
্ক	-11.6555
▁অসহায়	-11.6556
লুক	-11.6557
▁মহেশ	-11.6557
▁পরবর্তি	-11.656
▁বাসার	-11.656
▁চরিত্রগুলো	-11.6562
▁কিড	-11.6564
▁রপ্তানী	-11.6565
▁লাহিড়ী	-11.6565
▁নর্দার্ন	-11.6565
▁হ্যারল্ড	-11.6565
▁ক্যারিবিয়ান	-11.6565
।[	-11.6565
▁ইউনুস	-11.6565
পাড়ায়	-11.6566
▁খন্ডে	-11.6567
▁শিবপুর	-11.6567
▁গুজরাটি	-11.6569
▁7	-11.657
▁সৃষ্টিকর্তা	-11.657
▁সাও	-11.6572
▁সন্দেশ	-11.6573
▁অ্যাপোলো	-11.6573
▁ডিজেল	-11.6574
▁খ্রিষ্টীয়	-11.6575
▁ফের	-11.6577
▁ভাইদের	-11.6577
▁গন্তব্য	-11.6578
অনেক	-11.6579
নিন	-11.6581
mi	-11.6581
▁দাসের	-11.6583
টোর	-11.6583
▁টেম্পল	-11.6584
▁ইয়েল	-11.6584
ধীন	-11.6585
▁আদা	-11.6585
▁তৈমুর	-11.6586
▁ছাই	-11.6587
rus	-11.6588
ব্রিটিশ	-11.6589
▁আশায়	-11.6589
▁নোবিতা	-11.6591
লজি	-11.6593
ical	-11.6595
▁মুনি	-11.6596
▁পিয়ার	-11.6598
▁ব্যবসায়ীদের	-11.6601
▁হিলস	-11.6603
▁গবেষণাগারে	-11.6605
মাত	-11.6608
্নি	-11.661
▁শিরোনামের	-11.661
▁দারুণ	-11.6612
▁উইকিপিডিয়ান	-11.6613
▁16	-11.6613
▁ঘাড়	-11.6614
▁যু	-11.6614
▁বোট	-11.6614
der	-11.6615
▁ঘেঁষে	-11.6616
▁উৎক্ষেপণ	-11.6616
▁নবাগত	-11.6616
▁দমদম	-11.6616
▁পেপ্যাল	-11.6616
▁ডজন	-11.6616
▁বহিঃপ্রকাশ	-11.6616
▁পরিবেষ্টিত	-11.6616
▁সাজিয়ে	-11.6617
▁সুরেন্দ্রনাথ	-11.6617
▁অধিকারে	-11.6618
▁বিবিধ	-11.6619
▁আরোহন	-11.6619
▁তানজানিয়া	-11.6619
▁স্টোরেজ	-11.662
▁সংশ্লেষণ	-11.662
▁অ্যাওয়ার্ডস	-11.6621
▁নামকরন	-11.6622
▁ক্লাবটির	-11.6623
▁সম্ভাব্যতা	-11.6623
সূত্রে	-11.6624
▁দরগাহ	-11.6624
▁বাঁচাতে	-11.6624
▁১৮৫৪	-11.6625
বর্ধন	-11.6626
▁চাকরী	-11.6628
▁দেওয়াল	-11.663
▁ভিজে	-11.6632
ইয়ো	-11.6634
▁ব্যঙ্গ	-11.6634
▁ইন্দ্রিয়	-11.6634
▁যন্ত্রে	-11.6634
▁বেগুনী	-11.6635
▁শিখা	-11.6637
▁ছাত্রছাত্রী	-11.6638
▁ধর্মপ্রচারক	-11.6639
স্তম্ভ	-11.664
ব্ল্যাক	-11.664
▁একুশ	-11.664
▁It	-11.6643
▁পর্ষদ	-11.6645
▁কবরস্থানে	-11.6646
▁নামতেন	-11.665
▁তাঁত	-11.6651
▁বাছাইপর্ব	-11.6652
▁মন্ত্রিসভা	-11.6655
াধীন	-11.6656
▁মালেক	-11.6656
▁ভ্রমণে	-11.6658
▁কলেজটিতে	-11.6662
▁বিদ্যুত	-11.6662
▁শিখর	-11.6662
hu	-11.6664
▁খাপ	-11.6664
▁শেখানো	-11.6664
ম্যাক	-11.6664
ন্যি	-11.6665
রক	-11.6666
র্গ	-11.6667
▁টর্নেডো	-11.6667
▁পরিযায়ী	-11.6667
▁পূর্বাভাস	-11.6667
▁টেলিস্কোপ	-11.6667
▁প্রাক্কালে	-11.6667
▁বাড়ছে	-11.6668
▁মুখোপাধ্যায়ের	-11.6668
▁যুদ্ধবিমান	-11.6669
▁ধর্মবিশ্বাস	-11.6669
▁অমিত	-11.667
▁জলবায়ুর	-11.6671
▁তারেক	-11.6672
▁ছুরি	-11.6673
▁কাটোয়া	-11.6674
▁বিরক্ত	-11.6675
▁যাদবপুর	-11.6675
▁আচ্ছাদন	-11.6676
সাথে	-11.6677
▁কিলোগ্রাম	-11.668
▁সরণ	-11.668
ধী	-11.6682
▁১১২	-11.6685
ালা	-11.6688
▁গোর	-11.6688
▁অবমুক্ত	-11.6689
বার্ড	-11.6691
▁১৮৬৮	-11.6692
কান্দা	-11.6693
▁রজনী	-11.6693
▁ইলেকট্রনের	-11.6693
হেল	-11.6694
▁নিম্নভূমি	-11.6694
▁প্রজ্ঞা	-11.6696
▁কুমির	-11.6696
১৯৬৭	-11.6697
রাং	-11.6698
করণে	-11.6698
▁তাইওয়ানের	-11.6698
▁সহজলভ্য	-11.6699
▁প্যারালিম্পিক	-11.6701
িগ	-11.6707
াইটিস	-11.6707
▁উত্তরবঙ্গ	-11.6708
▁ভয়েস	-11.6708
কবিতা	-11.671
▁১০৬	-11.6712
শূন্য	-11.6713
▁প্রকৃতিতে	-11.6715
▁সংস্থায়	-11.6715
গরি	-11.6717
▁সরিষা	-11.6718
▁ইস্তানবুল	-11.6719
▁সুলাইমান	-11.6719
▁ডায়মন্ড	-11.6719
▁দীর্ঘমেয়াদী	-11.6719
▁বৃহদাকার	-11.6719
▁নির্মূল	-11.672
▁সোহেল	-11.672
▁শ্রীমঙ্গল	-11.672
▁বানায়	-11.672
▁নিয়মে	-11.6721
▁জীববিজ্ঞানী	-11.6722
▁মিঠা	-11.6722
▁রিপোর্টে	-11.6725
▁সংগ্রহকারী	-11.6725
▁ম্যাট্রিক্স	-11.6725
▁জেরুসালেম	-11.6725
ফরাসি	-11.6727
▁১৮৫৬	-11.6727
▁মিনারের	-11.6728
▁সেটিকে	-11.6729
ফাস্ট	-11.673
▁কেলি	-11.6732
▁পূর্ন	-11.6734
▁জুরি	-11.6737
▁থর	-11.6738
▁১৯টি	-11.6741
▁পরিভাষায়	-11.6741
▁সাবান	-11.6744
▁বরাক	-11.6745
▁খরা	-11.6745
▁চলন	-11.6746
েলের	-11.6748
সাইট	-11.6751
▁উসমানীয়দের	-11.6751
▁তত্ত্বটি	-11.6752
▁স্প	-11.6753
▁লোককে	-11.6754
▁সরণি	-11.6754
গুলিও	-11.6755
▁উৎ	-11.6757
হাদ	-11.676
▁মালয়েশিয়ায়	-11.6761
▁ডোমিনি	-11.6761
▁শ্যা	-11.6762
▁বৌ	-11.6762
মার্	-11.6764
মতী	-11.6764
▁র্গ্যাল	-11.6766
▁হান্ট	-11.6768
▁সেটের	-11.6769
নর্দাম্পটনশায়ার	-11.677
▁ক্যাপিটাল	-11.6771
▁নিরাময়	-11.6771
▁কানে	-11.6771
▁শিবলিঙ্গ	-11.6772
▁পৃষ্ঠের	-11.6773
▁আকরাম	-11.6774
▁পুঁজি	-11.6774
▁বার্জ	-11.6774
▁শৈব	-11.6776
▁সংক্রামক	-11.6777
▁বুড়ি	-11.6779
জাগতিক	-11.678
▁অনুসারীদের	-11.678
▁সিঙ্গাপুরে	-11.6784
▁পার্কটি	-11.6784
[...]
